#version: 0.2 - Trained by `huggingface/tokenizers`
a a
h a
t a
m a
r a
y a
s h
w a
s a
n a
p a
h aa
h i
Ġ sa
r aa
c ha
d a
s ha
w aa
sh h
w i
y aa
Ġ k
Ġ ta
Ġ pa
t aa
Ġ cha
t i
Ġ b
Ġ a
m aa
n aa
t e
j a
n i
Ġ d
Ġ p
Ġ ma
u u
g a
i i
N a
sh ha
Ġ wi
k a
Ġ wa
l a
Ġpa ra
Ġk a
Ġ s
shh T
s ya
r i
d ha
t u
r u
t haa
Ġ sha
N aa
t ha
Ġ na
Ġ raa
i ta
y u
Ġ c
i t
Ġ aa
b h
Ġ ya
t ra
b hi
y e
d h
r e
w e
Ġ da
Ġ i
d aa
Ġma haa
Ġ .
Ġb ha
Ġ m
Ġp u
k aa
b ha
i ra
Ġ ni
e wa
Ġ u
j aa
Ġ sh
Ġp aa
c h
Ġ waa
s aa
Ġb a
Ġsa r
ta ma
p aa
hi i
n u
Ġ te
t ya
h e
m i
Ġta wa
d hi
Ġs u
Ġd ha
i wa
Ġ tu
n ta
Ġ ga
Ġ ja
Ġ ha
Ġ ra
d haa
Ġc haa
Ġ maa
Ġ g
k shha
p i
r ii
r ma
sh hi
i shhT
k shh
n e
ra ma
ya ma
n ti
h u
Ġ naa
sh haa
j J
wa r
i taa
N D
Ġk aa
ch C
w R
l aa
Ġk R
b a
Ġ e
t waa
Ġk u
na ma
shh u
Ġ yu
Ġpa raa
s u
m u
Ġsar wa
waa na
sh aa
p u
s i
e na
n d
Ġ taa
h R
b haa
Ġsa ma
uu r
t hi
p ra
Ġ hi
g aa
k R
Ġs aa
Ġc hi
d ya
Ġm e
ta ta
N i
maa na
n ya
i shh
m e
r ya
Ġraa ja
r uu
i sha
h uu
m sha
Ġd u
J N
ti i
ni i
ra ta
N e
Ġ ewa
Ġb haa
wi i
sh ya
t raa
r tha
Ġta thaa
t ma
Ġpa ri
ND a
Ġwa i
m sa
s yaa
k ha
Ġ l
h ma
r shha
c hi
k ta
m ya
d u
k u
Ġcha iwa
wa ta
pa ra
Ġb hii
bh uu
Ġya thaa
Ġi wa
Ġsa ha
Ġb huu
chC ha
c haa
yaa ma
d i
Ġm u
ya te
n na
Ġd R
s e
d dha
Ġka r
ya ta
Ġta ta
sh wa
g h
raa ja
Ġta daa
w ya
it ya
Ġdha rma
ta t
k e
p ya
Ġk i
jJ Naa
k shhi
Ġ n
Ġ j
o dha
d e
Ġ wR
Ġpara ti
Ġd e
Ġ y
Ġsa maa
shhT ha
o t
g ha
shh ya
d R
Ġ C
bhi ra
Ġpu na
bh ya
Ġpaa NDa
l e
u ra
Na ma
Ġraa jaa
d dh
Ġta tra
Ġsa wa
Ġ yaa
Ġ la
o pa
taa ma
naa ma
n te
o ra
Ġraaja na
r wa
Ġb aa
o ka
d ra
w yaa
Ġd ewa
n t
a sa
wa ma
Ġba ra
wa na
Ġ jaa
Ġwa ya
it waa
Ġsha ra
nd ra
Ġ we
sh u
da r
k h
Ġd aa
b aa
n da
ka r
shh e
k ra
Ġma ha
n dha
pa raa
yaa na
Ġta t
p ta
t ta
Ġa pi
Ġta da
Ġp R
ishhT waa
Ġda r
jJ Na
Ġi ti
shhT hi
e ta
ha ma
ya na
b ra
Ġsar we
l i
ishhT a
tu ma
Ġsh u
la ma
taa na
Ġsh aa
re Na
Ġa s
dh ya
Ġaa sa
r yaa
Ġa r
yaa mi
Ġg u
da ma
Ġn R
s wa
t he
Ġa nu
Ġa bhi
Ġta sya
j ya
ita ma
i pa
d ii
d dhi
Ġka shha
t h
Ġwa r
Ġpu ru
Ġsa t
JN cha
g e
t maa
s ii
Ġchaa pi
k taa
Ġta waa
ja ya
Ġbhaa rata
Ġha ya
m R
yaa ta
ha s
Ġyu dhi
kshh ya
Ġda wi
Ġma ma
N ii
waa cha
wi ita
ri ya
ye na
shhT a
Ġpu tra
s mi
n yaa
Ġpaa r
Ġku ru
Ġwa cha
Ġbhii ma
g u
j u
Ġbara hma
Ġd i
t tama
raa hma
Ġdu r
ra u
sh i
Ġraa ma
sh e
sa ma
N ya
d dhaa
ta da
s maa
Ġna ra
ra tha
J Na
ga ma
wa i
Ġu pa
i te
Ġwi i
bh u
Ġbha wa
o da
Ġka rma
Ġra Ne
p e
Ġm R
d ewa
Ġsha ru
k i
ga ta
m ii
wa da
t yaa
ii r
hi ta
Ġba hu
ka ma
k ya
k haa
pa ti
Ġwa ra
h ya
Ġi waa
Ġdha r
i ti
raa na
i N
te na
sh hii
Ġpara ma
Ġg aa
Ġ R
sa r
Ġc he
Ġma n
g haa
Ġa bra
Ġma yaa
Ġbha rata
Ġka tha
p raa
o kaa
Ġk e
s tra
Ġsa mu
Ġsh i
Ġraa kshha
raa shhT
b u
Ġmahaa raaja
s R
j e
Ġp uur
Ġj ii
dh u
Ġsa tya
g raa
ta sya
Ġb u
Ġa ha
l ii
n taa
Ġra tha
it hi
g ra
s thi
yaa da
ĠC ha
t wa
Ġd haa
o cha
Ġta pa
Ġyudhi shhThi
Ġ ye
Ġta ri
ta ra
a tha
ba la
i shha
maa naa
Ġsar waa
ta sa
t R
Ġbhii shh
Ġbha wi
Ġni tya
y i
shh wa
Ġbha raa
Ġba raahma
s thaa
na sa
dar sha
Ġni r
Ġchi ta
a na
pu tra
p R
o ke
Ġs i
ri yaa
rshha bha
k shhaa
o Na
Ġsh uu
Ġpu raa
g R
ya sa
waa sa
Ġd hR
war ta
bh yaa
i sa
o ma
ya thaa
Ġwi d
Naa na
JN ja
taa ni
Naa ma
Ġmahaa tma
ruu pa
tu ra
Ġpuru shha
a bhi
ewa ma
m it
Ġsama re
Ġp ha
Ġu paa
ti ma
shhya ti
re shhTha
Ġ ru
Ġchi da
Ġ hR
g ni
Ġa n
i shya
Ġsa i
Ġb hR
Ġmahaa baa
k twaa
ta wa
Ġtawa yaa
s uu
Ġba la
Ġg R
ha ta
Ġg h
nti i
ra Na
Ġya ta
kshh ma
T a
Ġabra wiita
sh ii
hi taa
Ġb hu
dha rma
a ha
Ġ ti
Ġpaa rtha
Ġnaa ma
chC haa
ba ra
k rama
j i
p uur
Ġsa thi
Ġk ha
ma haa
Ġpa shya
dh wa
Ġi da
m jaya
ta na
dh e
ne na
hu ra
y uu
o d
chC he
ma ma
ti ra
Ġpa re
Ġwi ira
Ġbha ga
Ġpuna ra
a bha
dha r
bh e
ta pa
Ġsha k
a pi
du r
Ġparaa p
s ena
ta u
ta thaa
m pa
Ġd ii
ishh ya
n tya
JN chaa
p uu
t r
Ġwa yaa
Ġsa u
Ġte na
Ġpa r
Ġma hii
r ta
Ġta ma
Ġsha rii
Ġsaha s
s ti
wa sa
Ġtaa na
ra sa
Ġu t
Ġu waacha
i da
Ġpa rii
ishh Na
Ġ t
Ġpa JNcha
Ġka ru
s tha
Ġs uu
Ġ tii
sa wa
k ru
tha iwa
Ġbha we
sh ra
Ġdha nu
pa shya
shhT aa
Ġya da
ju na
ya da
Ġc h
Ġdha na
Ġa wa
Ġp itaa
Ġtawa ma
Ġka u
Ġsharu twaa
bhi i
ye ta
Ġtaa ta
ĠpaaNDa wa
i shhi
dhi pa
da na
Ġpa sh
Ġcha i
Ġpaar thi
pa ri
kaa sha
l ya
ra s
ja na
Ġda sha
odha na
Ġpara jaa
dh yaa
Ġja J
ishhT aa
naa da
ĠyudhishhThi ra
k t
ni r
tata sa
bh R
Ġja na
raa sa
raa Ni
wi ta
ddh e
Ġar ha
Ġp uu
dh R
Ġe waa
gh ra
ĠpaaNDa waa
smi na
sa maa
a nu
ra sya
r shhi
Ġpaa pa
Ġwi sh
Ġyu ddha
ithi wii
Ġsa daa
naa ta
t maana
ma n
ri ta
Ġsha t
Ġaa tma
Ġda ra
Ġma na
d yu
o ti
s ma
Ġmahaa ratha
Ġde waa
ra thaa
Ġna raa
a ya
h kha
s ta
t re
wa ya
pa r
Ġsa thaa
maa Na
Ġka ura
Ġpaa ND
Ġbhiishh ma
ya u
Ġma he
Ġwaa kya
Ġmaa ma
N ena
yu ra
saa dya
o shha
raa ma
Ġcha na
m yu
m pra
Ġraa wa
kshh e
w ra
Ġs e
Ġkaa ma
m ha
ra i
raa ya
uu la
sa rwa
ita raashhT
Ġbu ddhi
o ga
daa na
k iir
p taa
Ġu kta
Ġsh ii
ma ha
ra sha
Ġa waa
ra d
sh reshhTha
sa na
tu r
Ġraa gha
m bha
raa wa
Ġni sh
Ġja naa
Ġla kshhma
D a
s wi
nii ma
Ġsh R
n tu
ta tra
Ġp i
ga chCha
Ġsu kha
ya sha
ka ra
Ġka shhi
jJ N
me Na
l yaa
n tama
s ye
pa ta
n naa
t ri
Ġmaa na
Ġkar Na
m ga
kaa ra
Ġe shha
j ita
ka tha
ot tama
i ha
p ii
ka rma
Ġbharata rshhabha
l u
Ġu ktwaa
Ġwaa na
kh yaa
Ġdhar maa
j ii
Ġ itya
raa Naa
Ġya sha
bhuu ta
Ġpuur wa
Ġwi wi
Ġda rau
r taa
smaa da
o ha
Ġta na
Ġkaa la
n ye
sa ttama
Ġga chCha
Ġa na
p ha
Ġe tada
dya te
a r
l pa
Ġsha ta
Ġbaa Na
D ha
a pa
m ba
y itwaa
na nda
Ġa sh
Ġpu shh
t sa
shh yaami
Ġs ii
g ii
taa naa
Ġsar waana
dhaa na
Ġpari ya
sa t
Ġwi shaa
Ġya di
we na
Ġshara i
Ġ ii
Ġsa war
da sha
Ġa bhya
shhT haa
paa ta
msha ya
waa ra
taa sha
Ġa hama
Ġpara wi
we sha
Ġdur y
r ha
dh ye
bha u
Ġwaa k
d yaa
wa cha
Ġka sha
shwa ra
Ġwacha na
Ġshat ru
l ena
m na
Ġta p
Ġpu traa
kaa ma
Ġte ja
m ni
it R
Ġya tra
hi t
Ġa sa
Ġa dya
jaa na
shhe Na
g rii
Ġpara tya
Ġte shhaa
ta syaa
Ġd hii
ru twaa
Ġwar ta
a wa
Ġwi ni
Ġwe da
Ġdaa na
i ga
sa has
Ġaa ha
Ġi chCha
ĠjaJ Naa
Ġwa na
e shha
Ġraa je
Ġpaa JNchaa
i sh
m ita
Ġta ya
Ġmahaa na
ch e
ch yate
gaa ma
r d
ha na
Ġb h
Ġsarwa ma
jJ Ne
su ra
o bha
Ġa ti
te shhu
dha na
Ġna ya
ttama ma
m uu
ma u
isha ma
k he
Ġ r
wa ra
it ta
Ġba ruu
Ġha ri
iN u
Ġdar sha
smaa ta
wa nta
shha ta
Ġwi pra
saa da
Ġchaa pya
Ġraaje ndra
Ġwa su
shhT u
Ġga ta
Ġbhawi shhyati
Ġmahaabaa h
m s
n wi
o k
Ġpa ti
naa ni
Ġwa j
dha ma
Ġaa sh
m graa
na u
sha ta
Na sya
Ġwi shha
Ġwi du
Ġkaa r
ĠpaaND u
i waa
cha ra
Ġe ka
o ja
Ġ he
Ġsa mR
Ġgu ru
Ġkau nte
a ra
t reNa
Ġma nu
Ġaa sii
Ġpaarthi wa
n dhaa
Ġ ruupa
Ġga ndha
d wi
da u
Ġd hi
bhi sha
Ġni ha
Ġdawi ja
Ġwii rya
Ġpha la
Ġbhawe ta
g i
g ena
i ka
kshh u
k raa
ya sya
Ġra thaa
traa Ni
Ġmu ni
o sha
ta i
Ġpa te
Ġpara maa
Ġsha re
Ġja ya
Ġsarwa sha
asa mi
Ġmaha ta
Ġkashha t
Ġt uur
i h
sh ru
Ġta syaa
Ġa pa
Ġa tha
daa ya
Ġti shhTha
da ya
ja ma
Ġmahaa bala
taa sa
Ġcha tur
ti shhTha
Ġa sya
Ġba bhuu
Ġsuu ta
n R
y ishh
Ġwi dhi
Ġka ri
bha wa
rta raashhT
k ii
m saa
o dhaa
ita i
Ġda ru
wii da
j itaa
ra da
pa t
nta ta
Ġarha si
Ġa nya
te shhaa
Ġka ra
Ġi ha
Ġyu ddhe
Ġjii wa
m ra
Ġpa rya
kaa na
Ġwaak yama
ra ya
pa te
shh N
Ġa ri
Ġs R
Ġsha r
Ġmahaa rathaa
gaa na
Ġbhuu ta
Ġki ma
Ġmahaatma na
m kh
t yu
na ya
Ġsa waa
dhi shhThi
o N
r the
ra Naa
raa j
Ġta thaiwa
Ġpara s
Ġs uur
Ġraa jya
Ġra kshha
rtha ma
Ġbhaga waana
i k
Ġsa naa
Ġp ii
Ġma t
bha wata
Ġmaa r
i chCha
k r
Ġraagha wa
maa n
maa r
Ġke sha
d raa
u pa
Ġ nu
uu na
Ġga twaa
Ġmaa nu
Ġmahe shh
myu ge
Ġp itR
ri taa
Ġsha kra
bh y
pu traa
wyaa dha
chChaa mi
i na
pa da
Ġta u
Ġsha i
laa na
Ġchi tra
kha ND
ku la
ta sha
we da
ch ya
war shha
Ġsarwa bhuu
gh na
wyaa ghra
d hii
Ġbha waana
Ġwaa su
Ġse naa
i ddha
n y
ra t
ra ira
shh ye
yaa sa
taa pa
Ġb hi
Ġpara ya
Ġka wa
bhi sa
Ġpu Nya
ruu paa
ga taa
Ġg i
Ġkaa rya
m ja
r thaa
ka shha
Ġdha wa
i kshha
shh yaa
Ġwa ne
Ġsha b
kshh yaami
a ti
n ma
p re
naa na
ga mya
Ġpara bhu
Ġparaa pya
chChe da
m kru
naa sha
ch eta
itaa na
mu kha
r waa
raa sha
Ġa thaa
Ġkaa le
a thaa
h maa
i ja
r dha
Ġsa yaada
Ġb R
Ġa wya
ga ndha
Ġraajaa na
Ġraakshha sa
c hii
maa Naa
Ġpara ha
Ġu ttamama
chC h
okaa na
Ġraakshha saa
i hya
ta ya
Ġsa mii
Ġd iwa
Ġma dhu
ga ra
Ġya jJNa
Ġsaha saa
ĠC hi
Ġdhaa rtaraashhT
Ġa nta
Ġha ta
Ġsama ntata
Ġmaha da
ra thi
Ġta cha
Ġku ruu
Ġbhuu mi
kshhi Na
p nu
Ġa ni
Ġga taa
Ġkaru ddha
m sh
u t
Ġ ne
it ra
ba laa
m praa
taa wa
Na ira
it yaa
ot ta
Ġsat rii
bhii ma
Ġlakshhma Na
nanda na
d bhu
ma ta
haa ra
shh pa
Ġda waa
ba raahma
Ġku la
ishh Naa
sa i
sa u
te jaa
ri Na
Ġi dama
ishhT ha
Ġku sha
shhya nti
abha ya
dur y
mgraa me
i hi
i jya
o nya
y ishhya
Ġraa j
Ġya ma
Ġm uur
Ġsu mahaa
nd riya
bhaa wa
b dha
maa ma
Ġka shhu
ru wa
tra ma
saa ma
Ġbhuu twaa
Ġbhiima sena
Ġsai nya
e te
g mu
m wR
pa rama
shaa sa
m si
m uur
ya di
wi d
Ġp ita
yu ta
yu dhishhThi
Ġda iwa
Ġsaa ya
Ġbaraahma Naa
da t
Ġcha k
Ġa si
kaa r
Ġsu hR
ĠCha rutwaa
a bara
i tha
o kta
Ġsa haa
yaa sha
dha wa
paa NDa
ishhTa dyu
Ġdi wya
Ġbaraahma Na
m wi
Ġ yena
ta ri
sha ma
Ġta smina
Ġya t
Ġpaa wa
paa la
i has
n uu
Ġsa tata
Ġaa saadya
dh uu
Ġm uu
Ġshu bhaa
sthaa ya
T aa
ta cha
sh R
tha ma
yu kta
bhi ishh
Ġman tra
puur wa
Ġsii taa
e ka
p rama
Ġpa d
Ġwi dyate
Ġwi shhN
Ġpara bh
ru ta
Ġsha reshhTha
jaa naa
Ġga daa
Ġparaa pta
Ġtaa wa
wii rya
Ġwaya wa
Ġbharaa tR
h wa
m bh
o ni
s taa
ya nti
Ġsa bhaa
Ġsa pta
Ġe tata
eta da
Ġbhawa ti
bu ddhi
Ġnaraa dhipa
grii wa
Ġkaunte ya
mkh ye
k tama
m b
sh cha
Ġa ma
Ġa gni
re shhu
Ġyu kta
Ġjii wi
rad waa
h uur
m ta
Ġma nya
re ta
bha ma
bara hma
m tapa
Ġa naa
ita da
pu tr
Ġtata sa
ĠC haa
N yaa
d wa
i ddhaa
o ta
Ġpa rwa
Ġa N
Ġd isha
nta ra
Ġchaa sya
Ġbaruu hi
a bhya
o gaa
ha ra
sa ha
da ra
Ġta ra
Ġraa jJNaa
Ġmahaa tejaa
kaa la
Ġu chyate
Ġsu ta
Ġga ti
para ti
o kshha
ma na
ga da
Ġwa da
ye shhu
laa ni
shhya si
d ena
w yama
Ġ shha
ya ti
raa kshha
ka rama
Ġsha raa
Ġmahaa bhaa
Ġwai de
syaa mi
kar Na
Ġpitaa maha
a hama
i shhii
m bu
wa tii
pa ma
pa dya
Ġpa u
ka i
Ġwa raa
Ġka shhe
Ġtaa ma
Ġsahas rasha
Ġtuur Na
h khaa
ya nta
Ġsa ra
raa da
naa naa
Ġd uu
ri shha
it s
Ġaa r
itaa ma
sh waa
pa rii
raa ta
maa ne
shha ma
Ġwi na
la wa
Ġpara sha
Ġni shaa
bhaa shhata
Ġchi na
sar we
ghaa na
pha la
d ru
m dama
t wama
wa nti
Ġsa me
ka l
Ġbha ya
Ġmaa rishha
Ġnaa sti
war ti
war Na
pu ra
raaja sya
sthi ta
Ġmahaatma naa
Ġtii kshh
Ġbabhuu wa
ta thaiwa
raa jaa
maa N
Ġwi wyaadha
shaa na
tma na
jJNaa ya
Ġbara wii
the na
Ġtapa saa
ishya te
Ġraawa Na
Ġyasha swi
a dya
h yaa
l gu
m yaa
n yama
¤ ģ
à ¤ģ
Ġ hii
Ġcha ra
Ġbha rtaa
ishhT yaa
Ġnaa naa
pra ti
Ġdu raa
Ġwii r
mit ra
Ġdarau pa
m dha
raa Ta
Ġk iir
Ġa pya
Ġma maa
ka sa
Ġna r
Ġi w
Ġni shh
Ġu daa
war tata
Ġku ntii
Ġbaa hu
Ġsukha ma
o wi
ja sa
Ġsha N
ye Na
Ġmahaa tmaana
Ġchi nta
Ġwaasu dewa
n dh
s traa
y ii
Ġ w
ya t
sh rama
wa taa
na i
pa re
pa daa
Ġb i
Ġaa daaya
Ġda t
Ġpu tr
tya ki
ddh waa
Ġwaj ra
Ġwiirya waana
a si
i paa
n wa
o haa
p n
r Na
ta smaada
wa t
Ġsa da
wi krama
Ġma ti
Ġwa rshha
Ġpara kR
Ġpara tyu
Ġka nyaa
Ġpu ra
Ġja ye
Ġsawar ga
d ita
ka cha
la kshha
Ġpara sa
sya ti
it yu
Ġsh ira
Ġga r
shhaa Ni
Ġsaa dhu
chaa rya
kshhi ta
Ġmaha taa
Ġgu Na
yishh yaami
ta waa
na ra
Ġta traa
Ġpa ta
Ġwi naa
Ġraa m
it ti
Ġaa cha
Ġi chChaami
Ġpu ras
kaa N
ch u
Ġga mi
war dha
thi ta
Ġraaja nna
graa ha
d bhira
o shhi
p sa
w rata
Ġ haa
ya taa
sh ma
waa da
Ġa rtha
Ġya sya
Ġu tta
shhaa ma
Ġbara hmaa
Ġas tra
Ġbhiima se
d r
o paa
s t
wa la
sha na
Ġa ya
maa Ni
ga r
Na u
Ġwi chi
Ġraa jJNa
Ġaa sthaaya
chaa ra
kra mya
bra wiita
Ġche da
Ġaatma na
Ġmana saa
wa l
sha k
Ġya cha
Ġda darsha
Ġmahaa tmaa
Ġtawa yi
Ġpuru shh
Ġshi khaND
gra ha
Ġan y
Ġpash yaami
rd uula
k ena
ma naa
sh re
Ġwi bh
Ġwa k
Ġi haa
sii da
Ġsamu t
Ġhe ma
b R
k te
Ġ tR
ha rshha
Ġa wi
Ġwi mu
ka rshha
Ġwa sa
shhT i
Ġj i
Ġsawa ya
Ġpuru shhaa
Ġwacha nama
Ġdhar m
Ġman ye
Ġmahaabaa hu
Ġdara shhTu
Ġkesha wa
s maana
ma nt
Ġwi she
ka sya
Ġpara wR
Ġja gata
war Naa
ku t
Ġshu chi
hit twaa
Ġchak re
r dana
sh ruu
pa nna
Ġma yi
Ġwi ddhi
Ġka lyaa
shhT h
ru Na
ru wana
Ġha twaa
nd riyaa
Ġpari yaa
Ġsawa yama
warta te
r shhe
ta ira
Ġsa mya
waa rya
ka u
ka mpa
Ġbha r
Ġwaa sa
Ġra t
Ġsarwa l
kshhi taa
Ġsamaa saadya
Ġdi wyaa
Ġraakshha se
Ġdharmaa tmaa
bhiishh ma
k shhii
Ġ hu
Ġta ira
Ġa nii
ga tama
Ġka daa
Ġna re
Ġsu sa
bhuu shhi
Ġla N
Ġpaar thaa
Ġwii raa
Ġkaru ddh
Ġdhanu ra
sma i
b i
s tya
Ġya sa
Ġbha ra
Ġpu r
Ġha ra
Ġha taa
Ġdu shh
Ġbhaa ryaa
Ġbhuu mau
Ġteja saa
i Dha
k ira
w u
Ġ uu
ya cha
Ġsa hitaa
da wi
sha N
maa ni
naa ya
ja gaama
Ġm it
Ġni hata
Ġwaa yu
Ġba lama
dhaa ya
ND ii
Ġe te
Ġe kaa
opa ma
Ġas maa
Ġtawaa ma
abha wata
ĠjaJ Naana
Ġwaana ra
Ġaaha we
h k
k uu
o sa
o shhaa
ya tra
sha b
ni ra
Ġpara bhaa
tu sa
ru ra
Ġni i
Ġwaa pi
Ġba laa
tma ja
Ġkashha tra
Ġdawi jaa
a ga
a yama
w y
ma yaa
ma taa
sa mu
haa na
Ġsa hita
Ġa g
Ġd iir
Ġma dhye
Ġwa ch
yu dhaa
we ga
Ġu bhau
Ġba huu
paa da
pi taa
ba lama
Ġbhu wi
dhar maa
Ġarha ti
pii D
d itya
i thaa
o waacha
p eta
p lu
waa s
wi shhTa
Ġb he
ja gmu
ri yama
Ġsha ku
paa JNchaa
Ġra thi
Ġku rwa
maana sya
chi ta
de waa
Ġkarma Naa
oke shhu
Ġpha lgu
m ena
p ita
pa sh
da rau
sha ra
sha rii
ka wa
ka lpa
Ġsha stra
Ġna ma
nu te
Ġsu ra
mu khaa
Ġsaa rdha
chi nta
ĠpaaNDa waana
dra wata
th ya
Ġkashhi pra
Ġparas parama
Ġgi ri
D aa
b dh
n dhu
o bhi
ma t
ga Naa
Ġpara yaa
Ġna wa
yu dha
Ġya na
nu ra
Ġg ha
Ġnaa raaya
nd raa
du ra
se naa
kshhi Naa
ĠyudhishhThi rama
Ġshuu raa
puu ja
wra taa
Ġkashhat riya
d re
i bhi
n wita
ha taa
cha kra
waa si
yaa ni
Ġa bha
ja saa
Ġwi shwa
Ġpara wa
Ġsu raa
Ġnaa ga
Ġyu dhya
mu kh
Ġsarwa t
di na
Ġmu huur
Ġjaa ta
Ġar juna
Ġraama sya
Ġche ta
i shhaa
r y
wa yaa
waa saa
wi dha
Ġta smaada
Ġwa dhya
Ġaa hura
ye da
Ġu ta
nta u
kshh wa
Ġbhuu ya
nt yaa
Ġsarwe shhaa
ishhTadyu mna
D haa
N u
a daya
d itaa
n daa
o hita
o kya
ya nna
waa ha
Ġcha ndra
Ġwa s
la sa
sya nti
Ġsha kya
Ġna dii
Ġba li
he na
Ġja gaama
Ġmaa ta
Ġpurushha rshhabha
tapa rwa
ĠbaaNa ira
Ġmaheshh waasa
g na
i p
p riya
r juna
Ġ ri
ma da
da tta
wi ira
Ġb ii
Ġa tra
Ġwi ma
ka sha
Ġpara da
Ġka sya
Ġba ha
Ġtu mu
Ġga chChe
Ġra u
Ġe na
Ġnitya ma
Ġru dhi
Ġsharii maana
Ġukta sa
N ira
a shwa
j ja
m tana
r shh
t rii
pa dyate
Ġsa yaata
yaa wa
Ġcha kru
Ġa la
Ġa dhi
ga t
Ġpara hR
ru Naa
Ġni ra
Ġga ra
Ġkaa JNcha
Ġyu ktaa
shaa rduula
nd r
oka sya
Ġwe daa
Ġwe gena
Ġpar wata
ĠpaaNDawaa naa
apa ya
a ma
g dha
ha we
ra N
sh uu
wi taa
Na sa
la ira
ru shha
Ġba lii
Ġga tima
ba hu
Ġhi ta
de sha
Ġla bha
smi nna
Ġut sR
Ġbhawe da
Ġpuu ja
itaraashhT ra
ĠichCha si
Ġkashhat riyaa
Ġpita ra
e taa
i tii
j itama
m bhaa
n n
ta smaata
ra na
wa dha
raa cha
wi dhi
maa nama
naa ti
Ġma hi
Ġwi pu
ri tama
ita ira
paa ti
Ġkaa kut
pu N
bhuu taa
Ġbhuu y
oda ra
Ġsathi ta
Ġdarau Ni
Ġsanaa twaa
Ġpuras kR
a naa
m kR
r da
ta wya
ra kshha
ra Ne
ra Nya
waa dya
Ġa paa
Na i
Ġpara taapa
sya te
dha rshha
yu ktaa
bh yaama
Ġni b
Ġu d
Ġchaa pa
Ġe shhaa
Ġyu ddhaa
Ġbhaa r
ku sha
odha n
asa tu
Ġjaa tu
sthi tama
JNja li
Ġmahaabaa hura
Ġparii ti
Ġdiir gha
e tata
k hii
o raa
ma he
ra yaama
ya nte
sa tya
pa d
yaa cha
Ġa dbhu
Ġwi s
shhT he
Ġaa shu
dh ena
kaa maa
Ġwaa cha
Ġja y
Ġja la
Ġmaa dhawa
laa ma
su kha
Ġjaa yate
paraa krama
Ġgaa ndhaa
Ġbhu ja
Ġsathi taa
Ġchai waa
Ġwarta te
ihas pati
Ġwaide hii
T i
m ghaa
s y
ta y
ta smina
ra wa
ya daa
pa tya
hi tama
Ġsa wya
Ġta smaata
naa bhi
la kshhma
we shhu
Ġda daa
Ġsu du
Ġchaa nye
ba ndha
Ġparaa ha
pu r
wyaa gh
Ġas ti
Ġgu Naa
Ġchai na
Ġwiwi dhaa
Ġpushh pa
Ġwidu ra
Ġaasii ta
Ġmaanu shha
yudhishhThi ra
N T
g hu
u waacha
wa tsa
sa nna
pa nnaa
Ġta raa
Ġpa daa
Ġma nt
bh ra
paa na
Ġra th
Ġchaa ru
chC hi
Ġe tana
shaa sana
nd u
rshha bhaa
chi tra
Ġbhuu taa
Ġdharma ma
Ġki la
de w
baa hu
ndha wa
Ġshu bha
putra sya
Ġkha lu
Ġshii ghra
sye wa
Ġwiwi dha
Ġwasu dhaa
mkru ddha
a dhi
b ruwana
o shh
p t
t thaa
t wata
wa ne
na sha
Ġsa ta
Ġsa pR
sha rutwaa
waa su
wi shha
wi dhaa
yaa ya
yaa naa
yaa mya
Ġk ena
Ġta i
taa ra
Ġa shwa
ga i
Ġwi praa
Ġwa yama
Ġya daa
bha ga
pi taama
war maa
Ġsaa tyaki
Ġchi chCheda
ddh yaa
Ġshara ira
Ġas mi
Ġnara wyaaghra
Ġsharu ta
sar waa
ida ya
man tra
Ġkaura wya
Ġbuddhi ra
ar juna
ĠpaaJNchaa laa
yishhya ti
a N
i ddhi
k tena
n yena
t su
ta yaa
ta traa
ga daa
Ġwi ja
Ġwi ddhwaa
la ya
Ġpara bha
Ġraa jJN
Ġda wa
Ġdha ra
kshha ye
nii ya
asa ya
kh yaata
Ġwar dha
ki ma
Ġabra wiida
Ġsamu paa
darsha nama
Ġshuu ra
Ġpurushha wyaaghra
Ġpha lama
Ġsahas raaNi
Ġdhii mata
mja yama
pre kshhya
d bhi
i ma
i chCh
m shu
ma te
naa raaya
ni tya
Ġma nii
Ġka shhii
Ġsha we
Ġi ndra
Ġmahaa ya
Ġu kt
Ġku r
Ġewa ma
tma naa
Ġmu hu
Ġkar tuma
Ġmaha rshhi
Ġpaar th
gu Na
Ġpuur wama
sthi taa
Ġbharaa tara
Ġsai nyaa
sahas raaNi
paaNDa waa
Ġparataapa waana
k hi
s ka
s ita
y ya
Ġa y
ja J
Ġwa nama
Ġka thaa
Ġna iwa
dh yata
Ġda we
Ġdha ru
Ġsama ntaa
ruu pe
Ġbhuu taani
Ġdharma jJNa
Ġj ita
Ġraajaa nama
kar maa
paraa ya
Ġsat riya
Ġbarahma na
radwaa ja
Ġdat twaa
a ny
m cha
r mi
sh itaa
Ġsa naata
Ġa kshha
la i
Ġka i
dha nu
it taa
bh yu
Ġya yau
dh yate
Ġi ma
daa ta
Ġbha yama
Ġja nma
Ġmaa taa
Ġtaa ni
Ġmu kha
asa u
ishhTa ma
Ġsat twa
tmaa nama
Ġdhar me
suu dana
Ġmahaaratha ma
Ġawaa pnu
Ġjanaa rdana
Ġkashhi prama
ĠjaJNaa twaa
nwi taa
Ġsuur ya
abara wiita
rshh Ne
d uu
d it
i shaa
s wii
Ġ laa
ta paa
sa waa
haa da
Ġa pashya
ja u
Ġma ithi
Ġraa shhT
Ġda dR
Ġmahaa praa
Ġbha l
kaa le
Ġu dya
nta rama
Ġra ja
pra bha
Ġbhaa ra
rshha ya
nda na
Nii ma
Ġkuru te
ocha na
Ġtapa swi
Ġsharii ra
Ġyuddha ma
Ġnish itai
Ġmaana wa
I na
a la
d rii
j eta
m naa
m paa
n tuma
s uur
t t
u paa
da iwa
wi sha
Ġta rai
Ġcha kra
Ġcha kshhu
Ġa ne
Ġma h
Ġwa dha
Ġpara tii
ri t
ri tya
Ġsha wa
Ġsha raana
Naa naa
kaa ni
Ġwaa sawa
Ġsu griiwa
Ġra the
Ġkaa ryaa
syaa pi
Ġde sha
Ġwe t
Ġbharata shreshhTha
tre shhu
Ġshab da
C ha
g naa
i gaa
ta nama
sh yaa
sh wata
pa u
haa sa
Ġsa par
sha i
Ġpa ND
Ġa paraa
Ġma r
Ġma nda
nu jJNaa
Ġsu taa
Ġku ryaa
mu khe
pu raa
Ġtaa pa
maana sa
shwa rama
Ġdharma raaja
Ġki rii
Ġj u
Ġde wii
oka ma
Ġjaa na
eta cha
Ġdi waa
Ġgaa N
sthaa na
darsha na
Ġsi ddhaa
Ġsau mit
Ġkaakut stha
Ġsawya saa
i dh
t uu
ha te
wi shaa
Ġta rii
Ġta ras
Ġa p
maa ta
maa tya
ka raa
Ġwa rama
Ġka pi
Ġna ga
Ġaa gata
bhi ishha
Ġda tta
kaa raa
bha raa
ch cha
Ġwaa chaa
paa r
Ġtawa ra
Ġga N
Ġga ja
Ġha nuu
tii ma
Ġbhii m
Ġn uuna
Ġkatha ma
Ġdhaa ra
ishya nte
Ġshat ruu
itaraashhT r
ara juna
a gni
b dhaa
l ira
t hii
ma ya
ma dhye
wa ha
Ġta y
Ġpa t
Ġa ch
ja ghaana
Ġma ta
la sya
Ġka cha
Ġaa pata
Ġbha dra
Ġu ktaa
Ġwaa ji
Ġchaa bhi
Ġe k
Ġku le
Ġyu ga
su raa
mu kta
pra bhaa
chi ra
jJNaa na
asa ti
Ġshara war
gama ta
gama na
Ġbahu dhaa
Ġshi laa
Ġtapa sa
mga wa
Ġparaya chCha
Ġbii bha
g ira
k raama
o g
o tuma
o jana
p te
r pa
s wana
pa de
wi na
wi da
wi daa
Ġa th
naa wa
Ġwi sR
Ġka riyaa
Ġnaa rada
ND aa
Ġkaa ra
Ġsarwa ta
msha yama
Ġbhuu ri
chaa ri
bhya sha
Ġyaa nti
Ġla kshha
nt wa
kh ya
Ġshaa shwa
Ġsarwaa Ni
yi tu
Ġsi ddhi
warta nta
Ġkha D
Ġtii rtha
Ġnish cha
sahas ra
Ġaash rama
Ġsanaa tana
Ġkuruu Naa
padya ta
Ġbarawii mi
Ġlabha te
n waa
o Naa
ha sya
waa ta
ga u
Ġwi krama
Ġpara Na
Ġka ruu
Ġka riya
Ġsha u
tha iwaa
Ġpu rii
Ġsu y
iwa ma
Ġga waa
Ġha rii
ne shhu
laa sha
Ġparaa ya
pra tima
Ġsaa ga
ishh N
Ġj e
Ġparati gR
Ġde w
Ġdewa taa
sii ta
Ġbhawa nti
Ġsatya waa
Ġsahas ra
Ġpash chaa
Ġshii gh
Ġtaya ktwaa
Ġdaraupa dii
Ġmahaaya shaa
h shaasa
i he
l wa
m kaa
m hR
o hitaa
s traaNi
aa r
Ġta d
Ġta yaa
Ġa ta
maa da
Ġma Ni
Ġwi la
Ġwa kshhyaami
ita u
Ġda NDa
Ġmahaa mu
Ġmahaa dyu
bha wana
jaa nii
Ġsh e
Ġwaa hi
Ġkaa raNa
Ġku JNja
Ġyu yu
Ġpari tya
Ġmu hura
Ġkar N
Ġparati shhThi
ĠpaaNDa we
Ġla kshh
Ġwe ga
Ġgaa NDii
Ġan wa
Ġparaap t
Ġsau mya
hkha ma
Ġruupa ma
asami na
ĠtishhTha ti
ĠChi nna
ihi itwaa
Ġkiir ti
shak ti
taparwa bhi
Ġtarai l
a sha
a nta
i di
o daa
o rama
o ddh
p ena
s pR
ta p
wi shata
Ġk ewa
Ġpa nna
Ġa tya
Ġa mita
naa nya
ni shcha
Ġma dh
Ġpara shaa
Ġka l
Ġsha riyaa
Naa ta
yu sa
yu dhya
daa da
Ġpu N
Ġsu ma
nta sa
Ġga te
Ġha rshha
Ġchaa ha
Ġparaa Na
ishh e
li na
ipa te
kshhya nti
Ġdawi j
Ġsatya ma
ithi wyaa
Ġan ye
tawa yaa
Ġsathi tama
dhar meNa
Ġkaura wa
gachCha ti
ĠbaaNa i
gandha rwa
Ġpaawa ka
i d
i JNja
n nama
p tama
t taa
u tta
wa sha
Ġpa lawa
Ġcha kaara
Ġa bhuuta
te naa
ni ita
Ġma d
sya si
dha ra
tu sha
Ġna hu
it hu
Ġaa pa
Ġmahaa balama
Ġmahaa hawe
Ġni dhana
Ġu pe
Ġsu grii
Ġra kshh
Ġmaa tara
kshh waa
itaa ni
Ġku maa
Ġdu rma
tma jaa
ku maa
Ġsaha dewa
Ġde ha
ndra sya
bra wiida
li N
Ġshu k
Ġshaa stra
ipa ti
Ġdi wi
Ġratha ma
Ġbhawi taa
Ġbharaa taa
Ġwid hii
Ġwish waa
gii shha
Ġsarwabhuu taanaa
cheta sa
a tra
a paa
h khe
i dhe
o bhaa
o ktaa
na da
pa na
sha r
Ġk uu
Naa ni
Ġna la
Ġu da
Ġwaa rshhNe
Ġsu khaa
Ġg haa
kshh ura
ne ha
Ġnaa gaa
pu nara
pra saa
Ġsaa rathi
Ġme gha
Ġraaja JNa
chi taa
chi ntya
du rma
Ġkar maaNi
Ġdharma sa
kshhi pya
Ġy uu
Ġbaa h
shu bha
shi khaND
Ġjii wita
Ġbu ddhyaa
Ġbharaa ta
Ġpashya ti
yuu tha
Ġshak ti
Ġbhiishhma sya
Ġpi tura
Ġkusha la
itha ka
Ġmanya se
Ġmanii shhi
a ni
s te
sa te
pa JNcha
yaa ti
Ġcha muu
Ġma ru
Na sha
Ġwa t
Ġpara we
Ġpara thama
Ġya ja
we ti
Ġpu Nyaa
Ġni kR
Ġte j
Ġga u
Ġja wala
dhaa naa
shhi tama
Ġnaa ti
Ġkaa l
Ġparaa Naana
pu treNa
thi taa
Ġchi cha
Ġme di
tii ti
Ġj ite
Ġbhawa taa
Ġbala waana
mpa nna
Ġdii pta
Ġpar yu
Ġsathaa na
karma Naa
Ġwaana raa
Ġdharmaa rtha
teshhaa ma
Ġdhawa ja
Ġhu taasha
Ġbahuu na
d ishhTyaa
j yate
m sya
o gena
r yama
s the
aa tma
ra saa
ra the
sh ira
na kula
pa paata
wi sh
maa nu
naa gaa
Ġma dra
Ġwi raaTa
Ġwa yuu
Ġpara jJNaa
Ġraa dhe
Ġaa tmaana
ye ti
Ġi maa
bha ya
Ġpaa Ni
nu ma
Ġtu lya
nta re
Ġja graaha
Ġha te
Ġra Na
kshha ya
Ġnaa wa
Ġnaa bhi
Ġnaa nya
shhaa da
war uu
Ġe taa
pu shh
Ġhi ma
gaa ta
Ġchi ra
Ġkar tu
kshhi Nama
Ġde wi
ĠpaaNDa wai
Ġbaa shhpa
Ġsarwe shhu
Ġanu praa
Ġkuru nandana
shi na
pati ra
Ġwara ja
oma harshha
Ġsau bha
Ġmahii pati
Ġmahii pate
man yu
Ġshata sh
Ġdhii maana
Ġkaar mu
Ġgandha rwaa
Ġshare ya
Ġjiiwa ti
bhiima sena
Ġwak tuma
mant rya
Ġsamya ga
Ġtumu la
a sh
d y
i nama
j yaa
m gha
o dhi
o ge
r haa
r th
ha t
ya i
hi te
waa ma
naa ha
Ġma tta
ita sa
Ġaa hu
Ġaa shra
Ġm uula
Ġwaa ma
Ġsu daa
nta sha
Ġha yaa
Ġyu kt
nd rama
Ġsama ya
di shya
opa mama
bra wii
Ġputra sya
ju n
Ġsamu dra
Ġru da
Ġwiira u
Ġjanaa dhipa
ĠgachCha ti
che da
Ġniha taa
Ġtuur Nama
mkru ddh
ihi ita
Ġraaj yama
ĠwishhN u
Ġparatyu waacha
ĠgachChe ta
Ġmaithi lii
D h
T ii
a h
d isha
i gu
i she
l y
m da
p itR
s tu
u gha
pa ya
pa rya
Ġsa dR
raa jya
Ġa kar
maa ya
maa tra
ni shh
thaa ya
ita warmaa
Ġya u
Ġda yuu
Ġte shhu
Ġsu kR
Ġsu dur
Ġsu maha
Ġha yaana
kshha te
shhi taa
Ġku mbha
Ġdaa ru
Ġtat twa
tta maa
Ġshaa nti
Ġdi sh
Ġsharu tama
mii ti
Ġbahu bhira
Ġsatya sa
sthi te
Ġsi ddha
ishya ta
suu ta
Ġpaarthi waa
kshhe pa
Ġnare ndra
Ġbhaar ga
a ta
i kshhaa
m ira
m baa
m kaasha
o r
o kshhya
t ru
Ġ uur
ha r
ya chCha
wa raa
cha tur
da yaa
Ġk ii
Ġta smai
naa ga
shha yaama
Ġpara dii
dha u
Ġsha ruu
Ġraa tri
it te
tra ira
ye naa
we daa
Ġda dau
Ġda kshhiNaa
Ġbha k
Ġpaa da
Ġpaa la
Ġpaa paa
Ġpaa rshha
Ġba ru
Ġba ruwa
he ta
dhaa wa
shhi ta
ishhT i
ne ya
Ġsarwa ira
shaa stra
Ġtaa dR
ku le
ku rwa
ke sha
Ġbaa Naa
dra wana
Ġdaa shaa
Ġputra sa
Ġtari bhira
Ġbaraahma N
itaraashhT rasya
kiir Na
mna taparwabhi
ish war
Ġaasii na
Ġmahaarathaa na
Ġmaar ga
Ġani nd
otta maa
ishhTadyu m
Ġji ghaa
ĠdarashhTu ma
Ġphalgu na
bdh waa
Ġadbhu tama
h sa
h shaasana
n thaa
n dhi
o D
s itaa
ya taama
Ġsa tha
da shaa
sha mya
wi she
wi wyaadha
yaa nta
te jasaa
Ġpara m
Ġsha lya
Ġraa meNa
Ġya th
kaa she
bha y
Ġga tira
Ġja gmu
Ġmaa tu
rii Da
shhu ra
su ta
Ġsaa nu
ishh Ni
shya ti
Ġpari yama
Ġdharma sya
odha nama
Ġbaa ndha
Ġshaa sa
Ġdhar meNa
Ġsamu pa
Ġbhiishh m
Ġpuraa tanama
Ġmahaatma naama
Ġpare kshhya
Ġparaap taa
Ġraawa Nasya
Ġdawija sattama
Ġwidhi wata
Ġrakshha saa
Ġmahaabhaa gaa
Ġkashhe tra
Ġsame tya
Ġshira saa
Ġkai ke
h shwa
o l
o shheNa
p rii
r shhii
s th
t tha
ha sa
ta daa
ta wama
na nd
waa JNa
waa ji
uu naa
Ġwi ha
Ġwi cha
shhT e
Naa da
yu ddha
Ġaa wR
Ġi maama
kaa sa
bha r
bha wada
Ġni wR
Ġni warta
jaa yate
saa rathi
Ġja ne
Ġmaa yaa
kshh yaa
Ġnaa sha
Ġyu gaa
pu shhpa
Ġsaa gara
nii ka
Ġbhaa s
para tya
bhuu shha
Ġdharma raaj
ĠC hittwaa
Ġanu ttamama
ge ya
Ġdawi tii
kiir ti
Ġmaana waa
Ġii dR
Ġshare y
ichCha ta
Ġmuu Dha
Ġtaawa kaa
Ġdhara Nii
Ġdharu wama
Ġsawyasaa chi
a pra
a nya
i haa
i shu
j waa
m haa
m khyaa
m prekshhya
o gama
o nyama
u ja
ra yana
ya nt
na ka
na ira
Ġpa ryaa
Ġpa paata
Ġcha tu
Ġa dhyaa
Ġp e
Ġwi gata
Ġpara saada
ri ra
ru r
Ġsha la
it raa
Ġaa kaasha
Ġaa sura
Ġaa chaarya
Ġya the
we shha
Ġbha kshha
Ġm itra
Ġpu treNa
Ġni we
Ġu waa
paa Ni
Ġtu ra
kshh Na
Ġnaa tra
nd reNa
Ġbhaa ga
Ġmu khaa
ot ka
Ġwar shhaaNi
shi kha
Ġraama ma
Ġabra wii
Ġru dra
ishya nta
dhar me
Ġparaap nu
puu jya
shra wa
Ġpitaa ma
Ġkau sa
tri y
Ġsamii kshhya
abara wiida
Ġrathi naa
Ġbaha w
Ġmahi ita
waasu dewa
Ġsamantaa ta
Ġshiigh rama
o maa
ma nu
haa ya
Ġsa m
Ġsa p
Ġsa khaa
cha kshhu
da waa
Ġa we
Ġa mR
Ġma nasa
Ġwi sha
Ġwi nda
Ġwi bhiishha
ka ri
Ġpara gR
Ġka le
yu ga
Ġda waara
Ġmahaa wiirya
Ġmahaa manaa
Ġni wesha
jaa ta
ch ura
Ġwaa yura
Ġga chChaa
Ġja hi
Ġha ni
war cha
Ġyu dhaa
Ġsama bhi
gaa da
ishh yate
ku l
Ġbhuu taanaa
Ġde waana
opa maa
asa maa
Ġmaha tii
Ġas tu
sama nwita
Ġche ti
Ġbharata sattama
Ġtari shhu
Ġbharaa traa
Ġshak r
Ġparaap n
mpa nnaa
Ġyuddha durma
Ġash nute
Ġkaar yama
Ġmanu shhyaa
Ġrathaa ta
maar ka
Ġmadhu suudana
ĠwishhN ura
Ġtara y
Ġwishe shhata
Ġbhar tR
pitaama ha
C hi
a dR
d rama
e kaa
i g
k ma
m gama
o dya
o dhyaa
sh mi
pa ryaa
raa nta
shh maa
wi ra
Ġa pra
Ġa syaa
ja graaha
Ġma dhya
ga ti
Ġwi jaya
ru hya
Ġsha taa
Ġna i
Ġda shaa
Ġda kshhiNa
Ġmahaa wii
Ġbha ja
ira ma
Ġpaa ta
saa ya
Ġchaa nyaa
Ġmaa drii
laa pa
laa naa
pra chCha
Ne shhu
Ġbhaa wa
Ġkar taa
odha naa
Ġde we
ot saa
Ġiwaa bhawata
sar ja
Ġwid waana
od itaa
Ġbhaga wana
puu jita
Ġkaru ddhaa
Ġdara kshhya
Ġmahe ndra
oga maa
Ġparawi ira
ĠichCha ti
kraa nta
Ġkari shhyaami
Ġparya waara
Ġdawaa dasha
muur dha
Ġpad ma
its na
mada g
Ġmaniishhi Na
I Naa
a mR
g re
i ndra
j ena
m shhT
m su
m dara
t y
u kasa
Ġ ita
ya jJNa
wa s
sa mii
cha kshhwa
waa ya
waa hi
wi shh
wi naa
wi wesha
Ġa bhawata
ja ye
ga Na
ga mi
Ġwi ra
Ġwi hita
Ġwi nir
Ġpara haa
ri Naa
Ġaa ya
Ġaa la
Ġaa sthita
Ġaa jJNaaya
Ġi chChaa
Ġmahaa balaa
Ġmahaa tapaa
Ġsh ete
Ġsar pa
paa pa
Ġga raa
Ġnaa da
ba l
Ġparaa Naa
Ġdu raasa
tii naa
Ġbhaa mi
Ġpari shhwa
para jaa
bhuu da
Ġyathaa nyaa
Ġmu ne
Ġmu ktaa
se ta
Ġyaa ni
Ġla bh
oka sa
baa ndha
ipa ma
gu Naa
Ġdur dharshha
Ġnara shreshhTha
Ġke ka
Ġbhawi shhyanti
Ġpurushha wyaagh
dharma ma
bara hmaa
dhwa ja
stha u
Ġparajaa pati
dhyaa ya
Ġpi tu
gachCha ta
ottama ma
ih Nii
Ġpii D
sai nyaa
Ġmuur dh
Ġjaye shhTha
ashwa tthaa
Ġchakru ra
Ġwipu la
jaJ Naa
Ġmahaapraa jJNa
Ġpitaama hama
d raawa
m y
m uula
o chi
u d
u shha
ra daa
ya ira
ya dya
sh ita
sh rita
Ġsa taa
sha ruta
shh yate
taa da
ni ma
ni kaa
Ġd he
Ġwi dhaa
Ġwi tta
Ġwi naasha
Ġpara kaasha
Ġka N
Ġna kshha
ita ta
it t
it tama
Ġaa gatama
Ġya jJNaa
we ta
we Na
Ġda d
kaa rya
Ġni paati
Ġsh iwa
saa na
Ġte naa
dhaa ra
shhaa na
Ġparaa JNja
mu ktaa
shaa ta
nya sya
msha ti
di bhi
jJNaa ta
Ġsawa sti
Ġla bdhwaa
Ġwaya ti
Ġtat he
Ġgu r
dii r
Ġkashha maa
Ġpaar thena
gu ru
bhu ja
Ġraakshha sii
Ġsai nye
Ġpaartha sya
puur Na
Ġpashya nti
Ġkaura waa
myu kta
jii wa
Ġputraa Naa
Ġteja swii
Ġmanu shhye
Ġgandha rwa
mra bdha
Ġmaheshh waasaa
yishhya nti
buddhi ra
owi nda
Ġshaku ni
oddh u
a wi
a pashya
i hii
j itya
k l
n yaana
o ddha
r yeNa
s ra
ha tya
na iwa
Ġta raya
Ġpa wi
Ġpa ura
Ġa bruwana
Ġwi sma
Ġpara saa
ru taa
Ġraa me
yu kt
re Naa
Ġda itya
Ġi ya
Ġmahaa gh
bha wi
bha raNa
Ġni shamya
Ġu ttama
Ġwaa pya
he t
Ġsu t
Ġdha yaa
Ġja jJNe
Ġha sti
Ġchaa tra
Ġchaa nya
kshha ma
Ġkaa laa
ba bhuu
su taa
su hR
pu Nya
bhaa na
bhaa shha
Ġhi twaa
msha tyaa
ku lama
para tyu
Ġyathaa widhi
Ġkar tawya
odha nasa
ot kacha
Ġtatra iwa
Ġyaa na
Ġyaa ti
Ġbaa la
dra tha
Ġjaa taa
Ġjaa nii
jJNa yaa
Ġshu bhe
Ġabhi sa
Ġsat kR
Ġnara rshhabha
ocha te
ana gha
krama ma
puur Naa
Ġpashya ta
od ita
Ġut sa
Ġewaa bhi
Ġaasii da
ih Na
tishhTha ta
kii rshha
baraahma Naa
Ġgami shhyaami
shab da
Ġrudhi ra
ĠpaND ita
Ġshatruu na
Ġbaru waa
a traa
a tara
j it
m watsa
o tu
o tra
o bhira
o Nama
w ura
y itaa
ya maana
sh ura
wa k
pa rwa
Ġsa mi
cha raa
da da
waa sha
Ġpa thi
taa ta
Ġa dh
Ġa nna
Ġa bhaashhata
ja gh
ga te
ga ja
Ġwi chara
Ġwa rata
la bha
Ġpara y
Ġpara cha
Ġpara bhR
Ġaa pn
ye ya
ye me
Ġda ma
Ġbha wata
Ġni ya
Ġni raa
ch yu
Ġra ma
Ġg hR
Ġnaa ha
Ġkaa shya
Ġkaa lena
laa gha
twaa da
Ġku ra
shaa ya
Ġsama ra
gaa ni
Ġsaa r
ruu pi
Ġbhaa radwaaja
syaa sya
se n
kshhi tuma
ora si
Ġjaa t
swa nama
shhTa u
nyaa da
pe tura
Ġbahu widha
sar pa
Ġan R
shra ya
Ġaatma naa
Ġshata kra
sat kR
tasyaa ma
yishh ye
gandha rwaa
jaanaa mi
ĠshikhaND ii
ruupe Na
a waa
j ite
l uu
r ka
s tii
s treNa
t we
ra th
wa u
wa naa
da kshhiNa
Ġpa nthaa
Ġb hittwaa
Ġd huu
Ġma da
ga d
ga me
ka m
Ġwa h
Ġwa tsa
la sha
Ġpara daa
ri Nama
thaa na
Ġsha ma
Ġsha yaa
Ġsha yaana
Ġna gara
yu ddhe
Ġaa khyaa
Ġya dya
Ġda yaa
daa nii
jaa yata
Ġsh ishh
Ġdha ruwa
Ġga rii
Ġja gh
kshha ta
kshha Na
war dhana
laa sa
Ġsarwa bhuuta
bhaa ti
tii na
Ġmu m
tat twa
Ġj itaa
ddh ena
ishhTa ke
Ġdur dhar
wai paa
Ġshi r
Ġtari bhi
oNa sya
Ġwid yaa
Ġwid itwaa
ntii ha
Ġbhu N
Ġsathi t
dhar m
Ġsathaa nama
Ġputraa na
Ġteshhaa ma
Ġdhii mataa
Ġwishha ya
ĠpaaNDu putraa
Ġsumahaa na
Ġkashhu dra
Ġsaaya ka
Ġama rshha
Ġmanya te
Ġsara swa
Ġanii kaani
hk hita
darau pa
chakra me
Ġawaapnu yaata
ĠraashhT ra
Ġwidhii yate
y yaa
ta m
ma r
ma nya
sh nute
wa tya
wa iwa
wa nt
sa ra
pa taa
haa r
Ġsa hit
raa jaana
da daa
wi bhuushhi
Ġa lpa
naa cha
Ġd ishhTyaa
ga taana
Ġwi m
Ġwi kR
ka shhi
ka nyaa
Ġpara ja
Ġpara mu
Ġpara wartate
ru ddha
Ġaa pnu
tra u
Ġbha dre
Ġpu maana
Ġni ru
saa tyaki
Ġba le
paa l
nta ka
Ġha nu
Ġnaa nu
Ġyu waa
shaa da
Ġsaa kshhaa
me gha
Ġraaja putra
Ġl e
ku ru
Ġbhii ru
Ġmu kta
Ġj itwaa
de wena
ot tara
Ġjaa yati
Ġwe shma
shu bhe
kra maa
sii na
Ġdawi shha
gu N
Ġbhawa tya
dewa taa
okaa naa
bu ddha
maanaa na
oNa putra
warta nte
bhe da
Ġdii p
Ġpash chi
rshhi ra
sye ha
ĠgachCha nti
Ġpushh karama
Ġdarsha nama
Ġmat sya
Ġshai la
ija ta
hara ntii
Ġmahaabhaa ga
its naa
Ġbhartaa ra
Ġdushh kR
ĠkaaJNcha na
Ġaapata nta
Ġsharawar shheNa
kshhwaa ku
ĠwaarshhNe ya
Ġmahiita le
Ġyathaanyaa ya
a ja
g dhaa
i l
i daa
i chChe
m tya
n ewa
o pe
p it
s kR
Ġ h
ma nta
na r
Ġsa ka
Ġsa li
raa T
cha rya
sha taa
wi dyaa
Ġta m
Ġpa da
Ġa ja
Ġa dR
Ġa bhyaa
ni mit
Ġd ishama
Ġwa sha
Ġpara j
Ġka shhaa
sya se
Ġaa rya
Ġaa tmaa
Ġda i
Ġni mit
Ġba ndhu
he Na
Ġsu bha
Ġga ura
Ġha t
Ġg ii
Ġg hana
itaa JNjali
ND e
Ġku t
Ġyu ge
Ġparaa na
Ġparaa Ni
su re
me dha
msha y
wii raa
Ġl u
du draawa
Ġbaa Naana
Ġtat h
Ġkashha ya
Ġputra ma
Ġraama sa
Ġye shhaa
Ġbhawi shhya
abha wana
Ġmahii ma
wasa na
Ġt uu
kiir Naa
Ġawaa p
Ġawaa pn
ĠkarNa sya
pha laa
Ġpushh ka
paata yata
Ġpati ta
Ġdaru pada
Ġawya yama
Ġkuruu na
oshhi ta
Ġbhiimase n
shruu shha
Ġsamya ka
Ġhara ti
plu tya
jagmu ra
Ġnaaraaya Na
Ġwas ishhTha
Ġbiibha t
Ġkaruu ra
Ġmadh ura
Ġlabh eta
D hama
i ya
i kaa
l yama
m jJNaa
o j
o dh
r ja
r ju
s par
Ġ ruupaa
ya yaa
sh waasa
wa dhya
na na
haa raa
Ġsa tu
Ġsa nti
wi shya
Ġta thaiwaa
Ġpa ru
Ġpa shu
taa naama
taa tmaa
Ġcha ri
ti sa
Ġa wartata
ni shhe
Ġma tama
Ġma rma
ga raa
ka NT
Ġka ma
Ġka lpa
ri re
dha te
ita sha
ita waana
bh raa
Ġya jJNe
bhi nna
Ġmahaa raNe
kaa naa
Ġu dii
Ġu gra
Ġpaa ka
Ġwaa g
Ġwaa ga
saa has
Ġtawa da
Ġsu re
Ġja raasa
Ġja ghaana
Ġra kshhaa
Ġra thena
kshha u
ishhT asa
jJ Ni
ba huu
ba bhau
Ġsarwa tra
pu ru
Ġtaa raa
Ġtaa nya
Ġsaa tya
rya te
Ġpari waa
kshhi tama
Ġsamaa hita
Ġpuna sa
ĠpaaNDa wama
Ġla bdha
dra wanta
Ġdewa ira
Ġiti haasa
has ta
oda ya
oda rama
Ġche dama
Ġpuur Na
Ġdhaa rmi
maanaa naa
Ġbhawi shhyasi
ana y
puur wama
Ġkha ra
Ġshak yaa
Ġdhanu sha
ithiwii ma
Ġmana swi
rad hii
mgraa ma
Ġmaheshh waas
kashha tra
Ġathaa brawiita
dbhu ta
Ġsaaya kai
Ġyat na
Ġwaraa r
maane shhu
Ġhii na
Ġgar bha
shre shhTh
Ġbalaa ta
Ġgha T
waasi na
Ġri pu
Ġwiwidhaa ni
Ġtarii na
Ġje tu
Ġjite ndriya
Ġparyawaara yana
T ha
a hi
b e
d iwa
i naa
o re
o Ne
o gaana
r chi
s p
Ġ re
ya se
ya yau
sh yaama
sh raawa
wa ira
sa dR
pa tha
Ġsa na
Ġsa chi
cha ndra
da i
da yaama
wi shhT
wi shhaa
wi shhTaa
Ġta smi
Ġpa T
ti sha
Ġa sha
Ġa nyaa
Ġa mitra
Ġd hu
Ġwa dhaa
Ġwa raana
Ġpara me
Ġka mpa
Ġka thita
yu ge
ye wa
Ġbha rat
Ġsh uur
Ġpaa p
Ġwaa ch
Ġwaa rayaama
paa ra
Ġdha nwi
Ġja ga
Ġha n
Ġra ta
Ġra Naa
dhaa wata
Ġchaa na
Ġchaa bhya
Ġmaa tR
kshha yaa
kshha maaNaa
ne naa
war ga
Ġe kama
Ġparaa rtha
bhaa ga
Ġsaa dh
msa nti
bhuu ya
bhuu mi
di te
de she
Ġde she
ĠC hu
Ġyaa wada
Ġbaa l
Ġwaya pa
shu bhaa
ge shhu
kshhya ti
ana wa
Ġsai ndhawa
puur waa
Ġshak y
Ġdii na
Ġdii naa
Ġtii wra
Ġpuu jaa
Ġpaapa ma
katha ma
Ġsii tayaa
sat twa
ĠpaaJNchaa lya
rd itaa
gi ri
Ġsuuta putra
Ġkari shhyati
msh ita
raakshha sa
Ġrat na
Ġabha wada
Ġwadhya maanaa
Ġgara ha
Ġsainyaa ni
jaanii hi
Ġsumaha da
harantii mama
g rama
i shhu
i du
i shii
l la
m dhi
m bhu
n dhya
o tya
t wena
u jasa
ha tyaa
ma dat
sh we
sh ena
sa ne
sa pta
pa tada
Ġsa yaana
Ġsa wena
raa ntaa
raa Naama
da ru
ti thi
ti maana
Ġa b
Ġa yama
Ġa kR
Ġa gra
ja naa
Ġwi wa
Ġwi jJNaa
Ġwi che
Ġwa ira
Ġwa stra
Ġpara yu
ru N
Ġsha tasa
Ġsha chii
Ġsha riyama
ita sya
it yura
Ġaa p
bh ye
we ha
Ġbha yaata
Ġpu re
kaa mya
kaa ryaa
Ġni rii
Ġwaa s
Ġwaa ha
Ġwaa ri
Ġba bhau
Ġtawa rit
Ġja wal
Ġha ntaa
Ġra mya
rii Naa
Ġtaa wada
Ġsaa twata
Ġraaja sattama
Ġdu shhTaa
JN e
tii rya
Ġmu daa
Ġdharma raajasya
tat he
ke shhu
Ġsamaa gataa
shu ddhaa
Ġmaha rshhe
Ġtat twata
Ġshaa shwata
Ġanu jJNaa
Ġabhi shhe
shhTa ma
Ġkuru kshhe
Ġsharu ti
iti ra
Ġshi kha
Ġwid yu
Ġru kma
gni ra
Ġkha yaa
Ġsau bala
Ġmahii yate
Ġparii t
ĠpaJNcha bhira
stha ma
Ġtii rthe
pashya ta
nir gh
mha naada
ar ju
shhTu ma
nwi tama
Ġpati taa
Ġhe t
Ġrathaa na
mkh ya
Ġdiwa ma
ĠdhaartaraashhT rasya
ut sR
Ġdaiwa ta
Ġdaraupa de
shre shhThaa
kira ta
kawa chaa
puuja yana
Ġwiwidha ira
Ġsanaata nama
ĠkhaD ga
Ġparyu paa
d itama
g ma
i giishha
k la
k taana
m bhi
m taapa
o hi
o mi
o gha
r thi
w ye
ta le
ra taa
ra te
ya swa
sh waana
sa nti
sa bhaa
pa tra
pa yaama
Ġsa wi
sha raira
waa k
waa raNa
wi ja
wi tama
wi shwaa
yaa traa
Ġa ga
Ġa yu
Ġa naama
naa rada
ja N
Ġp itraa
Ġwi kra
Ġwi bu
ka shhe
Ġwa ri
Ġwa she
Ġka rama
dha i
ru Nama
Ġna kula
it y
Ġaa tmaanama
Ġya yaa
Ġya mau
ye taa
Ġi shhTa
kaa yaa
Ġni gR
Ġsh ishhya
Ġpaa ra
paa ND
Ġsu tii
Ġsu khii
Ġga jaa
Ġja yama
Ġja gat
Ġha r
Ġha wya
Ġmaa nasa
kshha yama
ishhT e
ishhT hata
ne ra
Ġkaa maa
Ġkaa raNaa
su t
Ġsarwa i
Ġsarwa sya
pu na
Ġsama padyata
thi t
gaa maa
Ġsaa ma
Ġchi traa
Ġchi ntaa
Ġme dhaa
ishh Ne
me yaa
me ti
me jaya
NDa lama
syaa ma
ku laa
ku JNja
Ġbhuu teshhu
Ġmu khyaa
Ġdharma bhR
de ha
ot pa
Ġsawa ma
baa h
Ġar ju
dama ya
Ġwar shhaa
Ġwacha sa
Ġdi dR
Ġdur ga
Ġnara wyaagh
ghaa ta
Ġsatya wikrama
Ġbhiishh me
darsha naa
abhi waadya
raNa u
ji na
Ġdii pya
Ġwayaa sa
Ġdhanu shh
Ġraawa N
mbha wa
Ġnish itaira
Ġparawi wesha
Ġdaana waa
Ġkara tu
Ġparaya yau
mukha ma
mpraa pya
Ġsatrii Naa
Ġraaj ye
raakshha saa
Ġwaide hyaa
Ġtiikshh Naira
Ġkuntii putr
lakshha Nama
Ġkalyaa Ni
hk hitaa
Ġnii la
mtana w
Ġyuddhaa ya
Ġbhal lena
Ġwaahi nii
Ġparitya jya
omaharshha Nama
Ġbhaarga wa
Ġsharuu yate
Ġpaarshha ta
C haa
a nR
g ya
g hR
i Na
i ndriyaa
n tra
o T
o tira
o gii
u ka
ta smai
sh r
sh war
sh ishh
sh chi
wa hana
haa t
da NDa
sha stra
shh yaama
wi du
Ġpa dama
Ġcha twaa
Ġb isa
Ġa dharma
te j
te shhwa
Ġma N
Ġwa kta
dha raa
tha i
Ġna yaa
we gaa
Ġda kshhi
kaa ya
ewa te
Ġsh itai
paa laa
mi taa
Ġga t
Ġga Naa
Ġga dayaa
Ġra taa
dhaa rtaraashhT
Ġchaa ti
kshha Naa
kshha maaNa
ishhT waiwa
Ġnaa tha
war te
Ġku ta
Ġparaa N
mu huur
nd i
Ġtaa ra
bhaa ryaa
Ġsama nu
gaa sha
gaa ndhaa
Ġraaja pu
ruu hi
Ġbhaa shha
NDa rii
Ġwai shrawa
msa di
ku lii
Ġmu shhTi
Ġkar maa
bhya sa
opa la
dra wada
Ġdewa raaja
Ġjaa naa
Ġjaa madag
Ġwaya kta
kar maaNa
Ġmaha rshhaya
Ġbhiima sya
Ġbarahma l
smaa cha
Ġupa la
Ġman yu
ishha bha
Ġbhiishh mama
Ġnitya sha
yi tuma
kshhaa na
Ġshuu la
JNja te
ruupa ma
Ġupaa drawata
Ġti rya
Ġpare tya
Ġbhaga wa
Ġdii ptaa
sawa ya
Ġdasha bhira
Ġdasha ratha
Ġdasha griiwa
Ġparajaa naa
Ġparajaa yate
Ġewaa bhya
wra tama
Ġshii la
Ġana ntarama
Ġteja sa
mni dhau
ĠpaaJNchaa la
Ġtaya kta
Ġdarsha na
Ġaash ritya
kraa ntaa
ik ena
Ġmat syaa
Ġparaha sanna
msh itaa
mpraa pta
Ġpad mi
Ġparwa t
Ġwada taa
Ġtiikshh Na
Ġasmaa ka
Ġyudhya swa
Ġrau dra
Ġdadaa ti
mpaa yana
Ġkuryaa da
Ġpat nii
Ġshau cha
Ġpashchaa ta
hkhe na
Ġghaa ti
Ġgau tama
Ġraadhe ya
Ġjane shwara
Ġuwaa cheda
D i
T e
a ratha
a nye
d waa
d ishhTa
g r
h pu
i pta
m shhi
m yama
m gR
m kara
o ptaa
p su
p itama
r hi
s tama
ta raa
ta smi
ma dra
ya saa
wa j
wa saa
wa tta
sa mR
Ġsa d
Ġsa ti
Ġsa ni
Ġsa ne
Ġsa tai
cha k
da darsha
shh kR
yaa bhi
Ġta nu
Ġpa taa
Ġpa laa
taa Da
maa nena
te ra
te jasa
ga Naana
Ġwi sta
Ġwi shikha
Ġwa y
Ġwa dhe
Ġpara Ni
Ġpara maaNa
Ġpara bhawa
Ġka li
Ġs ena
Ġsha raawa
Ġna bha
Ġna nda
Ġna ishha
Ġaa naya
ye ha
Ġda da
Ġda wii
Ġmahaa dewa
kaa shi
bha yaa
Ġni rma
Ġni pati
Ġni draa
Ġu ch
Ġpaa ti
Ġpaa dau
paa taa
paa rtha
he da
dhi ma
Ġsu wi
Ġsu tama
Ġga ntaa
Ġga ntuma
Ġja JNe
Ġchaa nu
Ġmaa ga
Ġnaa raacha
jJ Nama
Ġe tau
Ġku rwaa
Ġparaa jJNa
pu ras
nd e
pra daa
pra bhama
Ġhi tama
Ġsaa dhwa
Ġchi kshhepa
ruu Naa
Ġpari wR
du raa
du dru
wata sa
Ġparati jJNaa
ot sR
bhya nujJNaa
ĠpaaNDa w
Ġraajaa n
Ġsawa p
Ġyaa ta
Ġyaa ja
Ġla ghu
Ġshara warshha
Ġdaa taa
kar shana
eta sminna
Ġshu kra
Ġas traaNi
Ġar the
JNcha na
ge Na
Ġupa yeme
Ġbahu bhi
Ġsamu d
bu ddhe
ĠyudhishhThi r
Ġbhiishh meNa
Ġmahaatma bhi
shii la
ji re
Ġkha lwa
tapa saa
Ġtii w
ishhi Na
Ġchai nama
Ġewaa nu
Ġpaapa kR
mha naa
Ġpi ba
Ġdarau Nira
Ġana nta
apa re
awa shya
iga pa
ĠjaJNaa ti
Ġwidhi naa
Ġparas para
ichCha si
Ġsarwabhuu taani
Ġsarwabhuu teshhu
Ġshab d
Ġawya kta
Ġjiiwi tama
mta pta
Ġparwa tama
Ġpau ru
piiD itaa
Ġmuhuur ta
Ġbaha wa
mtana wa
Ġwis p
Ġgaandhaa rii
bhaga waana
Ġasmi na
Ġshawe ta
Ġraja nii
gira sa
Ġnahu shha
Ġuur dhwa
Ġdaashaa rha
oD hu
Ġwinda ti
Ġparawiira haa
Ġparishhwa jya
Ġmuurdh ni
ĠparaaJNja lira
kl ishhTa
atraa pya
Ġsatai nya
a ne
a th
g rya
g rata
i haana
j y
k isha
k riyaa
m dhaaya
o dhena
p r
s waa
s it
s tri
t ryaa
w yaama
Ġ ruu
ha nta
ha twaa
ma i
pa N
pa sa
hi N
Ġsa tii
Ġsa pat
cha la
da dR
wi ni
wi raaTa
yaa nti
Ġpa tima
Ġcha yu
Ġcha rma
Ġa t
Ġa bhyu
ja y
Ġma tira
ga sa
ga twaa
Ġwi jJNaaya
ka N
Ġwa dh
Ġpara i
Ġpara na
Ġka naka
ri kshhe
dha nwaa
yu dhama
it tima
Ġaa l
Ġaa chaa
Ġaa khyaata
re da
Ġi shhu
Ġi nd
Ġi me
Ġi kshhwaaku
Ġbha waa
Ġbha yaa
Ġpu NDarii
kaa lama
Ġni shi
jaa tasha
saa dhu
Ġba lena
Ġdha i
Ġdha u
Ġga ga
Ġha y
Ġra myaa
dhaa wanta
ishhT ena
war shhaaNi
ba rha
Ġyu shhmaa
Ġsarwa kaama
Ġtaa D
Ġsama waa
pra bhR
gaa mi
Ġsaa ntwa
Ġl iN
chi chCheda
Ġyathaa wR
di wya
shwa raa
kshhi pta
Ġparati pat
Ġsamaa wR
Ġsamaa gama
Ġyaa da
oka wi
wama nya
Ġdaa sii
Ġas maana
Ġgu Naana
swa naa
Ġabhi waadya
Ġsat yaa
Ġsat yena
Ġputra ka
Ġbhiima ma
Ġbarahma waa
Ġbarahma Na
Ġbarahma Naa
smaa ka
wai shha
pati ma
Ġdhaa raya
maanaa sha
Ġbaraahma Ne
Ġnir jitaa
Ġpuraa Na
mit raa
ĠpaJNcha wi
Ġsuu kshhma
Ġchai shhaa
Ġmahaaratha u
ĠpaaND uunaa
Ġraawa Naa
iha da
wacha na
Ġasa u
ih Naa
kashha t
mkru ddhaa
ĠdhaartaraashhT ra
ishhTha t
Ġbhiimasena sya
kaar mu
ihas pate
saha dewa
mana saa
Ġkashhe ma
Ġyashaswi nii
Ġhii naa
Ġudaa harantiimama
Ġwaasudewa sya
Ġkalyaa Na
Ġdiwyaa ni
Ġmit hyaa
Ġparawa kshhyaami
Ġmant ri
Ġkur wiita
Ġudya mya
Ġane ka
Ġkirii Ti
idh ra
Ġhanuu maana
Ġach yuta
Ġmedi nii
Ġsaubha dra
okshhya se
Ġkii cha
Ġkaike yii
a tya
d ira
h shre
i Nii
l ita
m m
m ma
m ka
m bara
n ne
o Ni
o jya
o Da
o nau
t ti
u kta
aa chaarya
ma maa
ya ne
sa sa
pa ura
Ġsa ya
sha sha
sha re
shh Na
wi war
Ġpa ya
Ġpa rushha
Ġcha ya
maa Ne
ni re
Ġma y
ga waa
ga ira
ga jaa
ga rha
shha Na
Ġwi war
Ġwi sar
Ġwi dur
ka pi
Ġpara ta
Ġka re
dha yaa
Ġsha rwa
Ġna da
ita pra
Ġaa wa
Ġaa jJNaa
Ġaa mantrya
Ġya sh
Ġya kshha
Ġya jJN
Ġda y
Ġda yu
daa ma
daa sa
Ġbha ira
bha raNaa
Ġni y
Ġni shha
saa ra
hii na
Ġga Na
Ġga tama
Ġja yaa
Ġja Taa
Ġha ntu
Ġra kshhya
Ġg ira
rii D
ishhT he
war Ni
Ġkaa maana
ba ddha
twaa ta
Ġku rawa
mu khyaa
Ġsama bhawada
pra wiira
gaa ra
Ġsaa wi
huu ya
msha pta
Ġdu ra
tma n
Ġpari paala
chi rama
chi traa
chaa la
Ġmu sa
Ġkar Nama
raaja na
Ġde hi
Ġde wyaa
ĠC huu
Ġsawa karma
Ġdewa l
Ġdewa la
Ġdaa sha
baa Na
kar ta
ndha ka
Ġshu shru
Ġaasa na
swa ra
Ġwar Na
Ġwar Naa
Ġsat tama
Ġkuru shreshhTha
shi raa
Ġraama lakshhma
Ġkarma Na
Ġgaa traaNi
Ġjii wana
Ġbharaa tura
putra u
JNja na
Ġpare shhayaama
Ġshak t
ishhya ti
Ġparii tyaa
Ġdewaa naama
ĠpaaND ura
Ġpi shaa
jii wi
waara yata
Ġparatya bhaashhata
saada nama
chara na
Ġmanu shhya
Ġgandha r
Ġbabhuu wu
oN ita
Ġdhawa jaa
Ġshab dena
cheta na
Ġsamii pa
Ġdiwa ukasa
Ġchak rire
jaanaa ti
mta nu
mdha raama
ĠshikhaND inama
pash yaami
Ġmaata N
Ġmaata li
rjuna u
Ġwardha te
paraaya Naa
Ġchakshhu shhaa
Ġkariya taa
Ġmahaadyu ti
nishcha ya
Ġsuma hata
iJNja yaa
Ġwishwaa mit
Ġkaarmu kama
Ġshaasa naata
Ġkausa lyaa
Ġshatasa has
kaamya yaa
C hita
N Na
a wya
a dharma
a brawii
b ira
e shhaa
g uu
i JN
i ddh
k tyaa
m bhuu
m jJNa
m sthaa
m hitama
n yaama
o ya
o taa
o kshh
o pya
r Naa
r ye
t swa
t prasaa
sh ritya
sa thaa
sa maana
sa mya
pa tata
pa nn
raa tra
raa jJNaa
cha tu
da de
sha u
sha wa
shh ma
wi r
yaa taa
yaa ja
Ġk he
Ġta la
Ġta pya
Ġpa tri
Ġpa prachCha
taa yaa
Ġcha reta
Ġa h
Ġa maa
Ġa dyaa
naa pi
naa rtha
te ja
ja n
ja yaa
ja nama
ja nya
ni rma
ni wesha
Ġma u
Ġma naa
ga naa
shha kra
Ġwi bhu
ka yaa
la yaa
Ġpara tyaa
Ġka la
tu lya
ru ma
ru ndha
Ġsha rama
Ġsha kta
Ġaa ja
Ġaa rta
bhi dya
bhi shhe
dh yama
Ġi chChe
Ġmahaa nu
Ġbha yaawa
kaa l
kaa ta
bha waana
bha wama
Ġni ryaa
Ġni ghna
jaa la
ch yuta
paa sha
paa ni
nu shhaa
Ġsu warNa
Ġsu mantra
Ġga ru
Ġja gaamaa
Ġha nta
Ġha nyaada
Ġra j
Ġra m
Ġra saa
Ġchaa ya
Ġmaa ru
Ġmaa traa
Ġmaa haat
kshha tra
Ġe ta
Ġe nama
Ġe kena
Ġyu ktama
su warNa
Ġsarwa sa
rya ta
tma ni
msa yaa
bhuu taani
chCha si
Ġkar ta
odha sa
Ġparati bhaati
Ġde wesha
Ġsamaa gamya
Ġdewa sya
Ġwaya sa
nda naa
kar N
kar taa
kar Nasya
Ġgu haa
Nii ya
shi r
she shha
sama nwitaa
Ġwii raana
oda yata
iti ma
Ġshi raa
gra hama
ishha y
maanaa sa
Ġsarwaa su
Ġnir da
Ġsai nikaa
dhwa jama
Ġsahas raa
Ġdhanu r
Ġpuu jya
Ġpaapa sya
Ġwish ru
Ġdewaa naa
mha sa
sat rii
Ġii p
Ġsawar gama
Ġparawi sha
Ġshatru gh
Ġtaya ja
ms kR
oja nama
Ġkaunte y
Ġniha tya
mra kta
Ġgi re
rthaa ya
Ġyama sya
Ġsainya sya
itha ga
dhuu ma
Ġtara saa
Ġshha D
Ġshha shhT
ishhii Naa
Ġchara ti
mdha raa
lakshha Na
Ġbhiimase nena
oshhaa na
Ġdawijaa ti
Ġwas ishhT
Ġaashu gai
ndu bhi
paaNDawaa naa
Ġapashya ta
paar thi
Ġbiibha tsu
rpa yata
Ġkaara Nama
Ġaashrama ma
Ġlakshh mii
Ġjagmu ra
Ġmaatu la
jwaa la
uja sama
muurdha ni
babhuu wa
Ġutsa he
Ġsaakshhaa da
ĠdushhTaa tmaa
meyaa tmaa
Ġraamalakshhma Nau
D ii
a rtha
a stra
a taya
a brawiita
d wii
d bhisha
e k
i dama
j wa
k uula
m shaa
n waana
n taana
o p
o na
o wR
o gra
o chcha
p la
p ri
t yaana
w yuu
Ġ it
ta lama
ta sminna
ma dhya
sh na
sh uula
sh ritaa
wa w
wa rma
na ta
na itada
pa sthite
haa ta
Ġsa we
Ġsa neha
raa dha
cha ri
da dhaa
sha sa
waa naa
waa sama
wi pra
wi kR
wi dhya
wi dhaana
wi shhN
Ġta pta
Ġta raasa
Ġta sthau
Ġpa la
taa nya
Ġa i
Ġa prati
maa nya
maa lyaa
naa ntare
ni wR
Ġma NDa
Ġma hya
Ġma raNa
ga N
Na ya
Ġwi dha
Ġwi ru
ka shhii
Ġwa pu
la yama
la stya
Ġpara l
ri kshha
Ġsha waa
Ġsha riya
Naa ya
Naa wa
Ġraa trau
Ġaa wishata
bh yate
Ġya du
ye thaa
dh wama
Ġda hya
Ġda maya
Ġi waana
daa sha
Ġbha gi
kaa m
Ġni yama
Ġni papaata
ch ena
Ġwaa ra
Ġwaa taa
Ġwaa saa
saa dha
Ġba l
hii naa
he ma
dhi paa
Ġsu ni
Ġsu bhR
nta kama
Ġja n
Ġra N
Ġra kshhitaa
Ġra ghu
Ġra shmi
Ġmaa ruta
Ġnaa rii
laa N
ba le
ba li
Ġe taani
Ġparaa jJNaa
su sa
mu JNcha
Ġsarwa sainyaa
nd ya
Ġsama r
Ġhi raNya
Ġbhaa radwaa
traa Naa
tma ka
syaa mya
kha D
para yaa
para tyaa
Ġyathaa wata
chaa pa
yaama he
di sh
Ġmu nii
Ġdharma putr
Ġparati jagraaha
ot sa
ddh R
Ġsawa na
Ġyaa tu
Ġbaa laa
dra wa
Ġjaa naati
dar shaa
Ġdaa ruNa
Ġtat twena
eta na
Ġshu shraawa
Ġshaa rad
ryaa da
Ġar thaa
Ġgu hya
Ġanu sma
Ġkashha ma
Ġsat huu
Ġdawi jaana
pe tu
sar waana
Ġke tu
ocha si
Ġtapa s
yi na
Ġbaraahma Naana
waasa sa
Ġan wi
Ġan yaana
ji ghaa
od waha
Ġut thaaya
Ġparii ta
Ġparii tira
Ġwish ruta
man tama
Ġaatma ni
oshha ma
Ġlakshhma N
pii Da
Ġwiwi dhaana
Ġkaala sya
Ġwishaa laa
Ġsawar ge
rd uu
ĠpaaNDu nandana
Ġdhi ga
Ġniha t
Ġmuni ra
Ġjaya dratha
ĠtishhTha nti
Ġchatur dasha
Ġdaru tama
Ġanya da
Ġkima rtha
Ġsuur y
Ġpii twaa
shhyaa mya
ija da
Ġraakshhasaa na
Ġkuruu dwa
abhaya bhaashhata
Ġyama saadanama
itha g
Ġgadaa ma
Ġwayawa sthita
ogaa da
ishhii na
Ġmamaa chakshhwa
Ġaacha kshhwa
Ġmahaatmaa n
Ġkurwa na
Ġmuhuur tama
Ġnadii ma
etaa wada
paraaya Na
Ġane kasha
Ġyuga kshhaye
ĠparatishhThi tama
ĠgaaNDii wa
Ġkewa la
Ġhutaasha na
Ġadhyaa tma
Ġhani shhyaami
Ġduraasa dama
ashwatthaa maa
Ġdhe nu
Ġsaar dhama
waipaa yana
daru pada
bhye tya
igiishha wya
dudru wu
waishha mpaayana
a n
a da
a kshha
a shwaa
a bhuuda
e taana
i cha
i Naa
i mi
i nta
k le
l b
m de
m gata
m jJN
m kaara
m mata
m waada
m chintya
o shhu
o mya
o chaa
o dhe
p yaa
s tara
u bhau
aa sa
ha ti
ha la
ha nti
ha rata
ta rii
ya n
ya th
wa yaasa
sa ta
sa ira
na wa
haa sha
haa rya
Ġsa kha
raa jJNa
da nta
sha raa
sha lya
shh yata
yaa m
yaa dR
Ġk haa
Ġta waana
Ġta rpa
Ġta numa
Ġcha raa
Ġcha rita
Ġcha ndrama
Ġa dhii
Ġa meyaatmaa
maa yaa
maa JNa
naa sti
Ġma taa
Ġma gha
ga maa
Ġwi ne
Ġwi shhaa
Ġwi ddh
Ġwi wesha
Ġwi jJNe
Ġwa l
Ġwa suu
Ġwa ruNa
Ġwa seta
Ġpara sthaa
Ġpara dyu
Ġka raa
Ġka laa
Ġka shya
shhT asa
ri y
Ġsha nai
Ġna sa
ita wata
Ġya smina
we gena
Ġda u
Ġda ityaa
Ġmahaa wega
Ġbha ktaa
kaa tmajaa
Ġni dha
Ġni rya
Ġni shhe
Ġni waata
Ġu chya
jaa ni
ch yaa
saa tya
nu ja
Ġsu wrata
Ġdha nama
Ġga ntu
Ġra kta
Ġra ktaa
dhaa raa
Ġmaa chirama
kshha se
ishhT ibhi
Ġnaa raa
Ġnaa bhya
Ġnaa rad
ND uu
Ġkaa N
Ġkaa na
laa ta
Ġe taana
Ġparaa kra
Ġparaa hura
Ġparaa kramama
si ddha
Ġtaa wata
gaa hya
Ġsaa ra
Ġsaa dha
Ġchi kiir
Ġchi kiirshha
Ġme ghaa
me shhu
Ġraaja putraa
Ġdu hitaa
JN jii
Ġbhaa shhitama
traa na
Ġpari gha
Ġpari pR
Ġbhii mena
Ġsaha lakshhma
Ġbhuu mira
Ġkar Nena
raaja ke
Ġj ih
odha yata
Ġparati padyate
Ġde shama
gha T
Ġpuna sha
Ġtatra iwaa
Ġyaa hi
Ġla wa
asa mya
asa miiti
wana ndana
Ġshara Na
Ġshara ddhaa
shu ddha
paraa pta
Ġas trama
dhya ti
dhya se
Ġar cha
ipa sattama
has t
Ġpaar shwa
she shhaa
ite na
Ġshi l
ntaa wa
sthi taana
Ġtapa sha
Ġtari dashaa
atha ina
Ġwid ita
Ġru d
tawa ra
suu yaa
ntii ma
Ġti shhThe
Ġpashya si
dhwa jaa
od wi
Ġpare ta
Ġbhaga waa
Ġwayaa dhi
Ġmahii paala
Ġparii tima
Ġbhawe na
Ġjana kaatmajaa
Ġwish waruu
sarwa thaa
Ġraagha w
mbha wama
pata nta
Ġmaana da
kaara Naata
pha lama
Ġash waana
Ġsawar Na
Ġparawi shya
Ġnaya weda
Ġaash rita
Ġwishha ye
ara ju
Ġmuni pu
Ġshare shhTh
shru tya
Ġanya ta
Ġanya thaa
Ġkara waa
mra bdhaa
Ġwaasu dew
Ġgi raa
rthaa na
shhyaa m
Ġparabhu ma
baraahma Na
Ġpaawa kama
mb uuna
ĠChaa dayaama
Ġdisha sha
Ġwina shyati
mdama ma
kal ma
Ġyashaswi na
Ġyashaswi niima
Ġmahaatmaana u
Ġchinta yaama
Ġsada iwa
wardha nama
Ġbhiimase nama
Ġwak tu
Ġwimu JNcha
Ġshuchi ra
Ġpaarthaa na
kuu Ta
aga ni
paaJNchaa laa
sharii ra
puuja yata
raN ye
naaraaya Na
Ġwet ti
Ġshilaa sh
Ġlakshha Nama
Ġnishcha ya
Ġwaahi niima
Ġbharaata rau
yuutha paa
Ġmedi niima
Ġsamudra sya
Ġmahaawii ryaa
Ġdewe ndra
Ġbhaami ni
Ġdad yaada
diir gha
daraupa dii
Ġhanu maana
Ġparaj wal
a nena
d ityaa
g y
h ne
i tu
i chChaami
k itaa
m raa
m tu
m dh
m ch
m war
m di
m se
o bhya
o Nena
p hu
p riyaa
r di
u da
aa rur
ta thaiwaa
ma hi
ra yata
sh l
sh ishhTaa
wa nama
wa yuu
sa da
sa kR
sa me
sa ttamaa
na dii
pa sya
hi raNya
raa je
cha rata
sha ruu
sha kra
sha rai
waa ka
shh waa
wi ddh
wi sma
Ġta st
Ġpa kshha
Ġpa JNchaa
Ġcha tura
Ġcha itada
Ġcha kshhura
Ġa su
Ġa JNja
Ġa ishwar
maa wa
maa lii
ja ta
ja la
ja Taa
Ġma ya
Ġma le
ga chChe
ka syaa
Ġwa yu
Ġpara yata
Ġpara pura
Ġka shh
Ġka wacha
Ġsha ktaa
Ġsha taani
Ġsha straaNi
Ġna shhTa
Ġna taparwa
yu sha
yu ktena
Ġaa na
Ġaa ditya
Ġya d
ye shhaa
re shhwa
we dama
Ġi waacha
Ġi mau
Ġi ndriyaa
Ġmahaa ma
Ġmahaa bha
Ġmahaa mR
Ġbha wana
Ġbha yaana
Ġpu rama
Ġni ma
Ġni yata
jaa lena
Ġpaa rwa
Ġwaa ta
Ġwaa raNaa
Ġba ddha
Ġsar w
paa Nira
dhi ga
Ġsu samaa
Ġsu par
Ġtu bhya
Ġga rasa
Ġga raama
Ġra wi
Ġchaa si
Ġchaa pare
rii ra
ne mi
Ġnaa pi
itaa sa
itaa sha
Ġkaa lama
Ġparaa kR
Ġsarwa dharma
nd re
nd rii
bhaa shhi
uur dhwa
maana sha
Ġraaja rshhi
ruu na
Ġdu shhTa
tii ha
tma naama
Ġpari waarya
syaa rthe
chi t
ku r
ku laama
Ġbhii maa
Ġyathaa gatama
chaa riNa
Ġmu JNcha
Ġmu chyate
Ġtata sha
shwa ratha
tat yaa
kshhi taama
odha ne
ĠC h
le shhu
Ġsawa la
Ġyaa wata
opa jii
Ġbaa huu
Ġshara d
Ġwe daana
shu shru
shhThi ta
Ġshaa pa
Ġshaa rduula
Ġshaa lwa
dhya yana
ryaa daa
Ġgu Naira
Ġabhi prekshhya
ipa Na
Ġkashha tri
Ġpuru shhe
Ġputra sh
Ġkuru shhwa
shi khaa
gama ma
Ġupa sthitama
Ġupa spR
Ġsharu taa
Ġwara warNi
Ġche na
Ġshi waa
Ġpuur we
Ġsatya watii
ocha ta
ocha naa
maanaa ni
ana ya
oNa u
Ġpurushha rshhabhaa
abhi shhi
mjaya u
Ġpare kshha
Ġpare shhaa
mpa ta
Ġwayaa gh
Ġsau hR
Ġsau madat
ida ye
ishhNa sya
Ġawa sthaa
Ġjana nii
ĠpaaNDawaa naama
Ġwish ishhTa
Ġwish ishhyate
Ġmahaaratha i
Ġsathaa wara
Ġlakshhma Nena
Ġkashhi ti
karma Na
gii ta
Ġii shwara
Ġputraa sa
ok ena
Ġhe tu
Ġguru ra
Ġniha te
Ġshare shhThaa
oN itama
Ġraaghawa sya
Ġparaya t
cheta sama
raasha ni
Ġraakshhasaa dhipa
dbhu tama
shaasa naata
wid ita
dat te
mwi bha
dhuu naa
kal paa
Ġduraa tmana
Ġnar da
rNa wa
Ġjaye shhTh
ĠguNa i
Ġwichi tra
kampa ta
Ġraakshhase ndrasya
Ġuu chu
samu t
Ġsahita u
jagmu sa
Ġshaku nira
Ġbali naa
Ġri puu
Ġwima la
Ġparada kshhiNama
kusha la
Ġpadaa ti
ichCh ra
jaJ Naana
Ġsapar sha
wishaa rada
bharaa tR
Ġmahaamu ne
Ġyuyu dhaana
ĠgaaNDii wadha
Ġshuk la
Ġghaa ta
Ġyuu ya
Ġyuu tha
shikhaND ii
ishhTadyum n
wishe shha
Ġkashhetra jJNa
Ġyugaa nte
Ġbhaas kara
Ġdawitii ya
ĠichChaa mya
baandha waa
Ġparakaasha te
Ġsainye shhu
Ġkura w
Ġbiibhat sura
radhii yata
shuddhaa tmaa
Ġanaama yama
puras kR
iJN jaya
Ġparaakra mii
T u
a y
a ri
a jaatasha
h yama
h sR
i maa
j itwaa
m h
m sta
o gi
o chCh
o peta
s mya
s wata
u luu
w yena
y ita
Ġ shh
Ġ ruupe
aa kaasha
ta d
ta la
ta smaana
ma NDa
sh ishhya
wa su
wa ntama
sa daa
sa wya
pa laa
pa riya
haa ri
raa h
raa ga
cha ya
cha ryaa
cha muu
cha reta
da nama
sha tru
waa kya
shh uu
wi nau
wi dhyata
Ġa hi
Ġa nti
Ġa paatayata
maa li
ni shha
Ġma twaa
ga ndhi
Ġwi maana
Ġwi pre
ka ura
Ġwa iwa
Ġpara b
Ġpara ch
Ġpara suu
Ġpara siida
Ġka sa
Ġka riiDa
shhT waa
dha nwi
ru ru
Ġna u
ita na
ita kR
yu yu
it wa
it wi
it tira
Ġaa h
Ġaa y
Ġaa yasa
Ġaa shii
bh ru
bh rama
Ġya syaa
Ġya tta
Ġda dhi
Ġda ND
Ġda dyaa
Ġi maana
daa wa
Ġmahaa wane
Ġmahaa bhuja
Ġbha g
Ġbha yaada
kaa shaa
bha sa
Ġu nma
Ġu chcha
Ġu bhay
Ġsh eshha
Ġsh itaira
Ġpaa pe
Ġwaa ka
Ġba bhaa
paa p
Ġsu taana
Ġtu shhT
nta raa
Ġja nasa
Ġja ntu
Ġha nti
Ġra sa
Ġchaa brawiita
ishhT ira
nti bh
Ġnaa rha
Ġnaa mnaa
Ġkaa shhTha
Ġkaa rta
Ġe tacha
Ġku NDa
Ġparaa dur
mu m
Ġsarwa thaa
pu tre
nd hii
pra tii
gaa sa
gaa NDii
dya maana
tata sha
nya da
ishh Nena
rya yaa
isha sa
Ġdu hita
nii ha
Ġbhaa witaa
wii kshhya
tma kama
msa si
para gR
Ġyathaa kaama
Ġmu kh
Ġmu hya
Ġmu dita
jJNaa naa
kshhi Naama
odha muur
de shhu
ĠC hii
ĠC hR
opa sa
Ġshara isa
shu bhama
dar shii
Ġshu bhama
Ġabhi i
Ġabhi praa
ipa Naa
has ti
Ġpaar shwe
Ġkuru pu
Ġkuru sattama
Ġbarahma hatyaa
ratha ma
pe Na
Ġparama daa
ghaa ti
stra bhR
Ġpuur Naa
sthi t
Ġnitya daa
abhi manyu
gni naa
tawa yi
suu ya
aha ni
Ġti ti
ji giishha
Ġkha yaata
mahaa na
Ġpare shha
Ġbhaga wataa
Ġparaap tama
mpa ri
Ġut paa
ishhNa sa
kru shu
shra waa
pashya na
pashya ti
shhTaa wa
bhii sma
ĠpaaNDawa sya
ĠpaaNDawa ira
Ġjana mejaya
Ġpuu jita
rita i
Ġkaura we
myu ktaa
daana wa
kiir ta
mga maa
mni bha
Ġwarta maane
awa tiirya
Ġdaana waana
iga yaa
sahas reNa
ĠichCha taa
rd ita
muu Dha
Ġaash ritaa
Ġapa shyaama
tishhTha nta
Ġkari shhyanti
Ġdaru ma
pat ti
Ġrakshha saama
Ġshai neya
rat na
Ġbhi nna
Ġawya ya
Ġparaha sya
otta maana
Ġmuur dha
mwi itaa
Ġagni ra
iddhaa na
ishhii kesha
sarwe shhaa
Ġtiikshh Naa
Ġwiir yama
psa rasaa
Ġwasa ti
Ġuu chura
opama i
Ġkurwa nti
Ġshastra bhR
Ġparawa wR
Ġwipu laa
Ġadbhu ta
sukha ma
bhaga wana
ĠpaaJNchaalaa naa
Ġkashhii Na
Ġsainyaa naa
Ġmukha ma
sawaa gata
suur ya
shai la
Ġsaumit rira
ĠparayachCha ti
ĠparayachCha nti
Ġwikrama ma
Ġata nd
Ġwila pa
Ġmahaamu ni
Ġmahaadyu te
Ġbaah w
Ġwayuu ha
Ġaashra me
Ġwaama dewa
Ġbhak tyaa
ĠdharaNii tale
Ġsawyasaachi naa
Ġabrawii na
Ġwibhiishha Na
Ġniwesha nama
asamaa ka
Ġdarakshhya si
waahi niima
oddhu ma
Ġpawi tra
Ġbaruwaa Na
ĠpaaNDuputraa Naa
Ġpaaka shaasana
Ġdhaarmi ka
ane ka
abrawii cha
Ġraghu nandana
Ġanusma rana
Ġkuruudwa ha
C haada
a g
a dha
a smina
b ii
d uur
g ita
i j
i me
i bhira
i ju
k tuma
m taa
m gaa
m shra
m bhii
m pre
o bh
o jaya
o dhaana
p taana
r N
r maa
s itama
s tre
ha raNa
ra ja
ra dama
ya kshha
ya thaiwa
sh raa
wa ti
wa te
sa m
na nti
pa T
pa prachCha
haa haa
Ġsa hi
Ġsa cha
da yata
da kshhiNama
sha ru
waa hana
wi ddha
wi sR
wi shana
wi kramaa
yaa n
yaa Naa
yaa wada
Ġcha raNau
Ġa dii
Ġa ji
Ġa mba
Ġa kurwa
naa sa
naa bhyaa
te wa
te ti
ja yama
ja le
ja jJNe
ni ha
ni raa
ni bha
ni warta
Ġma ri
Ġma tsa
Ġma NDuu
ga la
ga re
ga myaa
shha sa
shha rii
Ġwi wya
Ġwi khyaa
Ġwi kraa
Ġwi wardha
Ġwi raaT
ka re
ka ira
ka lyaa
Ġwa daa
Ġwa rma
Ġwa sana
Ġwa shama
Ġpara dhaa
Ġpara Ne
Ġpara mukhe
thaa sa
Ġsha l
Ġsha shaa
Ġsha straa
Ġraa jJNe
yu gaa
Ġc hu
it ye
Ġaa ra
Ġaa gamya
Ġaa panna
bhi bhuu
ye tu
we kshhya
we shhTa
Ġda s
Ġi shhTaa
Ġbha gna
bha rata
Ġu r
Ġu chCh
Ġu kte
jaa sha
Ġwaa tara
Ġwaa rshhi
Ġwaa hana
Ġba h
Ġba ndha
paa wa
Ġte bhy
tya rtha
Ġtawa ritaa
dhi ka
Ġsu khe
Ġsu kumaa
Ġsu bahuu
Ġdha nuu
Ġga tasa
Ġja ni
Ġha tama
Ġha staa
Ġchaa hama
shhaa ta
jJ Nena
itaa stra
Ġkaa mya
ba ndh
nama skR
Ġparaa wR
su khaa
su griiwa
mu chya
pu Nyaa
Ġtaa JNa
bhaa wana
Ġsama bhawata
Ġsaa nt
Ġchi tta
Ġraaja shaarduula
JN che
Ġpari y
syaa nu
syaa mita
kha i
rshha yasha
chi tama
mya ti
ku NDa
ku rwaa
para s
para maa
bhuu y
Ġyathaa wada
di re
Ġmu mu
wya sa
Ġdharma jJNaa
odha ma
Ġparati shhThaa
shhya tha
Ġsawa bhaa
Ġyaa cha
Ġyaa nta
Ġla laa
ora ga
asa tra
Ġwaya thaa
Ġwaya dhama
Ġshara wR
shu shruushha
dar shi
yaana gha
ishhTa waana
Ġshaa nta
Ġgu Daa
ipa sha
ipa tira
Ġwar ja
ge ndra
tmaa n
has taa
Ġdawi pa
Ġbhiima paraakrama
Ġdi wyama
Ġupa sa
Ġkarma su
Ġwara tama
Ġiwaa mbu
sar wata
Ġche ha
ghaa naa
Ġratha wa
Ġdhaa raa
Ġdhaa taa
ocha ti
Ġtapa si
Ġtari l
darsha ne
ana ye
ana yathaa
Ġsi ndhu
oma datta
abhi waa
dhe ya
Ġbhaga datta
Ġparaap te
Ġwayaa ghra
Ġsharii re
Ġsharii rama
ishhNa yaa
Ġkaru Na
Ġawa sthitama
Ġkau shi
Ġkau tuu
Ġjana pade
Ġpuu jaya
Ġaatma n
mpra tama
mpra hR
sarwa ma
Ġbuddhi ma
maha taa
Ġawaa sR
raawa Na
mga mya
ottama i
karma Naama
pha l
sat riya
Ġparawi shhTa
Ġshatru ghna
Ġwarta maana
ĠpaaJNchaa lii
Ġmahaana dii
Ġwaj rama
Ġwishha ma
tishhTha ti
Ġbabhuu wura
Ġwidhi wada
kii rya
Ġdaru maa
pat nii
Ġparya pR
oN it
Ġpii ta
maar ga
Ġshakra sya
Ġshai laa
ati iwa
Ġraakshhasaa naa
Ġkuruu Naama
Ġani warti
mpraa ptaa
Ġyama kshhayama
Ġkashhu dhaa
abara wii
Ġsahaa maatya
Ġmuu Dhaa
prama tta
Ġparabh ura
Ġsapta bhi
Ġjiiwi taa
Ġjiiwi tuma
iddhaa naa
Ġduu ta
Ġnishaa chara
dru ma
Ġtiikshh Nai
Ġdaraupa dyaa
ohaa da
tawaa ma
Ġsamut sR
Ġwimu kta
Ġkalyaa Nii
Ġraakshhase ndra
bhiishhma dr
Ġdushh kara
darau pade
Ġnawa bhi
Ġchandra maa
Ġmahi shhii
Ġmant riNa
Ġbhuutaa naama
Ġsamantaa da
tt wi
daiwa tama
Ġaparaa jita
Ġsaumit ri
Ġsaumit re
paar shwa
Ġsharawar shhaaNi
Ġsiddhi ma
Ġpashchaa da
Ġkewa lama
Ġatya nta
Ġkumaa ra
Ġbaah li
ĠpaaNi naa
Ġdayuu ta
rshhii Naa
Ġwigata j
otsaa ha
Ġbhaami nii
Ġtathe tya
Ġhasti na
Ġbhaaradwaaja sya
Ġsali la
Ġruupaa Ni
Ġwari shhTha
gaandhaa rii
Ġraajapu trii
watta rama
hshre yasa
mrakta l
lb ishha
Ġtawaana gha
ĠaJNja saa
N y
a l
a cha
a syaa
a kar
a lpa
d ri
d yama
g ne
g heNa
h shha
i kama
i chChaa
i kshhe
i Dhaa
m dwa
m kalpa
m Cha
m jaayate
m puujya
n taama
o he
o ddhaa
o Ta
p ti
s ewa
s tr
t saa
t pi
t kR
w raa
Ġ ruupeNa
aa tmaa
aa tmaana
ta r
ra si
ra shmi
ya tya
ya traa
ya maan
sh w
wa n
wa y
sa p
sa war
sa hita
pa tana
haa ni
Ġsa h
Ġsa dya
Ġsa tana
raa tri
cha y
da dh
da she
da yuu
sha w
waa se
waa dii
shh y
shh Ni
shh Nii
Ġta re
Ġpa N
Ġcha kraa
ti shhThe
Ġa dha
Ġa tu
Ġa chi
Ġa pR
Ġa nena
maa traa
maa lya
ja nma
ni na
ni shhThaa
ni hatya
uu chu
ga chChaa
Ġwi haa
Ġwi daa
Ġwi bha
Ġwi wR
Ġwi dya
Ġwi jaana
Ġwi pr
ka daa
ka shhu
Ġwa dana
Ġwa naani
la ye
Ġpara tra
Ġpara dR
Ġka rau
Ġka dana
Ġka bandha
Ġka NT
ri Naama
dha ruwa
tu mu
Ġsha sha
Ġsha rma
Ġsha tr
Naa sha
Naa bhi
Ġna ika
it tena
Ġaa nR
Ġya ira
Ġya traa
ye shhwa
we sh
Ġda g
Ġda nti
Ġda gdha
Ġi he
Ġi ndr
Ġmahaa naada
Ġmahaa swana
Ġbha ru
Ġbha kta
kaa nya
Ġni me
Ġni yat
Ġni kshhipya
Ġwaa li
Ġwaa raNa
Ġwaa chya
saa ha
paa ya
Ġtawa dii
Ġsu pra
Ġsu rai
nta radhiiyata
Ġga ma
Ġga ndhaa
Ġga chCheda
Ġja le
Ġja igiishhawya
Ġha nya
Ġra kshhi
dhaa nya
dhaa rmi
Ġchaa smi
Ġmaa dha
Ġmaa saa
Ġmaa lya
Ġg ura
rii ma
kshh eta
Ġkaa m
Ġkaa ka
ba ruuhi
Ġe w
Ġe ti
Ġe tena
Ġsarwa sai
shaa rduu
pu rushha
Ġsama ma
Ġsama rtha
Ġsama bhya
pra daana
gaa ya
gaa naa
Ġme ru
Ġme ne
ishh Nu
tii ya
nii na
Ġbhaa ska
tma bhi
tma waana
tma jama
Ġwai shya
msa sh
msa na
rshha y
mya te
ku ni
para sa
para wR
para jJNaa
Ġbhuu yasa
chCha ti
chaa r
chaa rii
Ġmu ch
Ġmu kt
shwa sya
Ġdharma sha
Ġdharma wita
ke sh
ke Na
ot syaami
opa pannaa
ora ruupa
Ġdewa sa
Ġdewa dewa
Ġwaya sana
Ġdaa sa
Ġdaa nta
Ġdaa ruNaa
Ġmaha t
tta maana
Ġdar pa
Ġsarwe shhaama
Ġshu shruu
Ġkashha triy
th yate
Ġwar shhe
Ġsat ye
Ġbarahma cha
Ġupa chakrame
oda sha
oda yaama
Ġkarma Ni
tyaa ga
iir Na
Ġwara da
Ġiwaa ntakama
Ġsamu dya
Ġshi bira
je da
Ġjii waa
Ġsatya paraakrama
ĠyudhishhThi re
ishha yasha
Ġbhawi shhyaami
Ġbaraahma Nasya
Ġnir jita
ana yata
putra sa
Ġpha laa
Ġupaa gata
Ġupaa gamya
Ġupaa gamata
Ġupaa sate
Ġsai ndha
Ġsai nyena
Ġbhu JNjate
Ġti mi
abha wada
Ġshak yate
Ġshak tyaa
wasa ti
Ġut saha
Ġparii taa
ishhNa u
ĠpaJNcha mama
Ġtii rthama
ishhi ra
Ġdasha bhi
Ġjana padaa
ithiwii pate
Ġdara shhTaa
Ġnaraa dhipaa
hkha sh
maaNa sya
mpra yachCha
wra te
Ġkaama ruupi
mha sya
Ġukta waana
Da yaama
Ġkashhi tau
mga waa
mga te
iha d
karma bhi
jii wita
ar ja
Ġpushh kara
Ġsii da
Ġabhya yaata
mni bhama
Ġparatya padyata
Ġwini shcha
Ġdaana wa
Ġati kramya
wanta sha
ok tu
Ġsarwasha strabhR
shru tama
Ġmahaabala u
Ġsuuta putrasya
Ġkari shhye
bhawa nti
odhaa da
Ġjiiwa nti
raaj ena
Ġsuur yasa
Ġmaar gama
ichCha yaa
Ġmaanu shhe
Ġchitra sena
athaa nyada
taya ktwaa
Ġmadhu raa
ĠdhaartaraashhT raa
Ġbhuumi ma
mpraa pte
bhiima se
baraahma Naanaa
Ġsahaa ya
Ġshubhaa na
mbh raa
oni ma
Ġsabhaa yaa
Ġnaraadhipa ma
Ġjiiwi te
hkhaa ni
hkhaa rtaa
Ġduu ra
its nama
raajaa nama
Ġbhartaa rama
Ġudaa wahana
Ġsawarga l
Ġgar ja
Ġgami shhyasi
oshhi taa
Ġhaa rdi
Ġanii ki
piiD ita
plu ta
Ġgiri ma
Ġnawa bhira
Ġnaaraaya Naa
itii ya
ihaspati ra
Ġsudu shh
Ġsata naantare
Ġshawe tawaa
Ġudya ta
Ġmar tya
Ġtaapa saa
Ġkirii Tii
Ġsawyasaa chii
ĠparaNa mya
Ġparaaya Nama
hshaasa n
ĠparatishhThi ta
Ġupe tya
Ġdurma ti
shikhaND ina
Ġmadra raaja
Ġmaithilii ma
ikshhaa na
hshwa sa
otka Ta
manu shhya
chakshhu shhaa
warcha sa
Ġpaata yaama
was ishhTha
Ġwisma ya
Ġsami ti
jagh ne
Ġwah ni
Ġle bhe
Ġparu shhaa
kaaryaa Ni
Ġjawal ita
Ġkurukshhe tra
Ġsutii kshh
Ġmedhaa wii
otpa la
Ġpadmi niima
hpu re
madra raaja
taaDa yata
Ġsena yaa
ĠpuNDarii kaa
Ġtatraiwaa ntaradhiiyata
N ewa
a t
a bhuu
a pya
a dhyaa
a bhuuta
d yuu
d ishhTaa
d itra
i nda
i jana
i ptaa
l itaa
m wa
m she
m kshhaye
m puurNaa
n wana
o shhya
o kt
o chya
o nma
o hitama
o sahasra
r cha
r thii
t ye
u ghaa
Ġ oja
ha yaa
ta isha
ta thama
ma h
ya s
wa dhaa
wa si
sa thi
sa tata
sa triy
na s
na iwaa
pa kshha
pa traa
haa ma
haa wa
Ġsa yu
Ġsa nt
Ġsa dana
Ġsa yura
raa ha
raa gha
cha kru
cha kshhe
cha kraama
da ND
sha we
waa pya
wi wi
wi kra
wi ddhaa
yaa tu
yaa wata
Ġta n
Ġta rya
Ġpa tra
Ġpa kshhi
Ġpa mpaa
taa la
Ġa m
Ġa jJNaa
Ġa she
Ġa mit
Ġa jaana
Ġa gamata
maa sa
maa taa
maa ga
naa tha
naa nu
naa bhya
ja ira
ni dhi
ni kR
ni barha
Ġma te
Ġma tima
ga rtaa
ga ndhaa
ga Naira
Ġwi r
Ġwi da
Ġwi waa
Ġwi ka
Ġwi karNa
Ġwi shhaada
Ġwi kraanta
ka laa
la ha
la bhya
Ġpara waa
Ġpara war
Ġpara su
ri bhi
ru dhi
Ġsha raasa
Ġna iwaa
Ġna itada
ita y
ita naa
ita jJNa
Ġaa s
Ġaa shaa
Ġaa gataa
Ġaa kaaN
Ġya yu
Ġya dR
Ġya kshhaa
tra sa
bhi ta
we kshha
we dya
Ġi shhyate
daa naa
Ġmahaa mate
Ġbha raaja
kaa rama
kaa laa
Ġni dhi
Ġni shhThaa
Ġu ddha
Ġu dwi
Ġwaa lii
Ġwaa yasa
Ġwaa haana
nu gaa
he shhu
mi Na
mi shha
Ġtawa rita
dhi ta
dhi naa
dhi pati
dhi rathi
Ġsu te
Ġsu kh
Ġsu shr
Ġdha naa
Ġdha rshha
Ġja h
Ġja gR
Ġja gada
Ġha sta
Ġchaa syaa
Ġchaa tmaana
Ġmaa sa
Ġg uu
kshh ye
war maaNa
war shheNa
itaa JNa
Ġkaa mama
Ġku su
Ġku lii
Ġku ntyaa
Ġyu yudhaa
su kumaa
Ġsarwa daa
si ddhaa
Ġsama ye
Ġsama yanna
Ġsama jaayata
Ġhi taa
Ġsaa twa
me dhaa
ruu p
ruu ra
isha ta
nii kama
Ne ti
Ġbhaa ryayaa
Ġtathaa pare
Ġpari traa
Ġwai shyaa
Ġl ip
chi kiirshha
mya taa
ku mbha
Ġbhii taa
Ġsaha dew
Ġmu na
Ġmu khya
Ġkar hi
gh raaya
Ġdharma ta
Ġdharma chaari
tat h
Ġde waasa
ot sye
ĠpaaNDa wena
Ġsawa tejasaa
Ġyaa nya
Ġyaa dR
Ġyaa jJNa
opa hata
oka kar
Ġdewa gandharwa
Ġjaa mba
Ġwe sh
kh yaana
Ġdaa nama
baa hura
paraa Naa
shhThi taa
eta sya
bra hma
Ġshu ka
Ġgu N
Ġanu sh
Ġabhi ja
Ġwar Naanaa
gu r
Ġdur gaa
shi laa
Ġnara ka
wai kshhata
Ġupa iti
oda ka
oda dhi
pe de
Ġbahu widhaa
Ġiwaa ma
Ġparama rshhaya
Ġpuur waa
tasya iwa
ocha nama
ishha ya
Ġshuu dra
Ġwid ma
Ġwid waa
Ġwid yaada
raNa i
shii laa
puur w
od it
Ġwiira sya
Ġshak n
puu jitaa
ĠpaJNcha bhi
kru ddha
pashya taa
ĠpaaNDawa u
ishhi bhi
ishhi sattama
Ġpash uuna
odhana sya
anu jJNaa
par wata
sarwa bhuuta
Ġbuddhi maana
daana sya
Ġnish chita
Ġlakshhma Nasya
Ġpi tusa
gachCha na
gachCha da
ar dha
Ġash ru
wacha naada
Ġdaana we
ĠichCha na
ĠpaaJNchaa laana
obha ne
Ġbaruu yaa
Ġhari ra
Ġdarsha yaama
Ġwipra rshhe
shata ira
Ġrathaa da
ih yaa
Ġbabhuu waa
Ġkari shhyasi
odhaa ta
odhaa naa
Ġanya tra
Ġbhuuta le
raaj ye
Ġsuur ye
Ġsuur yama
Ġrakshha sa
maar juna
Ġmaanu shhaa
Ġsenaa pati
rat hii
rthaa ni
Ġdhawa jama
ikshha ta
Ġparaha sana
Ġanta re
Ġkusha laa
wid uu
Ġpita r
yudhishhThi r
ĠbaraahmaNaa naa
Ġbarawii hi
Ġchara nti
Ġwiir yeNa
Ġudaa hR
rNa wama
ityu ma
psa rasa
Ġutta ra
Ġutta maa
Ġwishe shha
Ġwishe shheNa
warNaa naa
kau sa
Ġasmaa da
samu dra
Ġrathi na
Ġnama syaami
mukhaa na
Ġjaata ruupa
ishhTadyumna sha
Ġrau draa
Ġpuuja yitwaa
Ġyuddhaa da
pad ma
Ġwis mita
kima rtha
ima se
wisha da
Ġju h
Ġjaana kii
Ġtarii Ni
Ġap riyama
Ġmahaamu nima
Ġlakshh yate
anta r
Ġpanna gaa
Ġatya rtha
Ġmadh yama
utta ra
Ġsugrii w
Ġsahadewa sha
obhaa da
Ġbharaata rama
yuutha pa
Ġjawala na
Ġhutaasha nama
ĠwiraaTa sya
Ġnaawa bu
Ġruda tii
Ġdayuu te
Ġshaanti ra
Ġparadii pta
Ġbaruwa ti
Ġparyaa pta
Ġpe tura
Ġshala kshhNa
Ġaakaasha ma
manu shhyaa
Ġkale sha
Ġniwesha ne
Ġmanushhyaa Naa
jaye shhTha
paratyu dya
Ġkaashya pa
Ġsaayaka ira
nimit ta
Ġlu bdha
Ġhan yaata
Ġkhayaa t
Ġdaraupade yaa
Ġparyupaa sate
paaND u
uka saama
Ġwakta wya
warte ta
rhi Na
Ġwista reNa
kaN Ta
ĠkiriiTi naa
Ġmahaanu bhaawa
Ġniwaata kawachaa
saatya kisha
JNjii ta
Ġnayaweda yata
Ġaayasa i
Ġkautuu hala
tpi paa
N ye
a maa
a para
a nna
a waya
a shma
a shak
h na
h pura
i dya
i hama
k ti
k it
k itaana
m t
m dhaa
m warta
m sma
m kshhe
n yu
o m
o jaa
o shhTha
o hama
o kshhaa
o chita
o Ti
p sura
s taana
s treshhu
t s
aa shii
aa ditya
ta pya
ra pra
ra kshhaa
ra Nyaa
ya ja
ya iwa
ya syaa
ya jJNaa
ya sii
ya ntya
wa haa
wa yu
sa hitaa
na raa
na la
na ita
na ntarama
pa tyaa
pa JNchaa
haa rasa
Ġsa khii
Ġsa wida
cha twaa
cha raana
da lii
da kshhiNaa
sha yaa
sha taani
waa chaa
waa cheda
shh maana
wi cha
wi dhama
yaa wana
Ġta r
Ġta ja
Ġta smaana
Ġta sminna
Ġpa tat
taa N
taa r
Ġcha la
Ġcha ndraa
Ġa bh
Ġa bhira
Ġa gama
Ġa nir
Ġa pratima
Ġa shhTau
maa drii
te bhya
te bhy
ja haara
Ġma me
Ġma dwi
Ġma ithu
ga ura
shha Da
Ġwi k
Ġwi ta
Ġwi sa
Ġwi ita
Ġwi raaja
Ġwi dhwa
Ġwi ruupaa
Ġwi hwa
Ġwi parii
Ġwi kramya
ka thaa
ka ruddha
Ġwa isha
Ġwa yetu
la u
Ġpara wra
Ġpara dhaana
Ġpara padyate
Ġka wi
Ġka smaada
Ġka shma
shhT itama
ri tasa
ru sa
ru Nasya
Ġsha tra
Ġsha yaama
Ġsha laagha
Ġna l
Ġna rta
ita yuge
yu shha
yu tama
it yaana
Ġaa su
Ġaa ruu
Ġaa pta
Ġaa tishhTha
Ġaa jau
Ġaa yaanta
Ġya thaiwa
dh y
dh yana
Ġi daanii
daa la
Ġmahaa nti
Ġbha i
Ġbha u
Ġbha sma
Ġbha radwaa
Ġm ii
kaa bhira
kaa reNa
kaa riNa
bha kta
bha ktyaa
Ġni paa
Ġni weda
Ġni yataa
Ġni darshanama
Ġni nada
Ġu bhaawa
Ġu shhNa
Ġpaa na
Ġpaa tra
Ġpaa yasa
Ġwaa y
Ġwaa ru
Ġwaa dina
saa gara
Ġba hwa
Ġba ruwana
he tu
Ġtawa tta
Ġtawa dwi
Ġsu gh
Ġsu shheNa
Ġsu wrataa
Ġdha n
Ġdha raa
Ġdha yaana
nta wya
Ġja lama
Ġha wi
Ġra jasaa
dhaa riNa
Ġchaa rii
Ġchaa nyaana
Ġmaa li
kshha na
kshha si
kshha Nama
Ġnaa m
Ġnaa la
Ġnaa stya
war Nama
ba ha
ba ndhu
Ġe dhate
twaa cha
Ġyu ta
Ġyu jyate
Ġparaa mR
Ġparaa krama
Ġparaa JNjali
su raana
Ġsarwa raaja
Ġtaa bhyaa
bhaa w
bhaa ra
Ġsama la
pra wR
Ġsaa shwa
ishh yata
isha du
Ġdu hi
tii rtha
nii la
Ġbhaa swa
Ġpari sa
Ġpari gR
Ġl ii
du shh
ku ra
ku ntii
para shaa
para saada
para wishya
Ġyathaa shakti
chCha nna
Ġmu khe
Ġmu ditaa
se wi
se wii
shwa sa
gh ya
Ġdharma wid
Ġsamaa hitaa
Ġsamaa sthaaya
Ġsamaa gataana
Ġyaa traa
Ġyaa syaami
Ġla mba
ora ira
Ġdewa i
Ġdewa gaNaa
Ġjaa ti
Ġjaa jale
Ġwaya r
Ġwe di
shu shruu
dar shina
kh yau
Ġdaa ra
kar tana
kar maaNi
paraa Na
Ġtat twama
Ġshu shubhe
Ġshu shruushha
Ġaasa saada
Ġar dha
Ġanu ra
Ġanu yaa
Ġkashha ra
Ġsat riy
ktaa sha
Ġtawaa ha
Ġhaya i
Ġputra pau
rau dra
Ġnara shaarduula
Ġupa ta
Ġbhawa tu
khaa na
Ġiwaa mba
iN wa
Ġparama sa
Ġparama yaa
Ġparama ka
Ġgaa wa
Ġgaa Dha
okaa da
Ġsamu dre
Ġshi lii
ithi wyaama
gra ja
sthi tau
ĠCha ra
Ġtari dhaa
Ġsarwaa sa
Ġsarwaa Nya
yi waana
nasa maa
oNa sa
Ġshuu draa
oma ma
oma sha
oma kaa
Ġwid yuta
Ġmahaatma ne
Ġpurushha sya
abhi man
Ġpha laani
gni ma
Ġsai ni
Ġpaartha ma
Ġsathi ra
Ġpashya ntu
dhe shhu
od ishama
mpa nn
puu jaa
Ġwayaa s
Ġtena iwa
Ġpar janya
Ġtama saa
Ġsahas raakshha
wasa ta
ida N
ishhNa d
sawa sti
shhTaa na
Ġawa plutya
Ġpaarthi wama
ishhTaa ni
Ġwish we
ithiwii pati
Ġdewaa sure
Ġsathaa wa
Ġbhiishhma sa
Ġbhiishhma dr
Ġmahe shwara
oshha ira
Ġkaama ye
Ġshii ta
Ġraagha wama
mbha sa
Ġnish itaana
Ġlakshhma Nama
mga wama
Ġwaana raana
Ġpuurwa ja
Ġkaala ch
nanda nama
Ġsii taama
sat twaa
sat huu
Ġshatru taapa
Ġputraa sha
Ġparatya kshha
Ġparatya gR
Ġwarta nte
Ġwini paati
sahas raa
ish ura
ms pR
osha na
Ġjaya taa
shru ta
Ġchatur bhira
Ġsuuta putr
msaa ni
Ġparas rawa
Ġmat kR
Ġmaar ka
Ġkesha waa
upa waasa
Ġshai ne
Ġsarwabhuu taanaama
Ġkawa chaa
mja y
Ġparaha rataa
Ġsamii pe
Ġdiwa se
ĠChi nnaa
ĠdhaartaraashhT r
Ġanta ra
Ġkula paa
sai nya
Ġbhiimasena sha
Ġsaaya kaa
Ġsaaya kaana
dat twaa
kaar yama
mwi dha
mbh rama
Ġparwa taa
abhya drawata
parati gR
Ġwada nti
yanta u
Ġduu shha
Ġaar ja
mdama u
warti tuma
Ġhii yate
Ġchara na
Ġkuntii putra
owi da
owi daa
shrama ma
ohaa na
ĠguNa sa
nara naaraaya
Ġaacha reta
chu krushu
psa yaa
Ġbarahmaa Nama
Ġwichi traa
chaara yana
ĠshikhaND ina
Ġshuchi smi
Ġbhar tura
Ġraakshhase shwara
bhuushhi tama
dawi jaa
Ġkashhatra dharma
aga nira
Ġag re
yudhaa ni
dharmaa rtha
piiD ya
Ġbhe rii
paaJNchaa la
paaJNchaa laana
Ġkurwa te
darau Ni
chinta yana
Ġnaaraaya N
Ġabha ya
Ġpurushharshhabha ma
Ġparada dau
Ġkashhatriyaa Naa
raacha rama
rda nama
Ġud dishya
Ġwasudhaa dhipa
Ġashwa tthaa
Ġdawa u
Ġmaharshhi bhi
ska ndha
Ġlaa gha
Ġshawa shura
Ġnaga rii
Ġuktaa sa
Ġshaashwa tama
Ġkariya taama
Ġtad wada
Ġshe rate
asha wa
ipate ra
Ġchamuu ma
Ġmaru tta
Ġparyu pasthite
ĠraNa muurdhani
Ġdaaru Nama
mbaa dha
Ġdaashaa r
Ġanind ite
Ġbaandha waa
Ġabrawii cha
Ġawe kshhya
Ġwibhiishha Nama
Chi nna
mshhT raa
winaa shaaya
gami shhyati
Ġparahaa riNa
Ġjaanii hi
mwatsa ra
Ġshatakra tu
Ġdhuu ma
Ġamarshha Nama
Ġsaraswa tyaa
daraupa dyaa
Ġdawishha taa
ope taa
Ġnimit taani
puru shh
Ġpariwaa rita
ĠraNaa jire
mbhi ira
Ġaga stya
kashhe tra
Ġuch chaa
Ġkurwaa Na
Ġyaata yishhye
Ġpauru shhama
Ġyaada wa
Ġkiicha ka
Ġsaya nda
rundha tii
Ġwishru tama
Ġbhagi nii
khaD ga
ochaa mi
Ġsahalakshhma Na
Ġpaarwa tii
Ġsathaawara jaN
Ġripuu na
abarawii na
Ġsudushh karama
osahasra phala
C hittwaa
I Naama
T isha
T ina
a b
a i
a p
a ka
a tii
a chi
a rathaa
a mba
a shru
a kashha
a nwa
a ishwar
g jy
h ra
h su
i kshhwaa
j wala
k mi
k lama
k riiDa
m shhya
m bhR
m haara
m graha
n uuna
o shhT
o she
o raana
o graa
o ktwaa
o bhau
p reNa
p syate
r t
r jun
t te
t rya
u ttama
u nma
aa ja
aa di
aa jJNaa
aa shra
aa siida
ha nya
ha tasa
ta re
sh mii
wa sya
wa rama
wa wR
wa straa
sa haa
sa tu
na nu
na naada
pa k
pa rata
pa kshhaa
hi twaa
Ġsa ira
Ġsa kh
Ġsa jja
raa Na
raa wata
raa wya
raa Da
cha rma
cha kaara
da sya
da dau
wi naasha
wi shhama
wi sp
Ġta ndrii
Ġpa kshhaa
Ġpa kshhiNa
taa pi
taa bhyaa
Ġcha kaaraa
Ġa d
Ġa l
Ġa u
Ġa taaDayata
naa sya
naa si
naa hama
ja ne
ja laa
ni la
ni itaa
ni bhaa
Ġp iN
ga sya
ga tira
Ġwi chaa
Ġwi dar
Ġwi dhu
Ġwi dhaana
Ġwi ghna
Ġwi bhaawa
Ġwi graha
Ġwi jaaniihi
Ġwi ndhya
ka wacha
Ġwa dhi
Ġwa de
Ġwa dhama
Ġwa wau
la bhaa
la bhama
Ġpara sh
Ġpara shwa
Ġpara wada
Ġpara wara
Ġpara Nu
Ġpara disha
Ġpara pashyaami
Ġka p
Ġka nya
Ġka syaa
Ġs ewate
ri te
Ġsha w
Ġsha ya
Ġsha shwa
Ġsha yana
tha sya
tha wata
Ġna dya
Ġna ina
Ġraa maa
it h
it tasya
it teshhu
Ġaa di
Ġaa pada
Ġaa haara
Ġaa hwa
Ġaa gamana
Ġaa rur
Ġya mu
Ġya ntaa
Ġya yaati
tra i
tra staa
bhi re
dh yeta
re ya
we d
we shaa
we shma
Ġda ri
Ġda darshaa
Ġi h
Ġi ndriya
daa taa
daa nama
Ġmahaa sura
Ġmahaa dwi
Ġbha kshhya
Ġm i
Ġpu tre
kaa lena
kaa JNchana
bha waa
bha kshha
bha dra
Ġni waasa
Ġni raama
Ġni waara
Ġni swana
Ġu graa
Ġu ddhR
Ġwaa pii
saa wa
saa daa
saa ntwa
Ġba ndh
nu wa
mi shhThaa
Ġtawa d
dhi ita
dhi daiwatama
Ġsu tasa
Ġsu rasa
Ġsu prii
Ġsu tumu
Ġtu lyaa
Ġga ha
Ġja we
Ġja laa
Ġja wana
Ġja gma
Ġha ntuma
Ġra ti
Ġra bhasa
dhaa nii
Ġchaa wya
Ġmaa tra
Ġmaa nya
Ġmaa lyaa
Ġmaa rutaa
kshha rama
shhi JNcha
ne traa
nti kama
hu sa
Ġnaa maa
Ġnaa gaana
Ġnaa ny
war taa
ba laana
Ġe taira
Ġku b
Ġparaa pa
Ġparaa jJN
Ġsarwa paa
Ġsarwa dhanu
Ġtaa la
bhaa g
bhaa gi
Ġsama wa
Ġsama nujJNaa
gaa wa
Ġsaa gar
Ġchi raaya
Ġme nire
ishh Nya
Ġraaja rshhe
Ne ha
wii ma
wii ryaa
traa sa
traa Nya
Ġtathaa nye
Ġpari sh
msa ti
syaa m
du sa
wata ra
para bhaa
para shwa
para yayau
Ġyathaa shaastra
Ġyathaa sukhama
Ġyathaa tathama
Ġbhuu shha
Ġbhuu tama
chaa raa
di naa
di wyaa
Ġdharma putra
ke tu
Ġki raa
Ġn uu
Ġsamaa ra
Ġsamaa dhaaya
Ġsamaa shritya
Ġsamaa chareta
Ġsawa dharma
Ġla bdhaa
opa maana
opa sthe
ora gaa
Ġbaa ndhawa
oka samaa
Ġdewa ma
Ġdewa rshhi
asa kR
Ġjaa hna
Ġwaya dR
Ġwe d
Ġwe pa
shu shubhe
dar pa
dar the
Ġdaa tu
Ġdaa ne
baa ndhawa
kar Naa
paraa pya
paraa pnu
Ġshu na
Ġshu bh
Ġshu ddha
Ġshaa khaa
Ġshaa ntaa
Ġas thi
Ġas twa
dhya nti
Ġar jun
Ġgu ha
Ġgu pta
Ġabhi itawata
jya taama
ipa sya
Ġsat uu
Ġsat twaa
sii ti
Ġdawi je
Ġdawi pama
Ġdawi padaa
nyaa sa
Ġwacha naada
Ġbhiima sa
gu rura
Ġdur jaya
shi kh
Ġraama sha
smaa bhira
Ġnara rshhabhaa
Ġnara naaraaya
Ġupa waasa
Ġwii kshhya
oda te
Ġkarma kR
pe dire
Ġsharu t
ki Nii
Ġdhar maana
Ġgaa w
Ġgaa thaa
Ġgaa ND
Ġgaa lawa
sar ge
Ġche di
praa pta
stra ma
Ġshi ni
Ġraakshha s
Ġbu dha
lii ka
gra he
ĠCha tra
Ġtari dasha
Ġsarwaa tmanaa
sthaa ne
Ġnir wR
Ġnir dwa
Ġshuu raana
oma ra
abhi gamya
abhi dudraawa
Ġupaa daaya
Ġru chira
Ġsai nyama
hata u
Ġbhu jaa
Ġti la
bara wii
yuu ra
Ġpare shhi
bhe rii
ishhya nta
ishhya nti
Ġwayaa hara
Ġtama si
Ġsharii raaNi
Ġut thaa
stha sya
Ġsuu kshh
Ġtii re
sawa dharma
ishhi sa
Ġpash yaama
Ġpash yaamya
pari shhkR
ishhTaa naa
Ġaatma waana
Ġdara wi
Ġdara kshhyanti
Ġmana si
dyu ti
par Na
Ġkaura wanandana
mpra ti
itaraashhT raa
itaraashhT reNa
Ġawaa kirata
tur war
tatra iwa
gachCha nti
ottama u
Ġdarau Ne
mba bhuu
Ġsii te
Ġshatru karshana
Ġadya iwa
iga dwi
ĠichCha nti
Ġtaya ktaa
che shhTa
obha ta
Ġati iwa
Ġnaya wartata
Ġbaruu yaada
Ġaash charya
Ġwidu rasya
oja yitwaa
Ġmanu jaa
Ġjaya dra
Ġkashhat taa
Ġapa tya
ĠtishhTha na
Ġsuuta putreNa
bhawa taa
Ġjiiwa l
Ġparya wa
Ġsawaa gata
Ġsawaa dhyaa
rthe na
Ġmaar gaana
Ġmaanu shhii
ghna na
ĠpuNya kR
ikshha ma
ikshha yaa
athaa brawiida
taya kta
ĠyajJNa ira
Ġanta raa
Ġanta rikshhe
Ġne traa
Ġdawaa wa
yudhishhThi rasya
dhawa ja
Ġsiitaa yaa
eka ika
mbh ra
Ġsabhaa rya
mb ya
mta ptaa
Ġmanya nte
ogaa ta
saha saa
padya nta
Ġparasha sha
dru taa
warti na
Ġduraa tmanaa
Ġkiir tima
owi dama
yii ta
pare shhayaama
Ġdat taa
Ġparasa nna
Ġparasa mii
wardha ta
opaa ya
st rii
st hura
Ġwichi traaNi
ĠraajJNa sa
ĠraajJNa sha
Ġihaa gata
bhiishhma sya
Ġhu ta
Ġanii ka
bhuushhi taa
wu sha
Ġwaayu naa
Ġasmaa bhira
Ġnii laa
dewaa naa
pash chi
Ġnama sa
chinta yaama
ama rshha
Ġbhuuy ishhTha
Ġbhaar yaama
Ġgaandhaa ryaa
oshh Nii
sarwaa N
arjuna sya
nitya ma
Ġshawe taa
Ġkur yura
Ġdawe shhTi
Ġjita kaa
sawaa dhyaa
Ġtapaswi nii
ala mbu
Ġshawa shu
Ġwet tha
Ġjaana nti
Ġdiwaa kara
Ġsiddhaa sha
idh raa
Ġtaras wi
Ġnaga re
Ġtawara maaNa
Ġdhaara yitu
Ġaapata ntii
gau tama
Ġsatyawaa dina
Ġwila laapa
ĠkuJNja ra
Ġamita ujasama
Ġsuma dhya
Ġsugrii wama
Ġdurma te
Ġwidhii yataama
maanu shhama
Ġanupraa ptaa
bhiimasena sa
Ġkaike yyaa
bhar tR
Ġbhaas karama
paratya kshha
ishu sa
Ġchatu rtha
Ġsap hi
kari shhye
Ġyuddhadurma da
Ġmaadrii putrau
gami shhyaami
Ġkeka yaa
Ġpurushhawyaagh rau
ochi tuma
Ġkaurawaa Naa
bhawi shhyati
Ġjagh nura
Ġdurdhar shh
wibhuushhi tama
Ġparamu chyate
Ġsubha ge
Ġghana nti
kashhatra dharma
be ra
Ġwastra sa
ĠanujJNaa pya
arju nasa
Ġwibu dhaa
muhuur tama
Ġjaanaa mi
Ġjaamadag nya
Ġtirya gy
Ġsani gdha
chak re
ĠjaJNe ya
Ġnaaraacha ira
ihada shwa
Ġpishaa chaa
Ġmaahaat mya
Ġjan tura
Ġchikiir shhitama
Ġshilaash itai
phu lla
sharuu yate
Ġsusamaa hita
Ġwaiwa swata
Chaada yaama
Ġaji hma
Ġsubahuu na
Ġutsaha te
Ġoja saa
ĠyaajJNa se
Ġmaarka NDe
Ġjaahna wii
a m
a dh
a jJNaa
a praa
a sti
a yudhya
a brawiida
g nau
g naya
h raa
i je
i bhyaa
i gii
i shaana
i Di
j ira
j yata
m d
m nya
m itama
m has
o ru
o traa
o chyate
p yate
p sita
r sha
r tu
s rawa
t sya
t twaa
t twa
u pe
u bhe
u bhay
Ġ reta
aa pa
aa raa
aa ryaa
aa jaghaana
aa chakshhwa
aa shwaasa
ma ru
ma hii
ma Ni
ma rdana
ya m
ya tu
ya ura
ya the
ya smina
ya jJN
ya jJNe
ya smaata
ya maanasya
sh ye
wa yama
wa taama
wa ntya
wa kshhyaami
na m
pa thama
Ġsa raa
Ġsa waana
Ġsa putra
Ġsa rita
Ġsa nushhaa
raa jJN
raa trama
cha kshhura
da y
da ta
sha t
waa ga
waa rshhNe
shh yaana
wi shwa
wi ndaa
wi chitra
Ġta tha
Ġta kshha
Ġta sy
Ġpa pra
Ġpa wana
Ġpa tta
Ġpa thya
ti ira
ti iwa
Ġa mu
Ġa para
Ġa kampa
Ġa kalpa
Ġa khi
Ġa shubha
Ġa puujayana
maa sha
maa dana
naa rha
ja nti
ja yeta
ni naa
ni rii
ni shaa
ni darshanama
ni stri
Ġma ttama
uu ta
ga laa
Ġwi y
Ġwi shh
Ġwi bhaa
Ġwi mR
Ġwi je
Ġwi hitaa
Ġwi dhuu
Ġwi karshha
ka la
ka le
Ġwa re
Ġwa ruu
Ġwa shii
Ġpara tha
Ġpara mR
Ġpara sR
Ġpara brawii
Ġka ita
Ġka rii
Ġka liN
Ġka thyate
ri shhyaami
ri shhyasi
Ġsha pe
Ġna m
Ġna shya
Ġna naada
yu dhi
yu jya
yu ktama
yu yudhaa
it yama
it rasya
Ġaa pannaa
Ġaa sthitaa
Ġaa dit
Ġaa yaati
Ġaa dade
bhi jana
ye cha
we ya
Ġda dh
Ġda ttama
Ġda ite
Ġda yaura
daa ra
daa nena
Ġmahaa kaa
Ġmahaa rhaa
Ġbha radwaaja
kaa ri
kaa Naa
kaa maana
kaa mb
Ġni shhTa
Ġni hita
Ġni wasa
Ġni mna
Ġni raya
Ġu l
Ġu taa
jaa taa
jaa laani
jaa madag
Ġpaa sha
Ġpaa tya
Ġpaa JNcha
Ġwaa ya
Ġwaa mya
Ġwaa mana
Ġba ddh
paa dau
paa laana
hii ti
nu naa
mi re
mi nii
Ġtawa raa
Ġsu raana
Ġsu man
Ġsu raira
Ġdha ne
Ġga ras
Ġga rha
Ġga chChaami
Ġja raa
Ġja pya
Ġja gha
Ġha s
Ġha sanna
Ġha yaanaa
Ġra mate
dhaa wana
Ġchaa wa
Ġchaa nta
Ġchaa bhawata
Ġchaa ny
Ġmaa ni
Ġmaa saana
Ġmaa yayaa
kshha ra
kshha swa
pi N
pi te
ne da
Ġnaa dya
Ġnaa gendra
war tya
itaa rtha
itaa JNja
Ġkaa mb
ba lena
Ġe shhyati
Ġe weha
Ġku lama
shhu sa
Ġparaa r
Ġparaa jitaa
Ġparaa drawana
Ġparaa hiN
mu chyate
mu shhTi
Ġsarwa paarthi
shaa li
pu nasha
nd ii
nd raaya
nd raaNaa
Ġtaa r
Ġtaa sa
Ġtaa wacha
Ġtaa Dayaama
Ġsama ti
pra wiiraa
Ġhi te
gaa N
Ġsaa N
Ġsaa ttwi
Ġchi ira
nya ta
ishh Nama
ishh Naama
Ġraaja rshhira
JN jaa
rata ra
Ġbhaa waa
Ġbhaa ti
Ġbhaa nti
wii raaNaa
wii ry
tma je
Ġpari rakshha
Ġpari waw
Ġpari kle
Ġwai dar
Ġwai kartana
msa ta
msa ma
syaa wa
syaa na
syaa tha
rshha bhe
chi n
du sha
du raasa
du ndubhi
ku li
bhuu t
bhuu tama
Ġyathaa kramama
Ġsaha iwa
chCha nnaa
di nama
di naama
Ġmu ktwaa
Ġmu naya
yata sa
Ġtadaa niima
Ġki lbishha
jJNaa sa
kshhi t
kshhi pata
kshhi pana
Ġj itama
de ya
Ġparati y
Ġparati sa
Ġde hama
Ġde shaana
Ġde weshhu
ot thi
Ġyaa syati
nte shhu
ora maa
ora ruupaa
nt y
asa ta
Ġbara h
Ġwaya paa
Ġshara wa
Ġshara isha
shu kla
Ġdaa nena
kra me
Ġmaha cha
Ġmaha ti
jJNa sha
jJNa ira
li ptaa
ishhTa sha
ishhTa ira
Ġshu shh
Ġshaa tra
Ġshaa rN
Ġas mai
Ġanu kr
Ġabhi gamya
dii na
dii ni
th yama
Ġwar cha
Ġwar ti
Ġwar te
kshhya si
Ġdawi dhaa
Ġpaar the
Ġkuru bhi
Ġkuru kul
Ġbarahma N
Ġbarahma nna
Ġbarahma rshhi
she ya
Ġnara dewa
Ġupa sh
Ġwii kshha
Ġwii reNa
Ġwii raaNaa
Ġbhawa nt
oda yana
Ġkarma bhi
gata sa
pati ta
Ġwara jaa
Ġiwaa ditya
Ġiwaa kaashe
Ġdhar mi
Ġgaa ma
Ġgaa traira
sar pati
Ġche shhTa
ghaa taa
okaa rtaa
Ġsamu daa
Ġsamu dii
Ġsamu draa
bu ddhyaa
Ġsatya dharma
lii ba
gra h
ĠCha rii
Ġtari bhisa
Ġtari diwa
tara y
tara il
bala sa
ishha t
ishha parwa
Ġbharaa tu
Ġnir gh
Ġnir mitaa
Ġnir wedama
ana gare
putra sh
oma rai
Ġwid itaa
abhi i
abhi sa
Ġupaa shrita
Ġupaa shnute
tawa tprasaa
shii l
shii gh
Ġbhu ktwaa
Ġsathi tau
Ġshak raa
Ġshak yama
ĠpaJNcha ma
Ġsuu t
sawa p
sawa yama
sawa karma
ishhi Naa
Ġchai w
pari tya
ras yewa
Ġdasha rathaa
Ġdasha rath
Ġparajaa pate
nir da
Ġjana yaama
Ġpuu jitaa
Ġewaa ha
man ye
Ġdewaa sha
Ġdewaa sura
hkha tara
Ġsathaa pa
Ġsathaa tu
Ġsathaa tuma
Ġkaura waana
Ġkaura wyaa
Ġkaura wai
Ġmahe shhu
Ġraawa Nena
Ġkaama sa
Ġbuddhi mataa
oga ira
kiir Nama
Ġraagha waa
Ġnish ita
Ġnish chitaa
Ġsukha du
mga taa
karma su
Ġwaana re
Ġwiwi shu
ĠgachCha nta
ar jun
Ġshata sha
mba ndhi
Ġpariya waa
sat t
Ġii shaa
waara yaama
Ġparawi shhTaa
Ġparatya dR
Ġdhii raa
Ġweda paara
obha nta
Ġnaya waarayata
muu Dhaa
Ġdarsha naata
ms par
Ġkaar ts
Ġruupa sa
Ġgandha maada
Ġdhi ira
Ġdawija shreshhTha
Ġdaru ta
mra bdh
raya nti
Ġmaar g
Ġkesha wama
Ġshai l
Ġshai le
Ġchitra y
Ġchitra ma
ghna tu
Ġwaasu dewena
Ġbhi ita
Ġbhi kshhaa
mja jJNe
Ġdhawa ji
athaa sya
Ġawya gra
Ġawya ktama
maaNaa ni
ihya taama
Ġne ha
Ġsatrii shhu
bhiima sen
Ġdawaa bhyaa
Ġkula sya
onya sya
Ġmuur ti
yudhishhThi rasa
paaNDa waana
paaNDa waasa
Ġdiwya ira
Ġyat t
Ġyat nama
Ġshubhaa ma
puurwa ja
Ġtaawa ka
Ġanaa wR
Ġanaa thawata
ota wya
abhya drawanta
hara na
gada yaa
Ġsara maa
Ġnishaa cha
raajaa n
Ġbarawii mya
Ġduraa tmaa
Ġudaa radhii
yat nena
shrama pada
ohaa ta
rNa we
Ġsada shwa
Ġparasa nnaa
Ġpata ye
Ġpata nti
Ġwinaa shaaya
Ġihaa rha
Ġawi dhyata
Ġsawaya mbhu
warNaa sa
Ġbhar tu
Ġrat naani
Ġhara y
shab dena
Ġbalaa da
Ġkashhatra dharmeNa
Ġdawijaa taya
Ġag rya
Ġag rata
Ġbahuu ni
dharmaa tmaa
obhi ta
obhi tama
waasi naama
Ġbali na
Ġmaata rama
Ġrudhi r
ashwa medha
shuu dra
Ġpuuja yaama
rda yata
rakshha saama
Ġwaidehii ma
pitaama hama
Ġkur yaana
Ġtapaswi na
Ġchakshhu shhii
Ġrathe naa
igaa la
ĠpaND itaa
Ġaparaa jitama
Ġkuryaa ta
Ġtaapa sa
bharaa taa
bharaa tara
Ġchaabhi bh
Ġtiirtha sewii
ĠpuN yama
Ġnahu shh
Ġwat saa
shira sa
pushh paa
Ġkaarmu ka
odhi na
Ġsudaa ruNama
or dhwa
wedaa N
dhaawa taama
Ġanind itaa
Ġsawyasaachi na
Ġshala bhaa
Ġuwaa chaa
Ġkausa l
otsaa haa
Ġaala kshhya
Ġnakshha tra
Ġnipaati ta
ihii taa
Ġpaura wa
Ġrama Nii
buddha ya
Ġpashchi maa
Ġparaj wala
Ġnimit ta
Ġbiibhat s
spar sha
nishhe wi
Ġsure shwara
Ġsachi wai
Ġdhanwi na
tathe ti
damaya ntya
Ġbhaashha se
opala bhyate
Ġbhagawa nna
igapa kshhiNa
Ġgaga na
Ġaneka saahas
iNii shhwa
Ġpaya swi
Ġsaawi trii
awya kta
Dii na
pri ye
Ġsarwasainyaa naa
otsa he
Ġparadyu mna
Ġnirya yau
wisma ya
Ġmale chCha
Ġmahaabha ye
shushru ma
ĠwarawarNi ni
raashani sama
Ġbabhaa shhe
Ġduhita ra
odhamuur Chita
ij jana
paras para
Ġmahaanadii ma
Ġdag dh
chikiirshha yaa
kausa lyaa
naranaaraaya Nau
turwar Nya
Ġkaarts nyena
D hya
N Taa
T ya
a paraa
a bhyaa
a shhTau
d ga
g ryaa
g raana
h waa
h Ne
h yate
h raada
i w
i pe
i hata
i gaana
i maama
i Dhama
k ita
k re
l ma
l ka
l laa
m mi
m taana
m wada
m hitaa
m bhe
m dhyaa
m mataa
m mat
m hena
m bhuutaa
m sthitama
n dhe
n dhaana
o shaa
o reNa
o hit
o naya
o kshhita
o kshhitaa
o rmi
o pradaa
p syase
r h
r jitaa
s r
t uur
t tena
t sena
u dii
u gra
u tsa
y it
aa yu
aa rta
aa tmana
aa jagaama
aa ste
ha rii
ha ntaa
ta ka
ta raasa
ma ra
ma dhu
ra raaja
ya ntaa
ya maaNa
ya smaada
sh ishhT
sh yama
sh iir
wa tyaa
wa stra
wa dbhira
sa naa
sa li
na yaa
na te
na hu
na ishha
pa Na
pa reNa
pa riyaa
pa dau
pa paataa
haa rama
haa si
hi ma
hi ra
hi Nii
Ġsa w
Ġsa phala
Ġsa suhR
raa mya
cha nama
cha rita
cha chaara
da dha
sha l
sha ya
sha straa
waa la
waa daa
wi m
wi ma
wi jJNaa
wi sta
wi dura
wi bhiishha
wi shhTe
wi ndhya
yaa hne
Ġk hama
Ġta isa
Ġta dwi
Ġpa y
Ġpa tiina
Ġcha nda
Ġcha ushha
ti thya
Ġa saa
Ġa shhTaa
Ġa cheta
Ġa yuta
Ġa mbu
Ġa priya
Ġa dharmeNa
Ġa wamanya
Ġa dhyayana
maa laa
maa Naana
maa treNa
te n
te ndriya
ja nta
ja wala
ni waarya
Ġp it
Ġma nd
Ġma jja
Ġma karaa
Ġma ryaadaa
ga rta
ii dR
Na mya
Ġwi paa
Ġwi ratha
Ġwi dhe
Ġwi priya
Ġwi khyaata
Ġwi chetasa
Ġwi parya
Ġwi haaya
Ġwi garha
Ġwi jaanaati
Ġwi shikhaa
Ġwi shuddhaatmaa
ka nda
ka riya
Ġwa wa
Ġwa wR
Ġwa ishhNa
Ġwa warshha
Ġwa straa
Ġwa ruNaa
Ġwa ruNasya
la kshhya
Ġpara kaa
Ġpara wya
Ġpara warta
Ġpara bhuuta
Ġpara daaya
Ġpara warti
Ġpara wartante
Ġka lu
Ġka ttha
shhT hii
sya iwa
ri Nii
ri shhyati
dha nura
dha nwaana
ru wama
Ġsha rata
Ġsha shi
Ġsha kshhyaami
Ġsha ly
Ġsha wasana
tha te
Ġna rama
Ġna chi
Ġna raana
Ġna kul
Ġna ndi
Ġraa hu
ita warma
yu ddhaa
yu dhyata
it taana
it tyaa
it yeshhu
Ġaa N
Ġaa sha
Ġaa yaa
Ġya smaata
bhi nand
we shya
we de
we daana
Ġda raawa
Ġda shaana
Ġi shhTwaa
daa yaa
Ġmahaa kapi
kaa nta
kaa JNcha
bha wya
bha kshhya
bha rtaa
Ġni yate
Ġni waarya
Ġni petura
jaa mbuuna
Ġpaa pena
Ġwaa la
saa ta
saa nu
saa nt
Ġba ta
Ġba da
Ġba raah
Ġsar shhi
paa N
paa naa
nu ga
nu le
Ġte jaa
Ġtawa y
Ġtawa tt
Ġtawa yaanagha
Ġsu r
Ġsu bahu
Ġsu puN
Ġtu ly
Ġga mana
Ġga mbhiira
Ġja nt
Ġja yeta
Ġja wara
Ġja yaaya
Ġha riya
Ġha nyaa
Ġha tau
Ġha wira
Ġra jasa
Ġra hasya
Ġchaa N
Ġchaa r
Ġchaa ni
Ġchaa paraa
Ġchaa sakR
Ġmaa tari
kshha Ne
pi taana
ishhT hama
kshh yaamya
Ġnaa sh
Ġnaa sya
war tii
itaa wa
Ġkaa shi
Ġkaa rayaama
Ġe tya
Ġe taawa
Ġku ntibh
Ġparaa ga
Ġparaa jaya
Ġparaa saada
Ġparaa Naira
su rama
su raaNaa
mu ra
mu ni
mu khii
Ġsarwa paapa
shaa sha
si tuma
si ndhu
nd riyama
Ġtaa saa
bhaa r
bhaa sa
bhaa wena
Ġsama y
Ġsama dR
Ġsama graa
Ġsama rana
pra wii
Ġsaa ha
Ġsaa haa
Ġsaa maatya
Ġchi taa
Ġchi ja
Ġme gh
Ni kaa
maana u
maana ira
Ġraaja su
Ġraaja si
isha na
huu t
huu ta
Ġdu shcha
Ġdu ndu
Ġdu ndubhi
rata u
Ġbhaa w
wii ryeNa
Ġpari ra
Ġpari yaama
msa r
syaa bhi
syaa mahe
chi kiir
kta u
kta sa
ku ta
para kR
para tii
para daaya
bhuu te
Ġyathaa r
chCha na
chaa na
Ġkar Ne
raaja sa
Ġj etaa
Ġj ishhN
Ġj ishhNu
Ġsamaa wishata
ot syate
gha saa
shhya taa
ĠC he
ddh ya
Ġsawa i
Ġsawa stha
Ġsawa jana
opa padyate
Ġbaa Nama
Ġbaa Nena
oka saa
oka pitaamaha
Ġdewa wrata
asa tya
Ġjaa la
Ġjaa tasa
Ġwaya p
Ġwaya ktama
Ġshara u
baa shhpa
kar da
paraa pn
Ġtada nantarama
Ġshu cha
Ġshaa sana
Ġas R
Ġas ta
dhya da
dhya nte
Ġgu ptaa
Ġanu sa
Ġanu gachChati
Ġabhi pre
Ġabhi manyu
dii naa
ktaa ni
Nii wa
Ġputra i
Ġputra sha
Ġkuru sa
ju ni
Ġdi wyena
Ġdur buddhe
sama nwitama
ratha ira
gama ne
Ġupa jii
Ġbhawa t
Ġbhawa ntya
Ġbhawa dbhira
oda kama
Ġkarma bhira
dewa sya
gata sha
mii ha
tyaa naa
iti maana
Ġshi shu
Ġshi kshhaa
Ġshi bi
Ġsatya dhR
Ġbu dhaa
Ġbu bhu
Ġbu bhuushha
Ġratha gh
gra i
gra t
sthi re
ĠCha rai
Ġdhaa raNaa
ocha nti
Ġtapa swii
Ġbhawi tuma
darsha yana
darsha naata
ana yaa
ana nta
oke shhwa
rshhabha ma
kshhaa Naa
oNa putrasya
Ġshuu raaNaa
Ġshuu raira
Ġpuraa Naa
oma sya
Ġpurushha ira
Ġupaa wR
Ġan weshha
tawa yya
suu na
Ġbala wataa
Ta ma
Ġbhu kta
Ġbhu wana
Ġti g
Ġnaama ta
chChaa da
Ġsathi te
Ġsathi twaa
Ġsathi taana
Ġpashya na
Ġpashya taa
mjaya sha
od hii
Ġwiira ma
abha yu
Ġshak reNa
Ġshak tima
Ġdii wyaa
Ġwayaa khyaa
sti na
ida sha
Ġparii psa
Ġdhanu shhaa
Ġdhanu rdha
pashya si
Ġawa dhya
Ġpaarthi waana
pari shhwa
pari waarya
kaasha ma
jana na
Ġparajaa naama
ishhTaa sa
naada yana
nir mukta
anu maanya
ithiwii paala
ithiwii paalaa
Ġmana s
rathaa na
Ġnaraa Naa
waya ti
mpra wR
wra t
Ġse ndraa
Ġkaama m
Ġkaama kr
Ġshii laa
Ġawaa rayata
mbha we
Ġnish chi
gachCha si
Ġmaana s
ĠkarNa sha
mga ra
mga tama
jita i
iha iwa
karma Ni
Ġwaana rai
oha na
oha ti
Ġtana ya
Ġii shwarama
Ġabhya bhaashhata
taasha na
Ġparawi shyaa
Ġshatru ra
Ġteja sha
jaana nti
ĠjaJNaa tuma
mita u
che taa
obha naa
obha te
Ġnaya sta
Ġbaruu yaata
Ġhari pu
ms mR
ok ye
ok yama
Ġwaj reNa
shata kra
Ġwidu shhaa
oja sha
Ġgandha maadana
Ġniha tyaa
Ġmuni sattama
Ġapa re
Ġchatur da
Ġchatur bhi
tishhTha nti
Ġdaru padaa
Ġdaru pad
Ġanya ira
Ġsawaa ni
Ġsawaa du
oN itaa
Ġraajya sya
Ġmat t
Ġshai lama
dhii da
iddha ma
Ġbhi kshhu
Ġgi rii
kashha Nena
mukha i
Ġathaa pi
Ġathaa bruwana
maaNaa sa
Ġparaha rshha
Ġraakshhasaa sa
ĠyajJNa sya
Ġani sha
mpraa pt
otta rama
otta me
Ġkusha l
Ġkusha lii
mgraame shhwa
Ġraaj yaa
Ġraaj yena
Ġdaiwa tama
Ġdaiwa tai
Ġasi te
Ġsahaa yaa
paaNDa wa
ĠbaraahmaNa i
wiirya sya
oni shhu
Ġsabhaa madhye
Ġama rshhi
mta n
reta rama
dara wa
dara shhTu
Ġgati sa
mana s
Ġwada swa
Ġshha Ta
Ġshha Da
watii ma
Ġpau rushha
Ġwaraa N
yanta sha
naanaa widhaa
shwaa sya
parii t
parii taatmaa
Ġnishaa mya
dru padau
Ġyashaswi nama
Ġduraa dhar
Ġkiir taya
Ġnishh kR
Ġchinta yana
Ġbi saa
Ġbi bhe
wat saa
Ġtatraa dhidaiwatama
Ġpuras taada
chu sa
Ġgami shhyati
wardha te
opaa na
st riya
wal ga
ĠshikhaND i
Ġpurushhaa na
ndriyaa Ni
kampa yata
Ġwaasa w
bi bheda
Ġbhara tena
Ġdushh pra
plu tama
Ġbhe da
paaJNchaa laanaa
sharii bhagawaana
Ġshastra ma
chinta yitwaa
mukh ya
Ġcheta saa
Ġmaheshhwaasa u
Ġadhi ka
shuu ra
Ġbalii yasaa
Ġhita kaamyayaa
Ġapaa harata
kusha l
Ġgaandhaa re
Ġwiwidha i
adhi bhuuta
bhaga wa
Ġwija y
Ġdawa y
mshu maana
Ġkashhii Ne
Ġmaharshhi ra
karmaa Nama
Ġakshha rama
Ġmahaapraa jJN
Ġbhaara tii
suur yaa
wisha nti
Ġkaaryaa Ni
Ġshabda sa
Ġkirii Tina
og ya
chaari Nii
Ġshaashwa tii
Ġsiddhi ra
Ġharii Naa
Ġsaaga raa
hshaasa nasa
mkaa shaa
Ġshe shhaa
Ġyuyu tsa
Ġpanna ga
Ġamita ujasa
iJNja yaana
Ġaapa nn
Ġsugrii wasa
Ġshaastra ta
shar maa
prasaa daada
Ġsaarathi ma
Ġparawe kshhyaami
aatma n
shira saa
Ġhima wat
mgha i
Ġaahu sa
Ġsudaa ru
Ġsudaa ruNa
Ġsudaa ruNaa
Ġkii dR
Ġbhak ti
Ġpaapaa ni
ĠbaaNaa JNa
Ġanind itaama
Ġphalguna sya
Ġbaandha wai
hshwa sya
kiirti taa
Ġtaawakaa naa
ihaa Ni
Ġyathe shhTa
Ġtura gaana
ĠgachChaa ma
ĠgachChaa watara
Ġyuddhadurma daa
Ġmahaawii ry
Ġbhaja te
Ġmanushhye shhu
Ġmanushhye ndra
Ġmaheshhwaasaa na
Ġparacha kshhate
Ġbahuwidha ira
Ġgii ta
Ġudii rayana
Ġwaag mii
Ġsaatya kira
Ġsaadh wii
tathe tya
Ġdaraupade yaasha
thai w
Ġnipati te
Ġsharawarshha ira
Ġbarahmawaa dina
kashhat riya
kashhat riyaa
Ġwishwaamit r
samya ga
niwesha nama
ĠshhaD bhira
ĠshhashhT yaa
ĠwasishhT h
wishhN u
Ġbhaaradwaa j
imi y
Ġmagha waana
Ġjih waa
ĠtishhThe ti
Ġkarawaa Ni
kalma shha
Ġtast hu
Ġnataparwa Naama
Ġkashhatri yaana
Ġanti kaata
Ġwidya yaa
Ġnime shhaa
Ġhaardi kya
adhyaa tma
Ġshuchismi te
Ġsaira ndh
Ġjawana ira
Ġmaarutaa tmaja
Ġnuu nama
Ġjayadra thama
Ġjitakaa shina
Ġwaruu thi
Ġmahaarhaa Ni
a nii
a shhTaa
a mita
a tishhTha
a kr
a ntara
a smaana
a maanu
a rundhatii
d reNa
g he
h y
h ni
i jaa
i pya
i Naama
i kshhu
i ntata
j ji
k ri
k ewa
m Naa
m wiita
m sR
m sena
m bhuuta
m sura
m chara
m karama
m karshha
m shraya
n tha
n dhuunaa
o sh
o nii
o nna
o ghaa
o yada
o kshhe
o mni
o bhisha
p taama
p itai
p riyama
p sitama
r yaana
r tuma
r has
s ne
t taana
t yuu
u dya
w raata
Ġ oshha
aa gachCha
aa khyaa
aa dit
ha u
ha nte
ha rtaa
ha raNaa
ta wata
ta wada
ma d
ma dh
ma rii
ma tta
ma nasa
ra Nii
ra thena
ya mbhu
sh iwa
wa ja
wa raana
wa warshha
wa shama
sa N
sa rasa
sa par
na yana
pa i
pa sha
pa thaa
pa ira
pa ne
pa hR
pa raaja
pa nnama
haa ti
hi taana
Ġsa s
Ġsa nta
Ġsa kR
Ġsa maana
Ġsa taama
Ġsa bala
Ġsa ntu
Ġsa putraa
Ġsa yaacha
Ġsa weshhu
Ġsa khi
Ġsa dy
raa m
raa bhi
raa traa
raa Nya
cha r
da d
da we
da hya
sha naa
sha sya
sha tama
sha raana
sha raNa
sha raasa
waa g
waa taa
waa sya
waa yu
shh Naa
wi k
wi s
wi dhwa
wi mukta
Ġk ira
Ġta nuu
Ġpa Na
Ġpa de
Ġpa tana
Ġpa wanaa
Ġpa JNche
taa raa
Ġcha yuta
Ġcha reda
Ġa war
Ġa shhTa
Ġa kaara
Ġa bhawa
Ġa dhishhThi
Ġa chChi
Ġa duu
Ġa chetasa
Ġa chintya
Ġa bhyetya
maa tyaa
maa lina
naa d
naa pa
naa bhisa
naa raajake
ja hi
ja raa
ni ru
ni shhyaami
ni gdha
ni waasina
Ġma maana
Ġma mR
Ġma dhyaa
Ġma raNaa
Ġma dhuu
Ġma meti
ga sha
ga rii
ga taasa
ga chChaami
shha D
shha sya
Ġwi bhuu
Ġwi ddha
Ġwi jaanii
Ġwi was
Ġwi shuddha
Ġwi kurwaa
ka ta
ka wya
ka riyaa
ka shhura
Ġwa ha
Ġwa saa
Ġwa shaa
Ġwa ktaa
Ġwa dhyaa
Ġwa dhaaya
Ġwa kshhyati
Ġwa riiD
la taa
la kshh
la bdha
Ġpara dha
Ġpara bhaawa
Ġpara thita
Ġpara bhinna
Ġka pii
Ġka thya
shhT yaa
shhT ita
ri taana
ru da
thaa sha
Ġsha naira
Ġna mu
Ġna kta
Ġna ura
Ġna dana
Ġna raasa
Ġraa maaya
ita waa
it r
it tau
it taasha
Ġaa saa
Ġaa hR
Ġaa wasa
Ġaa yura
Ġaa rtaa
Ġaa chara
Ġaa staa
Ġaa kramya
Ġaa jagaama
Ġaa jaghaana
Ġaa gamata
Ġaa ruhya
Ġya m
Ġya ti
Ġya wak
ye te
ye yama
we shhii
Ġda hati
Ġi we
daa ne
daa ruNama
Ġmahaa straaNi
Ġmahaa wegaa
Ġmahaa chamuu
Ġbha imase
kaa da
kaa shya
kaa naama
bha ja
bha ktena
bha radwaaja
Ġni waa
Ġni shhaa
Ġni pu
Ġni shhpa
Ġni ndaa
Ġni khi
Ġni ty
Ġu luu
Ġu rasi
Ġsh iti
Ġpaa d
Ġpaa paana
Ġwaa rya
saa shwa
saa hwa
paa rshha
hii yate
tya ye
mi kaa
Ġsu darshana
Ġga taama
Ġga ndh
Ġja lpa
Ġha laa
Ġha taana
Ġha iha
Ġha stya
Ġha iDi
Ġra raaja
Ġra Nama
dhaa nama
dhaa rya
Ġchaa tha
Ġchaa shwa
Ġchaa sau
Ġmaa si
Ġmaa sama
kshha t
kshha taa
kshha ti
rma daa
kshh yaama
Ġnaa d
Ġnaa ra
shhaa sha
war ya
war tu
war jita
itaa kR
Ġkaa sha
Ġkaa lya
ba ruu
Ġe shh
Ġku mu
Ġku shi
Ġparaa drawanta
Ġparaa drawada
Ġparaa duraa
su khe
mu sa
mu ch
mu kt
Ġsarwa shaastra
Ġsarwa dhanwi
shaa laa
shaa straa
Ġtaa wana
bhaa gii
Ġsama s
uur N
pra maa
pra mukhaa
gaa yaa
gaa tra
Ġsaa m
Ġsaa rtha
Ġsaa rwa
Ġsaa dhawa
Ġsaa rathe
Ġsaa hasa
Ġsaa mpratama
nya nta
me dhi
Ġraaja sa
Ġraaja suu
Ġraaja wasati
msha ta
msha ka
msha sya
nii ti
nii yaana
rata sa
Ġbhaa wi
Ġbhaa gii
Ġbhaa shhita
msa nta
syaa da
syaa dya
syaa tma
kha ma
kha ira
chi kshhepa
kta sha
ku Tii
para wa
para na
Ġbhii me
Ġbhuu t
Ġbhuu da
Ġbhuu ti
Ġbhuu te
chaa ru
chaa raNa
di nii
di bhira
se witama
ddha yaa
yata sha
shwa re
raaja ta
ke shaa
kshhi N
Ġj ha
odha yaama
de waana
Ġparati padya
Ġparati puujya
Ġparati shrutya
Ġsamaa ruhya
ot re
ot paa
Ġsawa ka
Ġsawa kama
Ġyaa sha
Ġyaa nii
Ġla kshhya
Ġla bhe
opa ri
opa bhu
opa stha
nte na
oka tra
oka kR
dra wanti
Ġdewa rshhe
Ġdewa ruupi
Ġjaa yante
Ġjaa mbuuna
Ġwaya thi
Ġwaya thit
Ġwe laa
Ġdaa yaa
Ġdaa kshhiNaa
baa l
kar tu
yaana sya
Ġtat r
Ġtat paraa
shhThi tama
li pta
ishhTa wata
Ġshaa straa
Ġas ma
Ġas tiiti
dhya maana
Ġar thaana
Ġgu ruuna
swa t
Ġanu ttama
Ġanu shushruma
Ġabhi t
Ġabhi waa
Ġabhi ni
Ġabhi dudraawa
ipa itaama
Ġkashha mama
Ġsat twama
Ġsat riyama
ge yasya
has raaNi
nyaa ni
Ġpaar shwata
Ġkuru raaj
Ġkuru prawiira
gu Nama
gu Naira
Ġbarahma charya
Ġdi ga
Ġdi kshhu
Ġdur bala
Ġdur buddhira
shi kshhaa
Ġnara i
Ġnara si
wai ka
Ġupa ri
Ġwii raawa
bhu kta
Ġbhawa nta
pe ya
gata sya
mii Dha
wada na
pati sa
Ġwara jeta
Ġiwaa sha
Ġiwaa ntaka
shhii da
Ġgaa sha
Ġche me
Ġche kitaana
Ġman traa
okaa ya
okaa bhi
okaa naama
Ġsamu ddha
Ġsamu pe
Ġjii w
graa ma
Ġbu ddha
Ġbu ddhwaa
ntaa sha
Ġratha stha
Ġratha sattama
gra haa
ĠCha r
ĠCha nda
twa iwa
Ġtari wishhTa
Ġtari gartaa
bala ira
ishha dwa
Ġsarwaa sha
sthaa sha
Ġnir wi
oNa sha
oNa putr
oNa putreNa
isa m
abhi shhe
Ġupaa wishata
Ġru r
Ġru ru
suu kshh
shii ma
shii ti
Ġbhu j
Ġti irama
chChaa dya
puur Ne
yuu na
od bhawa
Ġpare psura
Ġwiira sha
Ġwiira ira
bhe dibhi
tapa swi
mpa daa
ishhya shR
puu jaya
Ġwayaa hR
Ġsau warNa
Ġtama sa
ĠpaJNcha su
Ġbhawe cha
shra yaa
shra me
shhTaa ni
ishhi bhisha
dhipa te
ras wata
Ġdasha grii
odhana kR
Ġjana ka
Ġpuu rushha
samaa wR
rshhi bhi
rshhi ira
Ġwish rutaa
Ġdara kshhyaami
hkha sa
waya wa
waya kta
waya dhama
Ġsathaa ne
Ġsathaa naani
Ġsathaa Nu
Ġkaura w
Ġkaura wy
oshha sya
oshha yaama
Ġraawa Nama
Ġse ndra
mha wyaaghra
sarwa kaama
itaraashhT rama
itaraashhT rasha
Ġbuddhi sa
oga kshhe
maha da
Ġawaa pta
Ġraagha we
Ġlakshhma Naa
Ġpi shitaa
pata nti
Ġmaana waana
Ġdharmaa da
Ġdharmaa tmaana
Ġwiwi shura
Ġshata gh
Ġash waa
Ġabhya r
Ġwaak yaani
Ġshatru sa
kaama sya
jaana padaa
tasyaa sa
Ġwarta maanaa
Ġwini hate
Ġweda naa
ĠjaJNaa tu
ĠjaJNaa ne
Ġwana s
Ġwana waasa
ĠpaaJNchaa ly
Ġtaya jeta
Ġtaya ktuma
hana da
obha y
Ġnaya paatayata
Ġnaya patada
ms tu
Ġpati te
Ġaash waasa
Ġwishha yaana
Ġwishha NNa
Ġwidu reNa
Ġeka ika
Ġeka bhaktena
Ġguru Naa
Ġguru shushruushha
Ġmanu ra
Ġmanu ja
Ġaasii nama
dwi gnaa
Ġdhi ka
Ġdawija i
gi raa
kraa nt
Ġrathaa naa
shru taa
Ġwidhi ma
Ġwidhi dR
Ġkari yate
kii dR
odhaa sa
Ġanya na
Ġkara meNa
mra mbhaa
Ġparya dewa
Ġari mardana
Ġsuur yaa
Ġpii taa
Ġmaar geNa
ichCha da
maar ju
Ġmaanu shh
ĠpuNya shl
ruupaa Ni
mja yaa
rthaa naa
ati widdh
mukha sya
Ġathaa yaanta
ija nta
Ġdiwa sa
Ġdiwa ukasaama
ĠChi ra
ĠdhaartaraashhT raaNaa
msh ena
Ġne tre
ityaa naa
otta re
bhiima sa
Ġdawaa ri
baraahma N
baraahma Nasya
sai ndhawa
sau madat
ihi it
Ġsumahaa bala
Ġsumahaa naada
Ġkashhu tpipaa
shaasa nama
muur ti
Ġsaaya k
ĠbaraahmaNaa naama
Ġyat taa
Ġyat kR
Ġyat nena
ihas tha
Ġshubhaa shubhama
bhiishh m
Ġparaapta waana
Ġparaapta kaala
Ġwayawa saa
Ġwayawa sit
mbh raanta
oni ra
Ġsabhaa ma
shcha rya
Ġanaa ga
abhya dhaawata
Ġshha T
Ġshha shhTi
Ġsharaa nta
Ġmahaabhaa g
hkhaa da
yanta sa
Ġnishaa ma
sarwe shhaama
raajaa ya
Ġbarawii shhi
Ġyashaswi ni
Ġduraa dharshha
yii ma
Ġbi bhar
Ġdat t
ipaa na
nwa naa
rNa maa
wikrama ma
Ġwarshha ma
Ġjaye shhThaa
Ġpuras taata
oshhi t
Ġhaa tuma
gar bh
gar bha
Ġsamut pannaa
harshha yana
Ġpurushhaa da
Ġbhara shhTa
Ġdushh karama
Ġwaayu wega
Ġasmaa su
nira taa
aga stya
Ġag nau
Ġrathi n
Ġphalgu n
Ġnama skR
senaa pati
puuja yaama
dina sha
waasaa ya
Ġwadhya maan
Ġwas traaNi
Ġbii ja
Ġwima laa
Ġtumu le
ĠgachChe na
Ġrudhi raa
Ġchakru sa
Ġgara hii
Ġpariiti sa
Ġpariiti maana
Ġwaacha ma
ihaspati ma
mghaa ta
mghaa sha
Ġsudu rma
Ġtaraa taa
Ġshubha i
wishha ya
Ġsaatyaki ma
sarwaa Nya
Ġparabha dra
Ġdawa nd
Ġsamupaa shrita
ichCh rama
paaNDawaa sha
Ġsanaata naa
Ġdharme shhu
Ġapashya na
ĠraashhT re
Ġdesha kaala
Ġaparaa na
Ġmar maaNi
Ġap sar
Ġhanuu manta
Ġhanuu mantama
Ġshatruu Naa
agni ra
agni shhT
Ġwaaji na
Ġwaaji naa
Ġsatyawaa ga
Ġsatyawaa dii
hshaasa nama
aar ja
ĠparatishhThi taa
Ġparashaa dhi
yudhya swa
Ġharshha ma
kumaa ra
ipati sa
Ġkuu Ta
ĠwaarshhNe y
Ġbharaata r
Ġgau ta
waruu pa
Ġjanaadhipa ma
igu nandana
chatur dasha
Ġsharuu yante
ishhTadyum nasa
ol kaa
ol ba
waaji naama
Ġbhaas kar
kiirti ta
Ġbhaaga sha
otka Taa
Ġparaapnu hi
Ġparaapnu wanti
Ġsap tatyaa
dawaa wa
Ġwisha nti
Ġwinda te
odya ta
odhyaa yaa
Ġchaanyaa ni
Ġaaya mya
Ġaala mbya
Ġgaraa me
ihNii shhwa
Ġmuurdh naa
jaJNaa twaa
Ġwidhaa taa
apashya da
paratyu waacha
ihNa ta
mwatsa rama
Ġshatakra t
Ġshishh y
Ġamarshha Na
Ġsaraswa tii
pataa kaa
dadaa ha
kashhi pra
kashhi prama
Ġaapnu yaata
mtya jya
shataa nya
Ġsubha draa
ĠparaaNi naa
Ġawaap syasi
Ġkama la
puru shhaa
Ġwadhaa rtha
Ġab ruwa
Ġrukma puN
Ġwikra meNa
Ġwibu dha
ĠkaaraNaa da
kuJNja raa
Ġmukhyaa ni
Ġdiipya maana
shchi tya
Ġdakshhi Ne
Ġjaanaa si
Ġupala bhya
Ġdasharatha sya
Ġshaucha ma
Ġghaati nama
Ġwishikha isa
Ġkali shya
Ġnaishha dha
Ġmaaga dha
igapa kshhi
Ġwisp haarya
Ġgaga ne
ĠtaaD it
kaarmu ka
mma tama
Ġgira u
mshapta ka
Ġdaasha rathi
Ġshushru ma
okshh yate
shhma taama
bhishhe ka
Ġmaaru t
Ġkarta wyama
dwii pa
wyuu ha
ĠparaajJNaa yata
Ġmunii naa
Ġshaarad wat
Ġwishaalaa kshhi
aasa saada
tarii Ni
Ġnaaraa chena
Ġshil pi
odwi gna
Ġwishwaruu pa
araju nama
mtu shhTa
mdi gdha
kur wata
opajii wina
Ġsaumadat ti
iJNjaya i
ĠdaND ena
paap maa
Ġabhii psa
Ġmuurdha ni
Ġadii nasa
Ġakurwa nta
kalyaa Na
Ġdas yu
ghaanaa shu
mCha nnaa
Ġatu la
Ġihe chChasi
Ġbarahmacha ryeNa
mprayachCha ti
Ġaniiki niima
otkaTa u
ishhNad waipaayana
Ġkeshawaa rjunau
Ġuchchaa wacha
Ġmaalyaa ni
Ġkub jaa
ishhNya ndhaka
ĠgaaND iwa
Ġshini pu
Ġtaraswi naama
abhii kshhNa
Ġniyate ndriya
D uur
N Naa
a sya
a kR
a shhTa
a sR
a pR
a sma
a kshhau
d ishhT
d dhii
e tena
g ura
g reNa
g reshhu
h shreshhTha
h rura
i nd
i wya
i ke
i gama
i mbha
i ndriya
i dura
j yama
k ku
k li
l ewa
l pe
m n
m dhama
m raakshha
m kal
m waarya
m sthaana
m puurNa
n thi
n nena
o tha
o ch
o kshhi
o dar
o dii
o Nii
o ki
o raaNi
o raaNaa
o trama
o waaha
o chitaa
r tasya
s mR
s twa
s weti
s Tha
t na
t sura
u p
u ch
Ġ yaama
aa wR
aa chaa
aa mantrya
ha nna
ta wyama
ta smaacha
ma N
ma ti
ma tii
ma le
ma yi
ra j
ra y
ra sh
ra ka
ya sh
ya smi
ya maanaa
ya smaana
sh rii
sh laa
wa dh
wa re
wa shaa
wa yasa
wa raNa
wa rasa
sa chi
sa tyaa
sa hit
sa haaya
sa warga
na ina
pa wi
pa yata
pa tta
pa tau
pa kshhe
pa nthaa
pa tiina
Ġsa yaa
Ġsa ru
Ġsa kaa
Ġsa ktaa
Ġsa ritaa
Ġsa witaa
Ġsa sarja
Ġsa gandharwaa
raa tr
cha re
cha tura
cha kraa
da wa
da dhaanaa
sha waa
sha kt
waa Na
waa bhyaa
waa sena
shh waasa
shh Niima
wi paa
wi dya
wi nda
wi sar
wi niita
wi parya
yaa t
yaa te
yaa shwaana
Ġta N
Ġta w
Ġta sye
Ġpa k
Ġpa cha
Ġpa ishu
Ġpa shaw
taa bhi
taa saa
Ġcha itata
Ġcha raacharama
ti mi
ti rya
Ġa cha
Ġa da
Ġa pari
Ġa sura
Ġa kr
Ġa shak
Ġa peta
Ġa wartanta
maa ru
maa ty
naa sh
naa raacha
ja sya
ja wal
ja jwaala
ni waana
ni waasa
ni hata
ni draa
ni hataa
ni swana
Ġd ishhTa
Ġd hura
Ġp hu
Ġma dii
Ġma itra
ga m
ga Nasa
shha T
shha Ta
Ġwi mi
Ġwi de
Ġwi shhTa
Ġwi smi
Ġwi manaa
Ġwi maanena
Ġwi hiina
Ġwi raadha
Ġwi jigiishha
Ġwi ghasaa
ka rii
ka shhaa
ka ba
ka rasa
Ġwa N
Ġwa d
Ġwa n
Ġwa rii
Ġwa kra
Ġwa sta
Ġwa ruN
Ġpara ira
Ġpara baa
Ġpara tapa
Ġpara shhTu
Ġpara mukha
Ġpara padya
Ġpara laya
Ġpara dhaanaa
Ġpara jJNayaa
Ġka isha
Ġka smi
Ġka thitaa
Ġka dalii
Ġka liiba
shhT ira
sya ta
sya ma
ri taasa
dha naa
ru d
ru kma
Ġsha ka
Ġsha shii
Ġsha lyama
Ġsha yane
Ġna ishhT
Ġna gaa
Ġna taparwabhi
Ġna shyati
Ġna rmadaa
ita ghna
ita warmaaNa
yu dhaana
it huu
it reNa
Ġaa ga
Ġaa yaata
Ġaa chaara
Ġaa niiya
Ġaa ste
Ġaa kaashe
Ġaa bharaNa
Ġaa bharaNaa
Ġaa datte
Ġaa khyaana
Ġya n
Ġya maa
Ġya smaada
Ġya jJNi
Ġya jJNama
ye shha
ye yura
dh ura
re y
we g
we naa
we shhaa
we Nu
Ġda nta
Ġda mena
Ġda NDaa
Ġda gdhaa
Ġi N
Ġi ndraa
daa ni
daa sii
Ġmahaa y
Ġmahaa ja
Ġmahaa tapa
Ġmahaa wrata
Ġmahaa shaN
Ġmahaa dew
Ġmahaa megha
Ġmahaa giri
Ġmahaa phalama
Ġbha ikshha
Ġm itha
Ġpu li
Ġpu lastya
kaa JNa
kaa raana
bha ra
bha ktaa
bha sti
Ġni ja
Ġni nda
Ġni nye
Ġni wat
Ġni dhima
Ġni stri
Ġu shhi
Ġu daanasya
Ġpaa wana
Ġpaa shu
Ġpaa laya
Ġpaa niiya
Ġwaa da
Ġwaa ruNa
Ġwaa shitaa
saa dhwa
Ġba ddhaa
Ġba ddhwaa
Ġsar ga
tama saa
paa tena
paa Naya
hii rshha
nu yaa
nu gaana
Ġtawa ta
Ġtawa iwa
Ġtawa yya
dhi k
dhi taa
dhi patira
Ġsu wR
Ġsu tau
Ġsu khi
Ġsu pushh
Ġsu gandhi
Ġdha naani
iwa cha
Ġtu shhTa
Ġtu shhTaa
nta rikshhe
Ġga taana
Ġja N
Ġja nama
Ġja laasha
Ġja haati
Ġha ima
Ġra ha
Ġra Naata
dhaa tu
Ġchaa ri
Ġchaa rtha
Ġchaa gni
Ġchaa pama
Ġmaa laa
Ġmaa tura
Ġmaa ndhaa
kshha nna
kshha nte
kshh y
kshh yate
ne n
ne ti
ne tra
yama u
hu liN
Ġnaa s
Ġnaa pa
Ġnaa hu
Ġnaa si
war jitaa
itaa naa
itaa straa
ND i
Ġkaa ye
Ġkaa maata
laa bhi
laa bhaa
Ġe bhira
Ġe taama
Ġe kara
Ġe weti
Ġku l
Ġku laa
Ġyu ktena
Ġyu ddhena
Ġparaa sa
Ġparaa ti
Ġparaa jaa
Ġparaa yaada
Ġparaa tara
Ġparaa daada
Ġparaa bhawama
su r
su rai
su wrataa
mu chu
waana ra
pu rama
Ġtaa su
Ġtaa mra
Ġtaa mraa
bhaa waa
bhaa shhya
bhaa shhitaa
uur Na
pra da
pra jJNa
pra wara
pra bhaawa
pra khya
pra haraNa
pra haraNaa
gaa bhi
maana saa
ishh Nii
me ha
me ya
me dhe
me dhena
rya sha
rya shwa
Ġraaja putr
ruu Na
msha ma
msha taa
JN jaanaa
JN chita
tii naama
tii rNa
nii ke
Ġbhaa sa
Ġbhaa nu
Ġbhaa gi
Ġpari chCha
Ġpari yata
Ġpari wartate
Ġwai r
Ġwai raa
Ġwai duur
msa wa
kha r
rshha Na
du shhTaa
du shcha
ku T
ku NT
para m
para sya
para hR
para wiwesha
bhuu ri
bhuu mau
Ġyathaa smaaka
Ġbhuu tima
Ġbhuu maawa
yaama sa
Ġmu dama
Ġmu chya
Ġmu muur
Ġkar Naa
itya we
ke ka
jJNaa taa
odha u
odha ra
odha nena
de shama
Ġparati bu
Ġparati windhya
Ġsamaa hwa
ot paada
ot syanti
ot phulla
shhya tya
ĠC het
ĠpaaNDa weshhu
Ġsawa ra
Ġsawa pa
Ġsawa baahu
Ġla kshhaye
opa sh
opa mau
opa wishhTa
opa jiiwa
opa yeme
ora sa
Ġbaa dhate
oka pra
oka yaatraa
wyaa kula
Ġdewa taanaa
asa maana
Ġjaa te
Ġwaya sR
Ġwaya thita
Ġshara ugha
Ġshara wraata
Ġwe shha
Ġwe laama
Ġwe deshhu
dar sh
Ġdaa nt
Ġdaa syaami
baa la
ndha na
eta u
eta smaata
li kaa
li nii
ishhTa puurwa
Ġshaa l
Ġshaa la
Ġshaa staa
reNa iwa
Ġaasa tura
ryaa sha
Ġar bu
Ġanu shaa
Ġanu ttamaa
Ġanu shhThitaa
dii pya
dii pta
dii ryate
Ġkashha y
Ġkashha yama
Ġkashha Nena
Ġsat riyaa
sii taa
yaata la
gu pta
gu li
gu ptaa
Ġdur labha
rau shha
sama ye
sama re
sama bhya
Nya sha
ratha u
ratha sa
wai shya
wai duur
Ġupa ja
Ġupa sthite
ite ra
bhu ka
Ġbhawa ne
Ġbhawa tii
Ġbhawa ntama
oda raa
Ġkarma N
ki nii
tyaa sha
Ġbahu sh
Ġbahu laa
Ġiwaa hawe
iti sha
Ġparama prii
sar w
Ġche shhTaa
Ġman yeta
Ġman yura
okaa sa
Ġke sa
bu dhyata
je ya
Ġpuur Ne
Ġsatya bhaa
graa haa
graa hya
Ġbu dhyate
Ġbu dhyase
Ġaha ra
lii yate
Ġratha i
ĠCha N
ĠCha nna
ĠCha kra
Ġdhaa traa
ocha yata
Ġtari widha
Ġtari warga
ishha bhaa
ishha sena
Ġsarwaa JNa
Ġbhawi shhyata
yi nii
nasa sa
Ġnir mita
Ġnir jitya
ana yada
putra ma
Ġshuu nya
Ġshuu rasha
oma kaana
Ġwid wana
abhi drawata
Ġupaa ya
Ġupaa drawana
Ġru draa
Ġan nama
tawa tta
suu danama
Ġbala wata
Ġbala dar
Ġbala wada
Ġyata wrataa
Ġyata wratama
shii ghra
dharma sya
Ġpaartha sa
dhwa ni
od y
Ġpare shhitaa
Ġpare kshhamaaNaa
Ġbhaga wanta
Ġbhaga waaJNa
dhar maana
Ġshak tira
Ġparaap syanti
Ġparaap syasi
Ġdii kshhaa
Ġdii kshhita
ishhya maaNa
puu rayana
Ġwayaa dha
Ġwayaa pya
Ġpar ja
Ġmahii paal
Ġmahii kshhitaama
Ġsharii maa
Ġsharii rii
Ġsahas reNa
Ġparii tama
ĠpaJNcha dhaa
Ġsuu tama
Ġtii rthaani
Ġdhanu shhi
Ġawa hana
bhii m
ishhi Nau
dhipa ma
dhipa tera
Ġpash yaa
Ġchai ka
Ġpaarthi w
pari chCha
jana yata
jana mejaya
ishhTaa sha
Ġjana kasya
Ġewaa tha
samaa kulama
anu sa
Ġyuddha shau
man y
Ġdara wa
Ġdara wya
Ġdara shhTa
oti shhaa
Ġnaraa dhama
raama sya
myu kt
kshhe Na
Ġse naama
mha na
oga sya
daana waa
daana waana
ptaa sa
Ġshii t
Ġawaa pa
Ġlakshhma Ne
Ġkashhi ira
pata ntya
Ġmaana saa
ĠkarNa sa
kaara Nama
iha medhi
lu kaa
Ġwaana r
khyaa taa
Ġtana yaa
Ġana rtha
Ġash ma
Ġpushh paa
Ġpushh pitaa
Ġpushh paaNi
Ġii shaana
Ġabhya nujJNaa
bhau ma
dyaa N
Ġshatru hana
Ġtap yate
mni wR
Ġwini shh
Ġwini ghna
Ġweda wedaaN
Ġwana g
ish yaa
hana ta
jJNe ya
Ġati thi
Ġati itya
Ġati thii
muu laa
itta sha
Ġdarsha ne
Ġdarsha nii
Ġdarsha yana
Ġpati t
Ġwishha yaa
Ġkaar shhNi
ĠpaaNDu su
ĠpaaNDu putrasya
ara jun
Ġmanu je
dwi shha
dwi paa
kraa nte
Ġshare yasa
Ġtuur ya
Ġapa laa
daya nta
daya nti
Ġmahaabala i
Ġchatur widhama
Ġsuuta ja
yishh yaamya
odhaa sha
Ġanya cha
Ġjiiwa si
mra mbha
Ġshar mishhThaa
naya waara
Ġsawaa haa
Ġparas ka
Ġpii Da
Ġmaar ge
ichCha ti
Ġmaanu shhaana
Ġshakra sa
Ġshai b
Ġchitra kuuTa
warshha bha
dhii yate
iddha u
Ġbhi nnaa
mja ye
kashha maa
kashha triy
ati thi
gamya taa
naasha na
ija te
gandha r
Ġraakshhasa sha
gara ha
ĠdhaartaraashhT raana
Ġanta rama
Ġanta rikshha
Ġbhuumi paa
Ġani isha
Ġkaruddha u
Ġkaruddha sa
Ġne tra
baraahma Naana
sai ndha
Ġkusha lina
abhaya wartata
Ġkashhu ra
muur tira
Ġpita rama
Ġdaiwa ma
dat taa
dat swa
Ġpaawa k
Ġmuu tra
Ġmuu Dh
Ġshubhaa ni
yukta sya
puurwa kama
prama tt
Ġpad bhyaa
Ġwayawa haa
Ġwayawa saaya
mbh raantaa
buddhi naa
barahma hatyaa
Ġanaa dR
Ġanaa dhR
Ġparwa te
Ġwada si
mbu da
Ġaar dayata
parii taaN
warti shhye
Ġnishh uu
Ġbaahu bhyaa
owi nd
Ġbi bhi
Ġwajra bhR
Ġsada ne
Ġparatyu waacheda
Ġparasa waa
Ġaacha chakshhe
Ġgami shhyaam
Ġgami shhyatha
psa ras
Ġhaa stina
Ġastra ira
gar ja
ĠshikhaND inaa
Ġwak tra
Ġwak traa
siida ti
Ġwimu chya
karshha ti
Ġji hma
Ġpurushhaa dhama
kau shi
kau sheya
Ġrat hii
Ġraakshhase ndr
Ġanii keshhu
bhuushhi taana
Ġpaarthaa naa
Ġbhara taa
kira na
kira JNa
Ġuu ru
dawi tiiya
Ġparabhaa shha
Ġag ne
dharmaa da
Ġparayaa nta
Ġshuuraa Naama
Ġmuhuur tena
Ġbali ma
Ġpurushharshhabha u
gna y
Ġri p
Ġwima le
Ġtumu l
Ġnira taa
ĠkaaJNcha nama
Ġyuktaa sa
raN yama
bahu dhaa
etaa nya
mbhaa shha
ĠdarauNi ma
Ġapaa sya
yuktaa ni
Ġbhaar ye
Ġdiirgha baahu
satya ma
Ġdadaa mi
watsa la
Ġtaraa tuma
chChi shhTa
chitra sena
adhi ka
oshh Na
Ġashwa ira
Ġwipraa Naa
tatraa dbhutama
Ġwija ye
Ġparabha yaa
Ġdawa ita
Ġsamupaa drawata
Ġindra sya
Ġmaharshhi Naa
Ġkathaa ma
mcha ya
Ġkai laasa
Ġmukha i
Ġawaapnu hi
Ġlaa bhaa
Ġraja nyaa
shai neya
Ġdharmaraaja sha
Ġju gu
Ġjaana na
wishaa radaa
Ġtaras wii
Ġtaras wina
Ġap su
Ġtawara maaN
Ġdhaara yana
prabhaa na
gira saa
Ġlakshha Na
Ġshaashwa taana
Ġaashrama pada
oNaa niika
Ġpurii ma
Ġsaaga re
Ġtad wachana
ĠdaNDa kaara
Ġmahaadyu tima
Ġshe ku
Ġyuyu tsu
nishcha yaa
Ġparashaa nta
ishhe ra
Ġwishwaa mitra
obhaa na
shar maaNa
Ġuda ka
Ġsukhaa ni
Ġbaah lii
Ġyaja nte
Ġwayuu hasya
Ġetaa wada
Ġhima waana
Ġanupraa pya
Ġanupraa pt
omaharshha Ne
Ġmahiipati ma
Ġmatta waaraNa
brawii na
ĠwishhNu naa
mda dhe
Ġdaaru Ne
Ġtattwa wita
Ġshaanti ma
har tuma
dhaawa ti
ishhTadyum nama
hshaasana sya
Ġjagmu sa
Ġsaanu kr
nand ya
Ġyugaa ntaa
anya thaa
anya tra
Ġtura gaa
Ġdawaara kaa
Ġmahaawiirya u
warcha saa
asamaa bhira
Ġshataa nii
Ġbhaja swa
Ġdarakshhya se
baandha waana
ihNii ta
ihNii yaada
ochi tama
ud daala
ushha dhi
Ġtathe ti
mrabdha u
kl ishhTaa
oddha ta
Ġparasaa dena
Ġdhayaa twaa
Ġdhayaa nama
bhaashha se
chyu taa
chyu tai
laagha wama
dakshhiNa i
kam pe
Ġwah nira
Ġshayaa maa
Ġaakhyaa hi
Ġgarii waa
Ġsarwabhuuta hite
ishhTake tusha
Ġdurdhar shhaa
waipaa yan
manya te
sara swa
Ġsaka nda
Ġwasha gaa
ĠparaaNi n
Ġbhawishhya tya
Ġdarupada sya
bhraa tR
Ġsure ndra
jJNi re
sp h
Ġre mire
Ġamitra haa
Ġwaraana ne
Ġwaach y
paara ga
Ġjaga tii
Ġchaana gha
Ġdeshe shhu
mshita wrata
Ġagra t
Ġwiwa kshhitama
Ġshachii pate
Ġnirii kshhya
rthi naa
Ġanaama ya
Ġjagat pate
Ġhawya waaha
baah lii
Ġarju nama
Ġsatyawikrama ma
indriyaa Ni
Ġchatwaa r
Ġdakshhi Naama
muhuur ta
Ġwaishrawa N
kulii na
kulii naa
Ġtirya ga
Ġpaati ta
bhyanujJNaa t
Ġtiiw raa
Ġtiiw rama
mhanaa daa
Ġsapat na
gaami na
Ġsuukshhma ma
sahadewa sa
oDa sha
wiwar jitaa
Ġsharwa rii
chitraa N
Ġpatri Naa
Ġpatri bhi
Ġmau r
Ġram ye
ataya rtha
Ġwapu shhaa
Ġdamaya ntii
Ġdamaya ntyaa
Ġanwi chChana
raajJNa sa
ĠwijJNe ya
Ġmahaawega ira
jaani ishhe
Ġlawa Na
ĠsawarNa puN
Ġgarasa te
ogi naa
Ġruupe Naa
shhuu pa
Ġparab ruuhi
Ġuchcha ira
gaaNDii wa
Ġbhaawitaa tmanaama
ĠChii ghra
Ġkaurawe ndra
Ġatand rita
Ġmari yate
yugaa nte
Ġsaant waya
bhuuy ishhTha
Ġlalaa Te
Ġbhiimaparaakrama ma
Ġkaushi ka
Ġaniwarti naama
Ġwigataj wara
Ġwigataj waraa
Ġtare taa
Ġrakshhi tu
Ġsarwasai nyasya
bhiimase nama
Ġshawetawaa hana
Ġsutiikshh Nena
ĠpuNDariikaa kshha
wasi sTha
Ġmatima taa
Ġwika ttha
sukumaa rii
Ġwesh maani
Ġiwaama raa
puurw yeNa
kaNTa kama
maadrii putrau
Ġwihwa la
Ġshatra wa
Ġnarta naagaa
Ġbhai mii
Ġdhan wii
Ġsarwaraaja su
Ġwedi tuma
Ġshilii mukhai
Ġshatrutaapa na
Ġwidar bhaa
Ġyamu naa
Ġmi shra
Ġsarwadhanu shhmataama
Ġwed mi
Ġnaranaaraaya Naawa
Ġajihma gai
jira tha
Ġakalpa yata
Ġutaa h
itaaJNja lira
Ġtaar kshhya
Ġparikle sha
ishhaparwa Na
Ġdasharathaa tmaja
Ġgandhamaada nama
Ġpayaswi niima
Ġacheta nama
Ġwawa nde
Ġsaahaa yya
Ġupajii wanti
Ġdiiwyaa mya
Ġnishchi tya
Ġanaaga sama
Ġbibhar ti
Ġparabhadra kaa
shlaa g
ĠnaishhT hi
ĠaabharaNaa ni
D hyaa
a tama
a the
a smi
a nir
a wishha
a dharmeNa
a indra
a shhTaawa
b da
b dhu
b dhama
d waara
d ishhTama
g n
g mi
g nii
h stha
i D
i mau
i dbhira
i dewaa
i ndaa
i jeta
j jaa
j ura
k tu
l mii
l bi
m r
m waa
m jaa
m kshha
m traa
m yena
m bala
m kaar
m ghaana
m ghu
m kule
m nyasya
m jiiwa
m kulama
m kiirNaa
m Chaa
m jwa
o y
o shhTa
o bala
o shhThaa
o kshhyaami
o jaanaa
o shaada
r dra
r ddhi
s k
s ru
s war
s tau
s ewate
t sawa
u l
u pata
u chcha
aa sana
aa shrama
aa dityaa
ha ya
ha da
ta rya
ta isa
ta ruNaa
ma sa
ma taama
ma nda
ra bha
ra kshhi
ra dau
ra jasa
ya si
ya tre
sh y
sh winau
wa sh
wa laa
wa rata
wa dhe
wa stha
sa d
sa cha
sa ka
sa sya
sa naata
sa daiwa
na y
na nta
na kshha
na rda
pa tii
pa the
pa dasha
pa nne
haa raira
hi Ne
hi taama
hi taani
Ġsa he
Ġsa pra
Ġsa nna
Ġsa pha
Ġsa muu
Ġsa shara
Ġsa lakshhma
Ġsa dbhi
Ġsa khya
Ġsa suuta
raa t
raa bhyaa
da yu
da darshaa
sha ku
sha yaana
sha rad
sha kuni
waa pa
waa ni
waa gni
waa ditra
shh uuna
wi n
wi wR
wi pu
wi wya
wi dyu
wi ddhwaa
wi naawa
wi kraanta
wi raaT
wi shuddhaatmaa
Ġk haada
Ġta isha
Ġta weda
Ġta rka
Ġpa reNa
Ġpa chya
taa D
taa JNa
Ġcha u
Ġcha itya
Ġcha ite
Ġcha krama
Ġcha raNaa
Ġcha ndana
ti krama
Ġa nte
Ġa rthama
Ġa sukha
Ġa suraa
Ġa mbaa
Ġa bhuuda
Ġa chala
Ġa saadhu
maa cha
maa la
naa ra
naa maa
naa ka
naa rad
naa dena
te tya
ja i
ni iwa
ni gR
ni bhe
ni shamya
ni bhaana
Ġma m
Ġma sha
Ġma la
Ġma li
Ġma dre
ga l
ga wa
ga lama
ga lya
ga raama
ga teshhu
ga ndhii
ii shha
shha N
shha ka
Ġwi j
Ġwi tra
Ġwi hR
Ġwi ttama
Ġwi maanaa
Ġwi shhwa
Ġwi shra
Ġwi pari
Ġwi jitaa
Ġwi mukha
Ġwi maanama
Ġwi jitya
ka ruu
ka isha
ka li
ka shi
ka raNa
ka kshhyaa
Ġwa ita
Ġwa se
Ġwa nda
Ġwa rau
Ġwa sawa
Ġwa kshhasi
Ġpara d
Ġpara w
Ġpara la
Ġpara shu
Ġpara has
Ġpara sawa
Ġpara shama
Ġpara pannaa
Ġpara shrita
Ġpara shna
Ġpara sthit
Ġka na
Ġka kshha
Ġka smaata
Ġka nyaama
Ġs ewa
shhT ra
ri N
ri yate
dha sha
ru ddh
Ġsha mii
Ġsha raaNaa
Ġsha ritaa
Ġsha streNa
Ġsha yyaa
Naa nya
Ġna shhTaa
Ġna dy
Ġraa jii
Ġraa jJNi
Ġraa tryaa
ita syaa
ita swa
ita prati
yu shh
yu taa
it rama
Ġaa ru
Ġaa yata
Ġaa sthi
Ġaa wra
Ġaa nanda
Ġaa dita
Ġaa dhaaya
Ġaa gate
Ġaa nar
Ġaa huuya
Ġaa charana
Ġaa raadha
Ġya tha
Ġya kshh
Ġya wii
Ġya smi
Ġya tre
Ġya yura
tra sya
ye yu
ye shhaama
dh yaana
we dii
Ġda nda
Ġda dhii
Ġi chCheda
daa raa
daa cha
daa nta
Ġmahaa nta
Ġmahaa yasha
Ġmahaa raaj
Ġmahaa buddhi
Ġmahaa rathe
Ġmahaa swanama
Ġmahaa yuddhe
Ġmahaa raudra
Ġbha y
Ġbha wama
Ġbha kshhitaa
Ġbha gnaa
Ġm ish
kaa re
kaa rii
kaa mama
kaa riNama
bha N
bha w
bha rama
bha wanta
bha gada
bha weta
Ġni yukta
Ġni gada
Ġni jaghaana
ewa maa
Ġu n
Ġu ddh
Ġu waasa
jaa sa
jaa laira
Ġsh ita
Ġsh itaa
Ġsh iwama
Ġpaa pii
Ġpaa taala
Ġwaa ritaa
Ġwaa ruNaa
Ġwaa raaha
saa r
saa rtha
saa di
Ġba hi
Ġba rhiNa
Ġsar paa
paa ye
paa daa
paa trii
paa niiya
hii n
nu da
nu gama
nu gata
nu nnaa
nu shishhT
nu puurwyeNa
he ti
Ġtawa tsa
dhi t
dhi kaa
dhi gachChati
Ġsu k
Ġsu shhu
Ġsu dR
Ġsu ptaa
Ġsu chira
Ġsu satkR
Ġsu mitraa
Ġsu puujitaa
Ġdha ma
nta wyama
Ġga la
Ġga jaana
Ġga myataa
Ġja waa
Ġja hR
Ġja mbu
Ġha tasa
Ġha rada
Ġha laha
Ġra kshhita
dhaa da
dhaa ti
dhaa wada
Ġchaa dya
Ġchaa sti
Ġchaa nR
Ġchaa tmana
Ġchaa bruwana
Ġchaa siita
Ġchaa stu
Ġchaa paani
Ġchaa turwarNya
Ġmaa hi
Ġmaa nama
Ġmaa yaama
Ġmaa se
Ġmaa dR
Ġmaa dra
Ġmaa tre
Ġmaa treNa
kshha sya
rii kaa
ishhT w
ishhT haa
kshh uu
kshh Nama
ne y
ne yama
Ġnaa ya
Ġnaa na
Ġnaa rtha
Ġnaa pya
Ġnaa wama
Ġnaa mR
Ġnaa gama
war dhi
war shhata
war Naira
itaa yaa
itaa nta
itaa tmabhi
Ġkaa ntaa
Ġkaa maada
laa da
laa la
laa bhe
ba ddhaa
ba ndhaa
Ġe teshhu
Ġku nti
nama sa
shhu kra
Ġyu gama
Ġparaa bhawa
Ġparaa kr
Ġparaa dura
Ġparaa daata
Ġparaa gjy
su ma
su pta
su grii
su raasha
Ġsarwa y
Ġsarwa isha
Ġsarwa warNaanaa
shaa naa
pu re
pu shhTa
si ddhi
nd raana
Ġtaa sha
bhaa we
bhaa radwaa
bhaa waaya
Ġsama sh
Ġsama kshha
Ġsama nwita
Ġsama nwitaa
Ġsama nwitama
Ġsama rpayata
pra ch
pra dakshhiNama
Ġhi maa
gaa w
gaa cha
gaa rama
Ġsaa hya
Ġsaa kshhii
nya sha
ishh ye
ishh yaami
me ne
me yama
Ġraaja dhaanii
ruu Ni
msha da
tii rthe
nii yaa
nii yama
Ġewa ika
Ġbhaa we
Ġbhaa gama
Ġbhaa waya
shya nti
rtha sa
Ġpari m
Ġpari t
Ġpari ye
Ġpari kshhi
Ġpari paprachCha
Ġpari muchyate
NDa we
Ġwai dya
Ġwai shwa
msa sa
msa nt
syaa ha
syaa ti
syaa nta
kha dundubhi
chi ttaa
mya chCha
mya taama
mya ttaa
ku NDalama
ku ntibh
para i
para dyu
para siida
para sanna
bhuu mira
Ġbhuu yasha
Ġbhuu shhaNa
chCha ta
chaa reNa
di g
di waa
di shhu
di dR
Ġmu dit
gh n
gh nama
wya kta
Ġdharma ni
Ġdharma se
ke ta
ke naa
ke kayaa
Ġki laa
Ġj iir
odha ta
odha yana
de hi
de naa
de shaa
de wii
Ġparati bhaa
Ġparati kuu
Ġparati paada
Ġparati jJNaata
Ġde sh
Ġde he
Ġsamaa l
Ġsamaa sa
Ġsamaa daaya
Ġsamaa jagmu
Ġsamaa game
Ġsamaa shwaasya
ot syati
gha ne
Ġsawa dhaa
Ġsawa shi
Ġsawa gR
Ġyaa wa
Ġyaa mi
Ġyaa chya
Ġyaa syanti
opa ta
ora Na
ora yitwaa
Ġbaa Dhama
oka sha
oka pari
oka puujita
Ġdewa u
Ġdewa kii
Ġdewa raajasya
Ġdewa rshhayasha
asa yaa
Ġjaa taya
Ġwaya saa
Ġwaya tii
Ġwaya thitaa
Ġwaya tishhThanta
Ġwaya wardhata
Ġwaya thate
Ġshara sa
Ġshara Naa
Ġshara Nama
Ġshara jaalena
shu k
shu shraawa
Ġdaa tuma
Ġdaa yaada
Ġdaa taara
baa huu
nda ta
kar Nena
kar taara
shhe cha
Ġmaha tta
Ġtat para
eta ira
li hana
ishhTa i
ishhTa r
ishhTa u
ishhTa ruupa
Ġshaa ta
Ġas uu
Ġas pR
dhya nta
dhya kshhaa
Ġar chi
Ġar thena
Ġar thaaya
Ġar ghya
Ġgu h
Ġanu pa
Ġanu pR
Ġanu wrataa
Ġabhi shhi
Ġabhi mukhaa
Ġabhi kruddha
dii pa
Ġkashha paa
Ġkashha rama
Ġkashha Nama
Ġkashha tta
Ġkashha trama
Ġkashha mayaa
Ġkashha peta
Ġkashha ntuma
Ġsat kaara
sii ma
Ġtawaa nu
Ġhaya ira
has tama
Ġdawi paa
Ġdawi rada
Ġmama iwa
Nii ha
riya nte
Ġputra wata
Ġputra gR
Ġputra shata
Ġpaar shhNi
Ġkuru pitaamaha
Ġwacha ne
Ġbhiima wikrama
gu Naana
Ġbarahma y
Ġbarahma chaarii
Ġdi w
Ġdi lii
Ġdur balaa
shi waa
shi shha
shi re
sama rtha
smaa ra
Ġwii raasa
bhu ga
Ġbhawa tyaa
Ġbhawa twa
oda ye
oda rya
oda rau
oda dhima
Ġkarma Naama
dewa rshhi
dewa taanaa
ki rii
wada naa
hita sa
Ġbahu sha
Ġbahu bhisa
Ġiwaa r
Ġiwaa kshh
iN wata
iN wana
tena iwa
Ġparama ma
Ġparama kru
sar ga
Ġche maa
Ġche tasa
Ġbharata rshhabhaa
Ġkatha yaama
Ġkatha yishhyaami
praa Na
praa Naa
okaa ta
okaa bhisa
stra ira
stra wita
Ġsamu da
bu ddhii
Ġjii muu
Ġjii weta
Ġaha ni
lii ma
Ġratha nii
Ġratha nirgh
gra ira
ĠCha raa
ĠCha riira
ĠCha rey
Ġdhaa ma
Ġdhaa wa
ocha ye
ocha ne
Ġtapa ntama
Ġye naa
Ġtari dashe
tara sa
yi nama
Ġbaraahma ma
sthaa ni
nasa k
darsha nai
Ġnir jagaama
Ġnir muktaa
Ġnir guN
putra sha
Ġshuu re
Ġshuu nyaa
Ġshuu rau
Ġshuu rai
Ġshuu nye
Ġshuu nyama
Ġpuraa Nama
warta maane
isa hasraaNi
oma sa
oma shha
oma waahi
yathaa rha
Ġwid yaata
Ġmahaatma ni
abhi praa
Ġru chi
suu da
suu kshhma
Ġbala sya
Ġbala wattarama
shii rshha
dharma raaja
chChaa sha
bara h
ji da
puur wyaa
Ġsathi r
Ġkha r
Ġpashya t
yuu ya
od itama
od desha
Ġpare shhu
Ġpare mNaa
abha yaa
bhe dya
tapa sa
Ġdii n
Ġdii yataama
ishhya si
Ġwayaa la
Ġwayaa yachCha
Ġwayaa jahaara
Ġmahii paalaa
Ġtama sha
Ġsharii reshhu
Ġsahas re
Ġut panna
Ġparii tasa
shra yama
shra ddhaa
pashya nti
yada rtha
Ġpitaa mahaa
ishhi bhira
ishhi Naama
Ġpash yeya
Ġchai naa
ras ta
Ġdasha warshhaaNi
Ġparajaa sa
nir wR
Ġjana sya
Ġpuu rayaama
ĠpaaNDawaa sha
samaa pta
samaa kulaa
anu jaaniihi
Ġwish ishhTaa
Ġsadaa ra
oti sha
oti shha
rathaa shwa
sta mbha
maaNa u
yau wana
Ġmahe shwarama
Ġwaakya ira
mpra wakshhyaami
Ġraawa Ni
Ġraawa Ne
Ġse tu
Ġkaama sha
Ġkaama wR
sarwa l
sarwa tra
sarwa paapa
itaraashhT raaya
kiir N
Ġawaa pya
Ġraagha wasa
mbha saa
Ġjanaa rdanama
Ġpi b
Ġsukha sya
sye shhu
iha nna
pii ha
Ġwaana raaNaa
Ġwaana raira
Ġdharmaa tmana
jii witaa
jii wina
Ġyasha sha
ĠgachCha ta
ĠgachCha tya
ar chi
Ġshata y
Ġshata dhaa
Ġshata shasa
apa tya
dhaana sya
Ġii sha
Ġii shwar
Ġabhya gaata
Ġabhya dhaawata
Ġshatru suudana
Ġshatru nibarha
Ġtap twaa
mni bhaa
mni waarya
Ġdhii mate
Ġwarta se
Ġwarta maanasya
awa plutya
Ġwini warta
ĠichCha taama
ĠjaJNaa nena
ish y
che ra
che di
obha m
muu lama
Ġbaruu yaasa
Ġhari ma
Ġhari yuuthapaa
iNu shhwa
Ġwipra ira
Ġgata cheta
nwi taana
ok tama
ok tuma
Ġwishha meshhu
Ġeka ta
Ġeka sa
oja ne
oja yata
Ġkaunte yaa
ara Nya
ara Nye
Ġwiirya sa
kshhu bhe
osha sa
Ġparamaa daata
Ġjaya tsena
shru ti
Ġtasyaa sa
ĠtishhTha si
jama da
bhawa tya
msaa ra
msaa na
odhaa naama
pat y
Ġshar war
Ġbhuuta bhawya
tyu gra
naya weda
Ġsawaa mi
Ġsawaa dhyaaya
Ġsawaa yambhu
raaj yama
Ġmat prasaa
Ġraaghawa u
upa rya
upa gamya
putraa ya
putraa na
putraa Naa
Ġshai laana
dhii yataama
Ġsenaa yaa
iddha sha
Ġshab daa
ija ti
Ġraakshhasa i
Ġraakshhasa pu
Ġsamii pama
ĠChi dra
ĠdhaartaraashhT reNa
Ġbhuumi dama
pnu yaata
Ġani l
Ġkaruddha ma
balaa ha
taawa kaanaa
baraahma Ne
sai nyama
Ġmuur kha
Ġmuur Chita
muur dh
Ġpita ri
Ġdaiwa taani
kaar yeshhu
mwi gnaa
tari shhu
Ġpaawa kaa
Ġmuu lama
bhiishh meNa
Ġpad manaa
ĠshareshhTha u
jaanaa si
Ġparaapta kaalama
wiirya sa
Ġwayawa sthitaa
Ġwayawa sita
mbh ena
oni jaa
Ġsapta bhira
mb e
Ġama nyanta
Ġagni h
Ġyukta sa
mta pt
barahma l
barahma Naa
Ġparwa Ni
Ġparwa taana
ogaa naa
Ġtara yaaNaa
kaala t
parati labhya
raakshha sau
Ġmahaabhaa ge
Ġwaide hi
Ġpau lastya
hkhaa na
Ġduu taa
Ġparasha syate
Ġnishaa charaa
Ġsame taa
Ġyashaswi naa
Ġchara si
Ġnaanaa widha
Ġmamaa dya
Ġnishh ka
Ġudaa ra
Ġchinta ya
Ġwaasudewa dhana
ndh ra
padaa ti
Ġbi bh
Ġbi bhra
Ġbi bheda
Ġwarshha sahasraaNi
lakshha ye
Ġshira sa
Ġshira sha
Ġshira si
Ġsaadhu shhu
Ġpata yasa
Ġwinaa shaa
Ġwinaa kR
Ġaacha shhTa
Ġaacha rita
psa ra
Ġutta rama
Ġutta maaN
Ġwichi nta
Ġwichi nwa
Ġaatmana sha
Ġmahaabaahu ma
Ġmahaabaahu sa
Ġkeshawa sya
Ġwishe shh
Ġkalyaa Nama
Ġbhar traa
Ġwaasa sa
Ġwaasa waa
Ġnare shwara
bi nd
dawi dhaa
maani taa
Ġmit raa
Ġwaanara pu
Ġwaanara rshhabhaa
osa laa
oshhaa ta
oshhaa da
shab d
shab dama
Ġparabhaa ma
Ġparabhaa te
Ġparabhaa wena
Ġnii cha
Ġsahita sa
Ġdiir ghaa
piiD itama
ditya sa
paaJNchaa lya
pita ra
pash chaa
kalpa i
chinta yata
obhi taa
obhi taama
mat syaa
mat sena
Ġkashhatriya rshhabha
chakra mu
waasi nama
Ġsuraa sura
mukh yaana
Ġjaata weda
Ġwadhya maana
okya wi
Ġnira rtha
Ġgara haa
Ġpuuja yaa
Ġkaakut sth
kusha laa
Ġdiirgha darshii
mahe ndra
kaamaa rtha
Ġjala d
sukha du
Ġgaandhaa ra
Ġbhuja g
ĠguNaa sa
Ġchaaru sarwaaN
Ġbhuutaa tmaa
iddhi na
Ġwija h
Ġmanii shhii
Ġkashhii r
Ġkashhii Naa
Ġindra jita
Ġjita kr
dhanu shh
bhyu pa
Ġsattwa sa
Ġawaapnu te
ishaa te
Ġlaa N
sawaa dhyaaya
Ġbhal la
Ġbhal lai
Ġtapaswi niima
suur yau
Ġchakshhu r
Ġshawa shruu
Ġsugriiwa sya
pau rushha
Ġdharmaraaja ma
Ġdiwaa karama
Ġdiwaa kare
maata N
bharaa tura
Ġtawara yaa
arajuna sha
Ġach yutama
Ġwaaji n
suraa sura
mukta ira
kraama na
kraama ti
Ġnaarada sya
Ġshaashwa t
ĠkhaD gaa
Ġnishcha yaa
Ġharii na
Ġparaaya shchi
Ġje tuma
Ġshiigh raa
mkaa sh
aar juni
Ġtayaa gii
ĠkaaraNa ira
ĠkuJNja rama
ĠgaaNDii wama
Ġanwa yu
ĠChinna dhanwaana
Ġkiirti ta
yudhya nta
ĠpuN ye
iJNja yaasha
iJNja yaanaa
Ġmad wacha
tmajaa ma
atra iwa
Ġnaagaa naa
Ġyaja swa
Ġjawala nta
Ġjite ndriyaa
ĠwiraaTa sha
Ġraadhe y
Ġnaanya da
Ġanupraa pta
Ġwaraja nti
mgha sha
Dh y
disha ta
itawarmaa Nama
Ġyau wa
Ġyau dhishhThi
Ġsumaha cha
Ġkumbha y
Ġkumbha karNa
Ġkumbha karNasya
okshhya ti
har tu
Ġsharuu yataa
Ġraatri ra
kurwa nti
Ġsatha wir
Ġbaandha wama
Ġshaasa nama
nand i
Ġdharmaraaj ena
Ġpe tu
Ġniwe shya
Ġmahiita lama
omaa yu
warcha sama
Ġyudhaa man
Chi nnaa
Ġshataa nya
Ġshataa niika
Ġdarakshhya tha
itsna sya
Ġpurushhawyaagh r
Ġpurushhawyaagh raa
Ġparajaapati ma
Ġdad yaata
ĠparaaJNja laya
Ġmanushhye Na
Ġshakuni sha
oddha wya
Ġwisma y
Ġchaanya ta
Ġchaanya da
Ġkaalaa ntaka
babhuu wura
bhaashha nta
Ġjaanii te
Ġbaruwaa Naa
Ġadh waana
gaja waaji
Ġniya maa
Ġkura wasa
ruupi Na
jite ndriya
Ġshayaa m
tattwa jJNa
tattwa wita
ishhTake tu
Ġsaraswa tiima
dadaa ti
wibhuushhi taa
Ġaapnu hi
Ġaapnu wanti
Ġsaakshhaa ta
Ġle bhire
Ġdiip tima
aja yata
Ġpushhka re
Ġchari shhyaami
kaNT haa
ĠyajJNe shhu
Ġtawada nya
bahuu ni
hasta wata
Ġmanaswi nii
ĠpaT Tisha
Ġparame shwara
Ġhan mi
Ġbaal ye
Ġbaal yaata
Ġsaindhawa sya
Ġwiche shhTitama
Ġkurukshhe tre
Ġsaubala sya
ohi Nii
wishwaa mitra
naarada sya
Ġhar shheNa
ĠkaaraNaa ta
damaya ntii
Ġdurga tima
Ġnarawyaagh r
indriyaa Naa
Ġchatwaa ra
dhaartaraashhT rasya
kshhamaaNa sa
Ġsamanu praa
Ġupala bhyate
anye shhaa
waj ra
Ġpataa kaabhira
Ġparabhawa ti
Ġnabha sta
Ġmaaga dhaa
bhyanujJNaa ta
Ġsawap ne
Ġsamud dishya
Ġparaspara wadha
Ġruu p
wiraaTa drupadau
Ġaachaa ry
Ġbhayaa rditaa
Ġdhau mya
Ġyushhmaa ka
ĠbaraahmaNe bhya
ĠraawaNaa nta
ihNaa ti
ihNaa tu
atya nta
paura jaanapadaa
Ġsaya ndana
Ġchaya wate
Ġkare N
ĠaajJNaa paya
Ġdayu timaana
Ġbhaira waana
Ġnishha dhaa
mukhyaa naa
Ġsaawi tryaa
mshapta kaana
Ġparipaala ya
Ġdehi na
ĠChuu la
Ġsawakarma bhi
Ġshushru we
guu Dha
Ġadyaa pi
ĠichChe ta
Ġjagaamaa shu
Ġrasaa talama
Ġmaahaat myama
kshhatra sya
Ġkarta wyaa
Ġwayasa nama
Ġiip sita
Ġparawisha nti
Ġgire ra
ĠmaNDa la
Ġwidha waa
Ġiwaana la
Ġiwaana lama
saadha nama
Ġsathuu la
piiDa yata
ithag widhaa
Ġadhyaatma ma
ashwaa naa
Ġwasuu naa
Ġdaityaa naa
odwi gnaa
Ġjanakaatmajaa ma
Ġshilaash itaana
mtu shhTaa
mwar t
same tya
hiraNya garbh
Ġaishwar ya
Ġaishwar yama
Ġyad wR
Ġmahaama ti
Ġhetu naa
Ġuuchu sha
ajaatasha tru
maNDa la
Ġaashii wishh
Ġunma tta
Ġmudita u
kiirta yeta
mpre shhayaama
Ġwiwya the
Ġwikhyaa taa
ĠwiraaT anagare
ĠparaNe taa
Ġmumu chura
abhiwaa dyaa
daraupade yaa
Ġkarau JNcha
Ġhanya te
ihad bala
Ġwinishcha ya
wiwi shu
Ġtan nidarshanama
Ġtarya mba
Ġashe shhata
ĠwikarNa sha
Ġsharaasa nama
Ġaas swa
Ġdharmachaari Niima
widuu re
Ġnaawabu dhyate
Ġnaawabu dhyase
ĠshalakshhNa yaa
naita syeha
chatwaa ri
Ġagama da
Ġwiruupaa kshha
Ġwaisha sama
ĠgaaDha widdh
abhiman yura
Ġkawachaa ni
ab ruwa
amba rii
Ġparawada nti
Ġsurasa ttamaa
Ġsutumu la
Ġparish raanta
Ġnirdwa nd
Ġbhujaa bhyaa
Ġsumadhya me
ĠyaajJNase ni
ayudhya maana
Ġdaite ya
otthi tama
Ġbarah maaNa
Ġsatyadharma paraayaNa
Ġdhawaji nii
Ġparasannaa tmaa
nishhewi te
dadha ta
Ġkalu shha
Ġsharata lpa
Ġdashaana na
Ġmaatari shwa
Ġsarwapaapa i
Ġsharau gheNa
Ġdhanurdha ra
Ġsudaaru Ne
wishhNu naa
kri yaama
Ġmamaana gha
Ġyawak rii
kshhat riyaa
Ġsarwadhanwi naama
Ġsendra ira
ithuu da
Ġpaashu pata
dushcha kre
Ġsharawraata ira
Ġpariitama naa
ihamedhi na
Ġparaska ndya
gmi waana
mjwa reta
itaprati kR
bhagada tta
Ġnigada ta
Ġhalaha laa
Ġmaadra watii
Ġkaalaantaka yam
D e
D uu
D waaha
T ana
T Ta
a nyaa
a smaa
a tasa
a dhii
a gara
a yuta
a mitra
a shara
a sure
a sit
a chala
a wamanya
a bhyetya
a saawa
d raasa
d bhisa
e kama
e hya
g uula
h sha
h swa
h rada
h radaa
h shwaasa
h swaa
h kshhatriyaa
i la
i dha
i chC
i de
i chii
i jja
i haada
i dewataa
j ha
k y
k tira
m tra
m tata
m chi
m kshhi
m naama
m gra
m darsha
m dhe
m jana
m naada
m karaa
m dishya
m jaata
m kulaama
m kalpaa
m nyaasa
o n
o yaa
o la
o tii
o bhe
o shhTaa
o raama
o shhyaami
o shata
o bhy
o mukha
o shaana
o pita
o hena
o kshhyanti
o Tii
o mukhama
o pradaana
p y
p tena
p sar
p lawa
p itraa
r R
r haana
t syati
u cha
u daa
u ktwaa
w yate
y R
y yama
aa ya
aa cha
aa rya
aa sii
aa warta
aa nR
aa tmanaa
aa tmaanama
aa siita
aa jaghne
ha ni
ha tama
ha ntama
ta ye
ta kshha
ta rama
ma y
ma dhyaa
ma jja
ma yya
ra nta
ra kta
ya naa
ya tha
ya wii
ya ntu
ya maanasa
sh riya
sh wena
sh ritama
wa rii
wa de
wa le
wa hama
wa hata
wa naani
wa pura
wa ruNa
wa dbhisha
sa raa
sa mi
sa iwa
sa nta
sa kta
sa wama
sa iwaa
sa khya
sa nushhaa
sa nigdha
pa y
pa ha
pa naa
pa kshhi
haa mi
haa lgu
Ġsa N
Ġsa ri
Ġsa sar
Ġsa tawa
Ġsa kt
Ġsa weda
Ġsa trama
Ġsa smaara
raa N
raa maa
raa la
raa mi
raa shi
cha ndraa
cha ndanaa
da wau
sha riya
sha kya
waa d
waa haa
shh paa
wi la
wi chi
wi dar
wi dhu
wi shhyati
wi dur
wi nir
wi parii
wi jJNaaya
wi wardha
wi graha
wi jJNaana
wi shhaana
wi stii
wi muchya
wi dhyana
wi chaarayana
yaa sya
yaa tmaanama
Ġk ishh
Ġk eta
Ġk uula
Ġta we
Ġta thai
Ġta smaacha
Ġpa tya
Ġpa pu
Ġpa Ta
Ġpa kshhii
Ġpa wan
taa wata
taa dR
Ġcha r
Ġcha re
Ġcha ishha
Ġcha raNa
Ġcha itra
Ġcha chaara
Ġcha ndr
Ġcha NDaa
Ġcha chaala
Ġcha ndanaa
ti bhira
ti the
Ġa k
Ġa w
Ġa ra
Ġa yaa
Ġa jaa
Ġa gaa
Ġa bhuu
Ġa wama
Ġa dhya
Ġa praa
Ġa tasa
Ġa Ta
Ġa jita
Ġa jii
Ġa mbh
Ġa buddhi
Ġa kut
Ġa bhra
Ġa jaayata
Ġa klishhTa
Ġa puujayata
Ġa chetasama
Ġa widita
Ġa waikshhata
Ġa kurwata
maa ra
maa shha
maa nii
maa nyaa
maa Nya
maa yukta
naa y
naa raa
naa tu
naa thaa
naa dya
naa sana
naa mitra
naa yya
naa ntaraa
ja te
ja raasa
ja gma
ni n
ni y
ni me
ni yata
ni ryaa
ni kaasha
ni naada
ni ghna
ni ndaa
ni ishhe
Ġma l
Ġma rii
Ġma yuu
Ġma rta
Ġma draa
Ġma yya
ga je
ga ntu
Na we
shha shhTi
Ġwi n
Ġwi hi
Ġwi kshh
Ġwi wyaa
Ġwi hit
Ġwi naya
Ġwi maane
Ġwi warNa
Ġwi ndh
Ġwi chaarya
Ġwi waas
Ġwi treshhu
Ġwi sarja
Ġwi kraantaa
Ġwi dhuuma
Ġwi hiinaa
Ġwi shhThita
ka mpaa
Ġwa naa
Ġwa naada
Ġwa sat
Ġwa pura
Ġwa kshhyanti
la bh
la kshhaa
Ġpara h
Ġpara taa
Ġpara sya
Ġpara thi
Ġpara bhuu
Ġpara yaata
Ġpara saadya
Ġpara chara
Ġpara shaasa
Ġpara yukta
Ġpara graha
Ġpara mukhaa
Ġpara sthitaa
Ġpara hasta
Ġpara chChannaa
Ġka ch
Ġka nda
Ġka smaacha
Ġka riiD
Ġka Tu
shhT ena
sya tya
sya ishha
ri Niima
dha nya
ru g
ru ktama
thaa naa
thaa ni
Ġsha na
Ġsha tama
Ġsha kR
Ġsha reNa
Ġsha yena
Ġsha wasa
Ġsha pt
Ġna yama
Ġna lama
Ġna ptaa
Ġna dyaa
Ġna gaana
Ġna yaasa
Ġna ishhaa
Ġna yaaya
Ġraa trya
ita wrata
ita karmaa
ita yuga
ita widyaa
ita nishchaya
Ġc huu
it we
it tasa
Ġaa ryaa
Ġaa jya
Ġaa sthaa
Ġaa datta
Ġaa sthitama
Ġaa mantra
Ġaa pede
bh yama
bh ena
Ġya kshhe
bhi nnaa
bhi bhuuta
bhi hataa
ye tya
ye dama
we Naa
Ġda wai
Ġda kshhiNama
Ġda heta
Ġda yitaa
Ġda dada
Ġda NDe
Ġda waipaayana
Ġda itye
Ġi warshha
Ġi ndreNa
daa ru
daa naada
Ġmahaa k
Ġmahaa sat
Ġmahaa dhana
Ġmahaa senaa
Ġmahaa prabha
Ġmahaa maatra
Ġmahaa naaga
Ġmahaa kaaya
Ġmahaa raNye
Ġmahaa wanama
Ġbha ye
Ġbha rama
Ġbha wya
Ġbha gii
Ġbha waaJNa
Ġbha ruuNa
Ġpu tri
Ġpu treshhu
kaa k
kaa yaama
kaa maanaa
kaa raasha
bha ira
bha kshh
bha kshhaa
bha gna
bha yaawa
Ġni na
Ġni sha
Ġni iti
Ġni rasya
Ġni graha
Ġni wartate
Ġni wishhTa
Ġni laya
Ġni darshana
Ġni gachChati
Ġni yachCha
Ġni swanama
Ġni warteta
Ġu ra
Ġu nna
jaa ma
jaa ra
jaa ti
jaa laa
Ġsh ishhTa
Ġsh itaana
Ġsh itaaJNa
Ġpaa ri
Ġpaa daa
Ġpaa pi
Ġpaa tre
Ġwaa sha
Ġwaa sya
Ġwaa tha
Ġwaa dya
Ġwaa di
Ġwaa sama
Ġwaa Ta
Ġwaa raya
Ġwaa lmii
saa wi
saa ga
saa rama
saa dita
saa raNau
Ġba bhru
paa sa
paa tra
hii r
hii taa
nu sa
nu saa
nu shhya
nu jJNaaya
Ġte pe
Ġte shhwa
tya y
tya rthama
Ġtawa ya
Ġtawa cha
Ġtawa ri
Ġtawa tprasaa
Ġtawa tkR
Ġtawa darthe
dhi p
dhi ira
dhi bhira
dhi kama
dhi paana
Ġsu ru
Ġsu war
Ġsu taama
Ġsu pta
Ġsu tasya
Ġsu bala
Ġsu raaNaa
Ġsu sukha
Ġsu niita
Ġsu puujita
Ġsu bhru
Ġdha yaaya
Ġtu mbu
Ġtu lyama
Ġga laani
Ġga ntawya
Ġja l
Ġja Da
Ġja ghna
Ġja gau
Ġja gaada
Ġja pataa
Ġha re
Ġha numa
Ġha santi
Ġha ryashwa
Ġra s
Ġra tama
Ġra hitaa
Ġra kshhe
Ġra Naada
Ġra kshhituma
dhaa naama
dhaa raya
Ġchaa tma
Ġchaa nna
Ġchaa stra
Ġchaa sana
Ġchaa raNaa
Ġchaa siida
Ġchaa bhawada
Ġchaa rpayata
Ġmaa naa
Ġmaa la
Ġmaa nena
Ġg irama
kshha maaN
rii yaa
rma su
shhi tuma
ishhT h
ishhT ima
kshh Naa
nti ra
hu ta
hu na
Ġnaa daa
Ġnaa paraa
Ġnaa hama
Ġnaa tmaana
Ġnaa daya
Ġnaa nR
Ġnaa naasha
Ġnaa dena
shhaa Na
shhaa Naa
war N
war ja
war shhaa
war Nena
war jitama
itaa tmaa
itaa tmaana
itaa maha
itaa rthaa
Ġkaa k
Ġkaa li
Ġkaa yaada
Ġkaa raya
Ġkaa riNa
Ġkaa nana
Ġkaa ruN
laa wa
ba raa
ba da
ba bhra
ba raah
Ġe hi
Ġe dha
Ġe we
Ġe tama
Ġe wedama
twaa na
Ġku tasa
Ġku kku
shhu bhi
Ġyu shh
Ġyu taa
Ġyu waana
Ġyu dhye
Ġyu ktaana
Ġyu shhmaana
Ġparaa yaata
Ġparaa pata
Ġparaa chii
Ġparaa wisha
Ġparaa wishana
su k
su te
su sharmaa
Ġsarwa gaa
Ġsarwa rat
Ġsarwa guNaa
Ġsarwa karmasu
waana raa
shaa ka
shaa kha
shaa khaa
shaa rad
shaa streshhu
si naa
si ddhya
nd ita
bhaa ja
bhaa gaa
bhaa wama
bhaa wasa
bhaa radwaaja
Ġsama we
Ġsama gra
Ġsama bhawana
pra hara
pra srawa
Ġhi Di
Ġsaa di
Ġsaa kshhi
Ġsaa gni
Ġsaa mnaa
Ġchi t
Ġchi rama
Ġchi chChi
Ġchi kit
dya yau
Ġme rura
Ġme ruma
maana isha
ishh yaa
me ra
me ghaa
rya maaNa
Ġraaja weshma
ruu Dha
Ġdu ru
Ġdu shhyati
Ġdu stara
JN Cha
tii re
nii l
nii maani
Ġbhaa g
Ġbhaa waana
Ġbhaa nura
Ġbhaa numa
wii ryama
shya te
traa sha
Ġtathaa gatama
tma su
Ġpari ni
Ġpari yaana
Ġpari ghaa
Ġpari yasa
Ġpari tap
Ġpari puurNa
Ġpari saant
NDa sha
Ġwai kla
Ġwai nate
msa ira
syaa ni
kha ra
kha sya
rshha yasa
chi ira
chi tta
mya tu
ku maar
ku ruuNaa
para ha
para bhu
para dakshhiNa
para Namya
bhuu yasha
Ġyathaa wacha
Ġyathaa kaala
Ġyathaa tattwa
Ġsaha te
Ġbhuu shhi
Ġbhuu tasa
chaa wa
di gdha
Ġmu d
shwa me
gh wa
gh raa
gh yama
raaja suuyaa
Ġtadaa ny
itya nti
Ġdharma jJN
Ġdharma lakshhaNama
tat twama
ke ya
ke tura
ke shii
pya maanaa
Ġki N
jJNaa ti
jJNaa nama
kshhi tau
Ġj it
de yaa
de we
de shya
Ġparati samaa
Ġde haa
Ġde yama
Ġde wena
Ġde haada
Ġsamaa n
Ġsamaa r
Ġsamaa dhi
Ġsamaa shwa
Ġsamaa gata
Ġsamaa kulama
Ġsamaa dhinaa
shhTha ma
ot saha
ot thita
gha Ta
bhira kshhita
ĠpaaNDa wii
ĠpaaNDa waasa
Ġraajaa nasa
Ġsawa naa
Ġsawa sya
Ġsawa ira
Ġsawa pi
Ġsawa kR
Ġsawa sthaa
Ġsawa ntata
Ġsawa pura
Ġsawa dharmama
Ġyaa t
Ġyaa sya
Ġyaa twaa
Ġyaa wana
Ġla taa
Ġla bdh
opa na
opa ni
opa me
opa yata
opa panna
ora sya
ora tha
ora Nama
oka u
oka paraa
oka hitaa
oka namaskR
oka bhaawana
wyaa bhaashhitaa
Ġdewa raaj
asa da
wana kaana
Ġjaa ne
Ġjaa niishhe
Ġwaya sarja
Ġwaya jaayata
Ġwaya sane
Ġshara shata
Ġshara wraa
Ġwe dya
Ġwe dii
Ġwe gita
shu na
dar paa
Ġdaa ntaa
baa dha
baa Naa
kar maaN
kar tawya
kar miNa
kra tu
kra mi
Ġmaha te
Ġmaha tyaa
Ġmaha rshhii
Ġmaha uja
Ġmaha ujasa
paraa dur
paraa kr
paraa hiN
Ġtat hya
Ġdar shi
Ġsarwe shhwa
Ġshu ddhaa
Ġshu chii
Ġshaa laa
Ġshaa stre
Ġshaa myati
Ġas itaa
dhya taa
dhya kshh
Ġar th
swa je
the shhu
Ġanu warta
Ġanu ruupaa
Ġanu ttamaana
Ġabhi man
Ġabhi gachCha
Ġabhi shhTu
Ġabhi hat
jya taa
jya nte
ipa shreshhTha
Ġkashha ta
Ġkashha ye
Ġkashha Ne
Ġwar N
Ġwar Naana
Ġsat su
ge y
Ġtawaa dya
Ġtawaa dR
jaya nti
jaya dratha
yaata sa
has tha
Ġdawi ra
Ġdawi guNa
Ġmama ishha
Nii na
wiita le
Ġputra u
Ġputra kaa
nyaa sha
Ġkuru paaNDawaa
Ġwacha naata
Ġbhiima wikramaa
gu hya
Ġbarahma bhuu
Ġbarahma Nyaa
Ġbarahma rshhe
Ġbarahma widaa
Ġdi dha
Ġdi ne
Ġdur bhi
Ġdur darsha
Ġdur jayaa
Ġdur labhama
shi naa
Ġraama syaa
she te
she shhu
she shheNa
sama we
sama nta
Ġnara sa
Ġnara sya
wai sa
wai dar
Ġupa bhu
Ġupa padyate
Ġbhawa ntiiha
oda yama
pe tusa
dewa daanawa
mii tya
tyaa ni
hita ira
Ġbahu ruupa
Ġbahu rat
Ġbahu widhaana
pati wrataa
Ġwara d
Ġwara Na
Ġwara daanena
Ġiwaa shu
Ġiwaa gni
Ġiwaa dhwa
Ġiwaa dit
Ġiwaa gnaya
iti naa
iN wataa
Ġparama thya
Ġgaa la
Ġgaa tra
Ġgaa yanti
Ġgaa treshhu
Ġgaa rhas
sar wartu
Ġche ra
Ġche cha
Ġche ndra
ghaa n
Ġbharata sya
Ġbharata shreshhTh
Ġkatha yaswa
Ġke shhaa
Ġke shi
Ġsamu chCh
Ġshi wena
bu dhe
je tu
je shhu
dhu rya
graa da
graa mama
Ġratha wara
ithi wiitale
ĠCha kya
ĠCha nnaa
ĠCha tru
twa ra
Ġdhaa rayaama
Ġdhaa ryate
ocha ra
Ġtapa sya
Ġtapa se
Ġtapa niiya
Ġtari bhu
Ġtari sap
tara nti
ishha ma
ishha bh
Ġsarwaa N
Ġsarwaa swa
Ġsarwaa stra
yi naama
Ġbharaa tari
Ġnir mukta
Ġnir bhidya
ana rha
Ġsi dhyati
Ġshuu rama
Ġshuu raasa
warta na
warta yata
oma raa
Ġwid yaama
Ġmahaatma su
Ġpurushha sa
Ġpurushha sattama
mit raana
Ġsamare shhwa
Ġupaa gatama
Ġupaa dhyaaya
Ġupaa ghraaya
Ġru shhaa
Ġru kmi
gni sama
Ġan we
Ġan yena
tawa tkR
Ġbala wana
Ġbala wanta
Ġbala suudana
Ta ka
shii na
shii the
shii ryata
Ġbhu shu
dharma sa
dharma raajasya
chChaa daya
ji n
puur Nama
Ġsathi ti
Ġkha rasya
mahaa rha
Ġpashya tya
od gaa
od wija
od bhawama
chChe ta
Ġpare shhyaa
Ġpare shhaama
Ġwiira sa
abha wa
dhar mi
dhar mya
dhar maaNaa
bhe Na
bhe de
Ġshak re
Ġshak nu
Ġparaap tu
Ġparaap syase
sena y
tathaa widhaa
Ġdii nama
Ġdii wya
puu taa
Ġwayaa sena
Ġwayaa ditaa
Ġwayaa ttaana
Ġpar Na
Ġsharii maaJNa
rasa i
Ġut paada
Ġut papaata
ida y
ida yaa
Ġparii ya
ishhNa sha
ishhNa saarathi
Ġkaru ddhe
Ġsuu taa
kru shhTa
shra m
Ġdhanu sa
Ġdhanu shha
Ġdhana da
bhii maarjuna
ishhi Nama
Ġpaarthi we
Ġpaarthi warshhabha
pari sh
pari graha
pari kshhipta
pari pluta
jana ta
jana pade
Ġdasha sahasraaNi
odhana sha
Ġparajaa patira
nir jitaa
nir mitama
Ġjana pada
Ġjana sthaana
Ġarha tha
Ġpuu jit
Ġewaa sya
Ġewaa nwa
samaa sa
samaa kula
samaa chaara
samaa yuktaa
samaa yukt
samaa kulaama
anu kuu
anu jJNaata
ithiwii sama
man traa
Ġaatma sa
Ġaatma jama
Ġdara wanti
Ġmana sha
hkha sya
hkha wyaabhaashhitaa
sta ira
waya r
waya peta
Ġsathaa syati
maaNa sha
ĠpaaND uuna
Ġmahe ndrasya
oshha sha
raama sa
mpra dR
mpra warti
mpra jaayate
Ġse ne
Ġse weta
Ġkaama yate
sarwa bhuu
sarwa bhuutaa
itaraashhT rasa
Ġbuddhi sha
oga Na
kiir Ne
kiir tira
Ġukta sya
Ġshii lasa
shreshhTha ma
sana t
Ġraagha weNa
raawa Nasya
Ġnish itaa
Da waa
gachCha dhwa
yasha saa
kara wyaa
sye ya
tri ra
mga me
katha yaama
katha yata
iha nta
karma kR
lu sha
lu bdhaa
Ġyasha saa
oha sha
Ġkaala sa
nye shhu
ĠgachCha tu
ĠgachCha ntu
Ġana wa
Ġana bhi
Ġana yada
Ġana ntara
ar cha
ar thaa
Ġshata ira
ĠbaaNa isha
ĠbaaNa isa
apa sa
mba re
Ġash iwa
Ġash nanti
Ġpushh kari
Ġpariya hite
Ġpariya darshanaa
Ġpariya kaamyayaa
Ġpariya chikiirshhayaa
sat yena
sat riiNaa
Ġii shha
Ġsawar g
dasha bhira
Ġabhya wartata
Ġabhya wartanta
Ġabhya dhaawanta
paata yaama
paata yana
Ġwaak yena
Ġshatru bhi
kaama kr
Ġteja saama
Ġasa hya
Ġparatya ya
Ġparatya puujayata
tasyaa pi
Ġdhii yate
awa sh
awa dhya
Ġwini kR
Ġwini hataa
Ġwini shchitya
sahas raaNaa
ĠjaJNaa yate
Ġwana ukasa
ĠpaaJNchaa li
ish eta
ish yeta
Ġtaya jaa
che kitaa
rd itama
obha nama
Ġnaya wartanta
Ġnaya wasata
wara ja
Ġdarsha naa
Ġdarsha nena
wanta u
Ġwipra i
ms ita
ms kaara
nwi t
Ġpati sa
Ġpati naa
Ġwidu rasa
Ġkaar y
Ġkaar yeNa
Ġkaar paN
ĠpaaNDu sR
ĠpaaNDu puurwaja
Ġhe tura
Ġguru sha
Ġkaunte yasa
Ġmanu shhy
Ġpaarthiwa sya
dwi ja
Ġniha taana
Ġdawija sattamaa
Ġphala ira
Ġphala muu
kraa ntama
Ġrathaa niika
Ġmuni ma
Ġmuni bhira
osha sha
osha maatra
Ġparamaa da
Ġjaya ti
Ġtasyaa ma
Ġtasyaa sha
Ġapa kR
ĠtishhTha nta
tishhTha na
tishhTha te
kii cha
msaa mi
odhaa N
Ġdaru maana
pate ra
Ġbhuuta ira
dhishhThi ta
oN itau
Ġrakshha na
Ġrakshha Na
Ġrakshha Ne
Ġpii waaJNa
Ġmaar da
Ġraaghawa syaa
upa pla
putraa sa
Ġwaasu ki
rat kaa
shhye shhu
Ġbhi it
ĠpuNya gandha
Ġkaarya sa
Ġdhawa ni
ikshha i
ikshha wa
ikshha nta
Ġwane shhu
ija tya
Ġawya gr
Ġraakshhasa raajasya
Ġparaha ra
chCh ra
Ġsamii pata
Ġmadhu wana
Ġmadhu suudanama
ĠyajJNa sa
Ġanta r
Ġbhuumi pa
Ġkaruddha sya
ut uu
ut tishhTha
Ġne taa
Ġne me
Ġne chCha
balaa ta
balaa da
ityaa ni
otta raa
bhiima senaa
Ġdawaa rama
Ġdawaa pare
Ġkula syaasya
ishhNaa ya
ishhNaa wa
sau mit
abhaya shhecha
Ġsumahaa tejaa
Ġkashhu bhita
Ġbhiimasena sa
muur tima
wid waana
yudhishhThi rama
Ġdaiwa taira
ĠbaraahmaNaa sa
dat t
itha k
okta wya
Ġsahaa smaabhira
Ġdiwya gandha
mwi dh
mwi dhiiyataama
paala ya
dhuu ra
tacha ryaa
Ġpad maa
Ġpad mama
ĠshareshhTha ma
Ġtaawa kaana
Ġsapta kR
mkhye ya
mb uu
Ġama ra
Ġama raira
Ġagni sa
Ġagni shhT
Ġagni shikhaa
Ġjiiwi tena
Ġjiiwi tasya
barahma N
mtapa u
ĠChaa da
ĠChaa stra
ĠChaa daya
ĠChaa myatu
iddhaa sha
Ġparwa su
abhya warshha
abhya gachChata
ogaa cha
saha dew
Ġtara yasa
ĠraajJNaa ma
parati jJNaa
okshha ma
ishhii kesh
Ġpau rNamaa
Ġtaama sa
Ġtaama saa
hkhaa r
hkhaa ta
Ġsara g
Ġduu re
Ġduu rama
Ġduu taana
Ġduu raada
shwaa ta
Ġwina sh
Ġwina dya
Ġwina shishh
Ġparasha sya
phala ira
kal pitama
Ġnaanaa janapade
prati maa
Ġduraa tmanaama
Ġduraa tmabhi
Ġwiir ye
Ġkiir tira
Ġnishh pi
Ġkuntii ma
Ġwaasudewa ma
Ġwaasudewa sha
Ġbi ndu
Ġwajra paaNira
wat su
Ġsada syaa
Ġmati maana
Ġparatyu pasthite
Ġsawarga sya
Ġparasa N
Ġparasa nn
ityu sa
Ġgar bhaa
ĠguNa waana
Ġpata taa
Ġwinaa sh
Ġwinaa she
oshhi tama
Ġyasya ite
Ġutta maama
opaa da
opaa laa
st hu
shana ira
gar bhaa
Ġwibh ra
Ġihaa dya
Ġihaa naya
Ġsamut thaaya
Ġwimu khaa
karshha na
Ġwasa tya
Ġji jJNaasa
Ġsawaya mbhuu
Ġwishe shhaa
ndriyaa Nya
Ġpariyaa rtha
waarya maaNaa
Ġwaasa saa
Ġwaasa wama
Ġrat naa
Ġrat naira
Ġdiwyaa nya
Ġdiwyaa stra
Ġraakshhase ndrama
Ġnare ndraaNaa
bhuushhi ta
Ġbhara te
Ġbhara taanaa
Ġbhara taanaama
iDha dhanwi
Ġsahitaa wa
dawi tii
maani na
Ġmit rama
Ġekaa nti
Ġasmaa ta
Ġasmaa kama
Ġdawijaa tiinaa
aga rata
aga nau
samu dya
waas tu
Ġbhe shha
Ġbhe jire
Ġshaku ne
Ġkurwa nna
dewaa ya
dewaa naama
shara ddhaa
sharii rama
Ġshastra i
Ġsura kshhitaa
chinta ya
chinta kaa
Ġgiri shR
Daa da
Ġgha rmaa
Ġgha raaNa
Ġkashhatriya ira
Ġkashhatriya rshhabhaa
waasi nii
Ġabha wana
Ġabha wacha
Ġwishwa ma
Ġwishwa sya
Ġwishwa karmaNaa
Ġparawa raa
Ġsuraa surai
Ġyudhya maanasya
mukh yena
Ġmuhuur te
Ġmuhuur taada
wayaa gh
ishhTadyumna sya
ndaa mi
okya syaapi
Ġshakya sa
Ġbali n
Ġmaata le
Ġparada kshhiNa
Ġbaha wasa
Ġrudhi reNa
jja nta
Ġadhi itya
Ġadhi gachChati
Ġnira ha
ĠkaaJNcha naa
ĠkaaJNcha ne
Ġwedaa sa
Ġwedaa sha
shuu laa
Ġlabha nte
widhi ra
Ġsanaatwaa rcha
anaa wR
anaa di
anaa gata
yuktaa sha
Ġdiirgha ma
yaacha ta
Ġwis ra
paraakrama u
Ġgaandhaa ri
Ġbhuja u
Ġpushhpa ka
NT haa
Ġtaraa sitaa
Ġmant rii
chChi dya
mkruddha ma
adhi shhThaa
adhi gachChati
Ġsata tama
Ġsata mbha
waasu dewaa
waasu dew
Ġtai la
ĠpaaJNchaalaa sha
iddhi mata
tayaa ga
tatraa pi
gadaa ma
Ġwija ne
Ġdhara Nyaa
Ġshuura senaa
naaraaya N
naaraaya Naa
Ġdawe shhya
Ġdharu w
Ġjita kaashi
mcha yaana
Ġakshha u
Ġakshha ra
Ġakshha ya
Ġkai laa
dhanu r
dhanu rdha
bhyu paa
Ġjanma ni
Ġmukha sa
Ġlaa bha
Ġmaithi li
Ġbhal laa
Ġbhaara taa
ala pa
Ġwadha sa
Ġparatii kshhate
Ġwaasawa sya
igaa Naa
Ġkirii Ta
Ġju hu
Ġju hwa
Ġju haawa
tuu shhNii
wishaa radama
wishaa radau
Ġgaja y
Ġyuga sa
Ġyuga pata
Ġyuga pada
suraa Naama
widaa rya
Ġbhuuri shrawa
Ġbhuuri shrawaa
chaari Nama
oNaa niikama
Ġparaaya Na
Ġtad wata
Ġwila pana
ĠdaNDa ma
ĠkuJNja raaNaa
Ġparitya jeta
ĠpaaNDawe yaanaa
Ġlakshh myaa
odaa ra
oddh R
tap yata
nishcha ye
Ġkal pita
ĠparaaNa bhR
Ġanye shhaa
Ġnahu shhaa
ithu l
Ġaapa sa
Ġaapa di
Ġsugrii weNa
Ġkumaa rii
Ġdurma naa
Ġdurma nt
Ġsahadewa sya
Ġshuk laa
Ġmegha ira
shubha i
ani ruddha
Ġchamuu mukhe
Ġmaru taa
Ġgau tam
Ġjawala ntama
Ġjite ndriyama
nakula sa
wish we
maanu shha
Ġwayuu Dhaa
Ġhima wantama
Ġwaraja nta
omaharshha Na
Ġsaubha drama
odhi naama
Ġmuula phalaa
ĠwishhNu sha
nishh uu
Ġyau wana
Ġdayuu tama
suuta putra
Ġpaarthiwaa naa
ata maana
mkaasha ma
mkaasha ira
har shhaa
Ġparadii ptaa
Ġraatri ma
Ġpaapaa tmaa
Ġbaruwa t
Ġbaruwa nna
hshaasana sha
wishe shhata
Ġshalya sya
Ġsaanu shhu
Ġbaandha waana
Ġsamupa sthitama
hshwa sana
prii ti
Ġwiha ri
yuddha ma
bhar tura
Ġjane shwarama
bhuushha Nai
Ġsawyasaachi nama
Ġwigata kalmashha
Ġmukhaa na
Ġawe kshhase
Ġdawaara watii
jaata ruupa
mpannaa na
maarka NDe
ekaa dasha
odya tama
Ġapra maa
Ġwijaya sa
Ġnai ruktama
Ġdashaa rha
Ġkartaa smi
Ġparyawaara yata
Ġita retarama
yajJNa ira
jaye shhThaa
Ġwira hitaa
Ġwinir bhidya
Ġnaada yana
baandha wama
ĠpiiD itaa
sainyaa naa
Ġnakshha traa
ĠyajJNaa sha
Ġdad yaama
Ġnipaati te
Ġnipaati tama
dhaara yeta
Ġwayati krama
Ġgur wii
hatya yaa
Ġparasaa daata
Ġraame Naa
bhawi shhyanti
Ġewaabhi mukhaa
yamaana sha
dada ta
Ġwichara na
Ġwichara nti
Ġniya mena
Ġkaashya p
Ġsamara shlaag
Ġshatakra tuma
awaa pya
Ġpanthaa nama
Ġshishh yaa
Ġjagh ne
ishhTake tura
Ġdurdhar shhe
ĠpaaNDuputraa Naama
Ġkashhudra mR
Ġkashhudra kaaNaa
Ġsaayaka isa
manya nte
Ġniru tsaa
dewataa tithi
oNaputra ma
Ġpashchi ma
mtya ja
Ġpada wii
nimit taani
Ġwasha wartina
Ġdai we
Ġdai wena
Ġbandhu bhi
Ġlu bdh
Ġlu bdhaa
Ġtuu shhNii
Ġtuu shhNiima
Ġawaap yate
ĠwasishhTha sya
Ġmadhura yaa
rju nama
yayaa tira
Ġtathaiwaa nye
Ġparu shhama
Ġmarma bhedibhi
kaNT h
Ġrathena iwa
Ġsaatya kisha
Ġsachi waa
Ġamitra ghna
Ġdhanwi naa
nenaa pi
ĠpaaJNchaalya u
mshita wrataa
Ġwaaha nama
Ġjawal itaa
Ġhantaa ra
Ġabhishhe cha
Ġabhishhe ka
Ġwidyu da
kla maa
waak yena
Ġayu taani
Ġwikra me
Ġwari shhThaa
Ġyayaa tira
paaND ura
Ġhawya kawya
kuJNja ra
damaya ntyaa
Ġwarshhaa Naa
Ġwarshhaa Nya
Ġnarawyaagh raa
Ġnarawyaagh rau
raakshhasaa naa
Ġnayaa yata
Ġwaishrawa Na
ĠpaaJNchaala raajasya
dwaa rama
Ġsane h
Ġsena y
Ġnabha sha
Ġdawii pa
Ġnirma la
Ġnipati ta
Ġsuwi pu
Ġgantaa si
ĠjaJNe y
Ġsawap na
mhanaa dama
klishhTa karmaNaa
Ġbhawaa mi
Ġdhai rya
Ġramyaa Ni
Ġyushhmaa bhira
Ġsamawaa kirata
Ġsaantwa yana
Ġsaantwa puurwama
Ġparatipat syate
ihaspate ra
Ġmantri bhi
oNi tena
ukta waana
Ġwisar ga
Ġdayu ti
Ġbhaira wa
Ġmusa laira
Ġgandhar w
oNita karda
Ġshatasahas raaNi
Ġshatasahas rasha
okshh ye
samya ka
chatu rtha
teja saama
Ġaaja haara
Ġaarta swara
Ġbhayaawa hama
Ġniryaa ti
Ġnighna nta
Ġgaru D
Ġhanta wy
Ġshatrugh n
chari shhyati
maalyaa nule
ĠmaNDa laani
Ġwidha tswa
kashhii r
kashhii Na
Ġbhaaradwaa jena
paratyaa khyaa
ada bhu
mde h
mjJN itama
odhe da
Ġchandrama s
Ġwal mii
Ġwasuu ni
Ġparasthaa pya
Ġkashya pa
Ġdau hi
Ġnidha ne
Ġuchya taa
Ġkaana ne
Ġparajwal itaa
itu par
mdh yaama
wayuu ha
shakra sya
Ġtast hura
Ġchatura N
gachChe ta
Ġiwaacha la
Ġindriyaa Naa
Ġnima gna
dhiga chChaami
Ġsupar Na
bhaashhi Nii
Ġwayaagh raa
Ġawasthaa yaa
Ġparayat nata
ĠgaaNDiiwadha nwanaa
Ġghaata yitwaa
Ġyuutha pa
ajaatasha tr
ochCh rita
tad wada
palaa shaa
shatru ghna
Ġparasiida ti
Ġaah waya
Ġaashii wishha
Ġdadhi mukha
Ġbhag nasak
Ġbabhaa se
Ġabhipraa ya
mnibha i
Ġatand ritaa
mtaa p
shraa nt
Ġsahi taana
niha taana
ĠmaNDuu ka
Ġwikhyaa t
Ġwikraa nt
Ġwiwardha te
Ġshashaa N
Ġbah wii
ĠguDaa kesha
Ġaparaajita u
acha yuta
ichChaa mya
ikshhe shhu
raatri ra
dayuu ta
Ġtare taayaa
Ġchakraa te
Ġbharu w
Ġbharu kuTii
Ġtawadii yaa
Ġsamabhya yaata
Ġsamudya tama
Ġjiiwaa mi
Ġsaindha w
mbhraa nt
Ġshawetawaa ha
Ġsutiikshh Naa
dyuu ta
Ġpampaa yaa
Ġashe shheNa
Ġamit raaNaa
Ġwida dhe
Ġwiwaa he
Ġmuna y
Ġdurgaa Nya
manushhyaa Naa
paratyudya yau
awaya ya
naita cha
Ġabh yeti
lau ki
Ġparawra jit
Ġbhau ma
Ġwaay wa
baha w
sewi taama
Ġupata sthe
iNwa ntu
Ġshuudraa sha
Ġaarja wa
arathaa ya
ikshhwaa kuu
kmi Ne
aajJNaa paya
shmii na
Ġwichaa raNaa
Ġwibhaawa s
Ġwade ta
Ġparadisha sha
Ġaahwa yata
Ġmahaadwi pama
Ġbandh ura
Ġsuprii t
Ġsarwapaa pe
diwyaa nya
Ġsattwaa ni
Ġtaridasha ira
Ġwayaahara nti
Ġdarawi Na
ĠdarauNe ra
Ġmanujaa dhipa
mhas ka
windaa nu
Ġamu tra
Ġwibhaa NDa
Ġbharadwaaja sya
Ġnimna gaa
Ġdhane shwara
Ġsamati kramya
Ġpariwaw ru
Ġwaidar bhii
duraasa na
Ġshaatra waana
Ġwarti tawya
shiigh rama
Ġnishita isa
satt w
Ġiishaa nama
Ġshaile ndra
Ġshalabhaa naama
raashanisama swanama
Ġdagdh waa
sanaa twaa
ĠwaruNaa layama
Ġnachi raada
Ġaayaa ntama
Ġsarshhi gaNaa
Ġtig mate
shatakra tura
naanaawidhaa ni
Ġduraadhar shhaa
Ġwaruuthi niima
atishhTha da
dad yaada
Ġakaara yata
kashhura preNa
Ġnishhaa daa
Ġnikhi lena
saashwa suuta
ĠhaiDi mb
Ġabhiwaa dyaa
Ġkamala patraa
Duur ya
rash mira
wayasa na
Ġphu l
Ġwismi taa
kaba rhiNa
Ġwarii Daa
Ġsukhi n
Ġnaas tiiti
ishhNii naa
odhara kte
waiduur ya
Ġsatyabhaa maa
Ġparja ny
mhana n
gandhar waana
Ġparabhaashha se
ĠnaishhThi kii
mwaa dama
upata sthe
dayu matsena
Ġwishhwa k
kashi pu
Ġraajii wal
Ġwaishwa raNa
Ġshaata kumbha
Ġrathanii Daada
sarwapaapa wishuddhaatmaa
Ġpib eta
Ġsharwar yaa
Ġyauwa raajye
Ġnabhasta le
ichC hya
Ġsawantata r
Ġtarisap tatyaa
tathaawidhaa naama
hkhawyaabhaashhitaa kshharama
oNitau gha
bhiimasenaa rjunau
D ya
T asa
T ika
T hira
a d
a j
a kaa
a ch
a ba
a mu
a gaa
a JNa
a mii
a je
a kshhu
a gada
a priya
a paana
a nitya
a sita
a bhyu
a kaarya
a dharm
a kashhi
a grata
a smaaka
b ruu
d raaNi
d raaNaa
d gaNaa
d iwama
e taasha
e kii
e teshhaa
e taawa
e kena
g itaa
g nama
g hena
h la
h Ni
h yata
h yeta
h waya
h saha
h swana
i T
i pi
i Ne
i bhya
i Nama
i naama
i ge
i sii
i ddhe
i ndraa
i ndr
i dbhi
i mira
j uu
j irama
k L
k sya
k riya
k rire
l it
l yena
l ishhya
m ewa
m he
m kar
m mR
m nyaa
m hata
m mita
m shaana
m paati
m dhena
m mate
m kiirNa
m mar
m muuDha
m piiDya
n ha
n traa
n weshhii
o h
o ruu
o shhe
o nyaa
o gata
o mii
o hya
o tasa
o hata
o jita
o lu
o Dha
o dhuu
o maani
o Dhaa
o nyena
o dhyate
o pena
o miiti
o laaN
o waacheda
o chusa
p s
p na
p twaa
p tuma
p taani
p suu
r dhama
r shhaada
s rama
s taama
s swa
s tada
s tyaa
s taani
s kara
s thena
s miiti
s Thira
t pra
t yena
t teshhu
t yeshhu
u ktaa
u graa
u waasa
u dwi
w raaja
w yeshhu
Ġ iir
aa na
aa sha
aa ru
aa pR
aa kr
aa sthaaya
aa mantra
aa stii
aa siina
aa nar
ha nu
ha taana
ha taanaa
ha yaasha
ha nuu
ta taa
ta tha
ta nu
ta rata
ta nuu
ta sthau
ma tha
ma me
ma rshha
ma raNa
ra yaa
ra kshh
ra nna
ra kshhya
ra kshhita
ya ha
ya maa
ya yu
ya tura
sh itai
wa ch
wa ktaa
wa hit
wa nikaa
sa taa
sa nama
sa khaa
sa thitaa
na saa
na shhTa
na gara
na tti
pa kshh
pa nti
pa kR
pa chaa
pa tat
pa yana
pa Nya
pa daana
pa tri
pa naya
pa yati
pa traira
haa re
Ġsa j
Ġsa wata
Ġsa ratha
Ġsa ntya
Ġsa jana
Ġsa nir
Ġsa wita
Ġsa ptaa
Ġsa mita
Ġsa khe
Ġsa sai
Ġsa gar
Ġsa kaamaa
Ġsa pur
Ġsa putrasya
Ġsa rit
Ġsa tiima
Ġsa ptama
Ġsa heta
Ġsa kaashe
Ġsa gaNa
Ġsa yaataa
Ġsa shaila
Ġsa baandhawa
raa waa
raa mama
raa tre
raa trau
raa dheya
cha ta
cha ryama
cha kshhate
cha reda
cha rmaa
da tu
da ira
da nti
da kshhi
da daana
da mba
da waara
da shaana
da gdha
da NDaa
da waipaayana
sha rma
sha rau
sha raawa
sha laagha
sha yaam
waa p
waa y
waa te
waa nama
waa syaa
waa daana
waa dena
waa mitra
shh yama
shh weti
wi l
wi sa
wi haa
wi ka
wi hii
wi laa
wi shhya
wi ddhi
wi dhe
wi rathaa
wi hwa
wi karNa
wi sarja
wi babhau
wi garha
wi chari
wi jJNaanaa
yaa N
yaa ha
yaa yaa
yaa ne
yaa naama
yaa Naama
yaa wanti
yaa syati
Ġk ita
Ġta ND
Ġta smaa
Ġta rja
Ġpa thyama
taa mraa
Ġcha pa
Ġcha itaa
Ġcha rata
Ġcha ryaa
Ġcha raaNi
Ġcha itaana
ti g
Ġa daa
Ġa traa
Ġa du
Ġa ura
Ġa lama
Ġa bu
Ġa puu
Ġa wasa
Ġa tre
Ġa pii
Ġa ntata
Ġa muur
Ġa kaar
Ġa maatya
Ġa gaata
Ġa dharme
Ġa jaatasha
Ġa raajake
Ġa raNye
Ġa pramatta
Ġa psarasa
Ġa raNyaa
Ġa chintayana
Ġa janayata
Ġa pramatt
Ġa piiDayata
maa tu
maa si
maa Nama
maa tre
maa Nena
naa nta
naa rii
naa dR
naa mR
naa mita
ja sha
ja tu
ja we
ja nasa
ja nena
ja ntu
ja lpa
ja igiishhawya
ni ta
ni ya
ni sh
ni sha
ni rya
ni isha
ni patya
ni swanama
Ġd ishhTama
Ġp he
Ġp haalgu
Ġma j
Ġma it
Ġma daa
Ġma iwa
Ġma rshha
Ġma kara
Ġma khe
Ġma rdana
Ġma lla
Ġma NDalama
Ġma yaanagha
Ġma inda
uu pa
uu ru
ga Ne
ga dii
ga taasha
ga lai
ga bhasti
ii shwa
ii psita
Na pa
Na ye
shha kaa
Ġwi ddhaa
Ġwi waasa
Ġwi hara
Ġwi shaN
Ġwi waaha
Ġwi kshhepa
Ġwi bhinna
Ġwi gaahya
Ġwi ttena
Ġwi manas
Ġwi drawanti
ka shh
ka ru
ka ku
ka chCha
ka se
ka rau
ka lii
ka thita
ka patra
ka utuu
Ġwa nya
Ġwa JNcha
Ġwa kshhya
Ġwa naata
Ġwa dat
Ġwa lgu
Ġwa shyaa
Ġwa hanti
Ġwa kshhyasi
Ġwa kshhyaamya
la N
la y
la na
la kaa
la laa
la ghu
la bdhaa
la bhaana
Ġpara iti
Ġpara chChaa
Ġpara khyaa
Ġpara paata
Ġpara wesha
Ġpara pat
Ġpara yuktaa
Ġpara thitaa
Ġpara chakrame
Ġpara thit
Ġpara chichCheda
Ġpara hast
Ġpara laye
Ġpara tye
Ġpara deya
Ġpara tyuu
Ġpara mikaa
Ġka T
Ġka ti
Ġka rshha
Ġka ku
Ġka shhTa
Ġka raNa
Ġka par
Ġka mba
Ġka ika
Ġka kshhyaa
Ġka kshhama
Ġka niiyaana
shhT ishhe
sya tha
sya ira
sya taama
ri ma
ri ye
ri shhu
ri taama
ri kshhaa
dha se
dha raana
dha mama
dha rasya
dha nuu
tu raa
tu shhT
tu shhTa
tu shhTu
ru shhya
ru dra
ru shhama
Ġsha y
Ġsha waana
Ġsha mama
Ġsha tapa
Ġsha shwata
Ġsha shina
Ġsha naka
Ġsha mbhu
Ġna sh
Ġna nd
Ġna yaana
Ġna reNa
Ġna dat
Ġna itata
ita ya
ita yaa
ita ni
ita gh
ita watii
ita kal
ita wrataa
ita puurwaa
ita nishchayaa
ita hastawata
yu dh
yu taani
yu ddhena
yu JNjiita
it taasa
it wija
Ġaa waa
Ġaa yu
Ġaa dhi
Ġaa ne
Ġaa ba
Ġaa se
Ġaa kh
Ġaa hata
Ġaa waara
Ġaa gat
Ġaa kshhipya
Ġaa plutya
Ġaa wishya
Ġaa yudhama
Ġaa dhirathi
bh ruu
bh raanta
Ġya tasa
Ġya jeta
Ġya jwaa
Ġya taatmaa
bhi ira
bhi mukha
ye bhya
ye taama
re Ne
re bhya
re ndra
we wa
we dasha
we gaana
Ġda kshh
Ġda me
Ġda shhTa
Ġda dhe
Ġda hana
Ġda iwaa
Ġda dat
Ġi yama
Ġi shhii
Ġi mama
Ġmahaa r
Ġmahaa ni
Ġmahaa ka
Ġmahaa bh
Ġmahaa JNa
Ġmahaa bhu
Ġmahaa rha
Ġmahaa suraa
Ġmahaa buddhira
Ġmahaa kaayaa
Ġmahaa swanaa
Ġmahaa bhuutaani
Ġmahaa shaila
Ġmahaa druma
Ġmahaa rNawama
Ġmahaa rNawe
Ġbha s
Ġbha isa
Ġbha ktena
Ġbha kshhyaa
Ġbha drama
Ġm ita
Ġm ishha
Ġpu ND
Ġpu trii
kaa raNa
kaa rai
kaa mena
kaa ritama
bha raaja
bha yasha
bha wacha
bha witaa
bha imase
Ġni dhaa
Ġni ba
Ġni rwa
Ġni sR
Ġni rat
Ġni dhaaya
Ġni jagh
Ġni kshhipta
Ġni waasama
Ġni wawR
Ġni wartya
Ġu p
Ġu maa
Ġu bha
Ġu shhya
Ġu bhe
Ġu chChi
jaa t
jaa nu
jaa taani
jaa yante
jaa lai
jaa niita
Ġsh ishhTaa
Ġsh iirNa
Ġpaa ya
Ġpaa taa
Ġpaa dya
Ġpaa lya
Ġpaa taya
Ġpaa Nira
Ġwaa N
Ġwaa m
Ġwaa t
Ġwaa ti
Ġwaa ja
Ġwaa manaa
Ġwaa ry
Ġwaa dit
Ġwaa lina
Ġwaa saaya
saa N
saa twa
saa kshhaa
saa rdha
saa mnaa
saa garaa
saa ttwi
saa yaahne
saa raswata
Ġba bh
Ġba bhra
Ġba rhi
Ġsar pi
tama s
paa ma
paa ri
paa tii
paa yasa
paa daya
paa dena
paa rthena
paa shhaaNa
hii nama
nu kr
nu warti
nu puurwyaa
Ġte n
Ġte bhya
tya u
tya ma
mi na
mi Naa
mi shra
mi shhama
Ġtawa ga
Ġtawa ka
Ġsu dhaa
Ġsu shhe
Ġsu nR
Ġsu tasha
Ġsu prati
Ġsu sharmaaNa
Ġsu gandhii
Ġdha ri
Ġdha nena
Ġdha nwaa
Ġtu l
Ġga da
Ġga tau
Ġga taasha
Ġga dat
Ġga manaa
Ġga jasaa
Ġga Nai
Ġga ntawyama
Ġga myataama
Ġja g
Ġja yasha
Ġja wena
Ġja mada
Ġja Ti
Ġja tru
Ġja jwaala
Ġja yaatala
Ġha raNa
Ġha rita
Ġha taanaa
Ġha raya
Ġra wa
Ġra bha
Ġra waana
Ġra JNja
Ġra raasa
dhaa ta
dhaa ni
Ġchaa cha
Ġchaa yama
Ġchaa mita
Ġchaa prati
Ġchaa nwa
Ġchaa smai
Ġchaa rjuna
Ġchaa brawiida
Ġchaa grya
Ġmaa rii
Ġmaa Ni
Ġmaa taama
Ġg e
kshha y
kshha sa
kshha tu
kshha nta
pi tura
rii ya
rii wa
shhi t
ishhT wai
kshh yama
ne ka
ne ndra
rama ta
yama sya
nti ta
nti tama
nti ke
hu raa
hu taasha
Ġnaa thaa
Ġnaa smi
Ġnaa nwa
Ġnaa maani
Ġnaa ry
Ġnaa suraa
Ġnaa riiNaa
Ġnaa radama
Ġnaa dhigachChaami
war t
itaa nya
itaa rth
Ġkaa ya
Ġkaa ni
Ġkaa kaa
Ġkaa nta
Ġkaa me
Ġkaa maanaa
Ġkaa maaya
chC hu
laa bha
laa paa
ba hwa
ba lina
Ġku Ni
Ġku pit
Ġku kshhau
Ġku be
shhu sha
Ġyu k
Ġyu wa
Ġyu ktwaa
Ġyu ktyaa
Ġyu jyataama
Ġparaa g
Ġparaa y
Ġparaa wa
Ġparaa saa
Ġparaa wishata
Ġparaa paya
Ġparaa wishada
su bha
su kR
su tasa
su warNama
mu hura
mu ktena
mu dga
Ġsarwa praa
Ġsarwa tasa
shaa pa
shaa nta
shaa lina
shaa lma
si shhye
nd yaa
nd ena
nd yaata
Ġtaa t
Ġtaa raya
bhaa wi
bhaa nu
bhaa NDa
bhaa shhe
bhaa rasa
bhaa waada
bhaa ska
bhaa shhitama
bhaa gya
Ġsama sa
Ġsama ch
Ġsama yama
Ġsama kampa
Ġsama shnute
Ġsama rishhyasi
Ġsama raamya
thi naa
thi taama
pra we
pra dhaa
pra kR
pra bhu
pra khyaa
pra Nu
pra dhaanaa
pra sthe
pra shna
Ġhi raN
Ġsaa dhyaa
Ġsaa dibhi
Ġsaa yaahne
Ġsaa dinasha
Ġchi la
Ġchi ntya
Ġchi traaNi
dya taama
dya maan
nya wa
nya na
nya ira
ishh wastra
me Naa
rya sa
Ġraaja wa
Ġraaja ni
Ġraaja putreNa
Ġraaja niweshanama
isha i
isha u
msha sa
msha yaa
msha wardhana
JN j
JN je
JN jaana
tii r
tii rNaa
nii te
nii yataa
Ġewa ishha
Ġewa itada
Ġbhaa raa
Ġbhaa rama
Ġbhaa wama
wii ti
wii raana
shya shR
traa Na
Ġtathaa bhi
tma j
Ġpari pa
Ġpari shha
Ġpari dewa
Ġpari tyaa
Ġpari maaNa
Ġpari yasha
Ġpari chaara
Ġpari graha
Ġpari karshha
Ġpari hiiyate
Ġpari klishhTaa
NDa ma
NDa la
Ġwai sh
Ġwai dyaa
Ġwai raaT
Ġwai shwaana
Ġwai karta
msa sya
syaa nte
kha sha
rshha yata
chi ti
chi te
du shhkR
ku nda
ku mbhaa
ku ryaada
ku Tu
para w
para da
para taa
para dii
para kaasha
para saadya
para bhawa
para thama
para wisha
para yachCha
para dadau
Ġbhii taasa
Ġbhii ruuNaa
bhuu ra
Ġyathaa wana
Ġyathaa rha
Ġyathaa ttha
Ġbhuu ra
Ġbhuu mera
di we
di desha
di gdhaa
Ġmu ku
Ġmu JNja
Ġmu chu
Ġmu JNche
se shhu
se nena
se naada
Ġkar m
Ġkar da
Ġkar shitaa
yata na
gh nii
raaja putra
Ġtadaa siita
wya ya
wya wa
Ġdharma shii
Ġdharma sut
tat r
tat hya
tat heta
ke sa
Ġki lbi
kshhi te
kshhi pu
kshhi tasya
odha sha
odha yishhyaami
odha samanwita
de haa
de shaana
de shhNaa
Ġparati l
Ġparati yaa
Ġparati jJNaaya
Ġparati pedire
Ġde yaa
Ġsamaa ni
Ġsamaa chara
Ġsamaa drawata
Ġsamaa yuktaa
Ġsamaa yukt
Ġsamaa huuya
Ġsamaa chitama
Ġsamaa rdayata
shhTha sa
ot si
ot riya
ot tishhTha
ot panna
ot thaaya
ot traira
gha na
gha NTaa
shhya pa
ĠC heda
Ġpuna raa
ĠpaaNDa wasa
le bhe
le kshhaNaa
Ġsawa yaa
Ġsawa karmaNaa
Ġyaa nena
Ġyaa naani
Ġla jja
Ġla psyase
Ġla ghwa
opa gata
opa sthaa
opa haara
opa sarpati
naama ya
ora thama
ora darshanama
Ġbaa lama
Ġbaa lena
Ġbaa laana
oka weda
oka samanwitaa
oka paraayaNa
oka wanikaa
dra yaa
dra th
wyaa sa
wyaa la
wyaa dhi
Ġdewa ki
Ġdewa duu
Ġdewa rshhira
Ġdewa gaNaira
Ġdewa wrat
nt r
nt yaasha
asa mai
Ġjaa nu
Ġjaa twa
Ġwaya na
Ġshara da
Ġshara sha
Ġshara sahasraaNi
Ġshara dhaaraa
Ġshara sahasreNa
Ġshara shataira
Ġshara jaalaani
Ġshara ddhayaa
ndra jita
Ġwe ta
Ġwe shhTa
Ġwe gama
Ġwe lewa
kh y
Ġdaa s
Ġdaa reshhu
Ġdaa sasa
baa laa
nda wa
nda nti
kar m
kar sha
kar Ni
kar tanama
shhe dha
kra nda
Ġmaha rshhiiNaa
paraa N
paraa na
paraa saa
paraa Naana
paraa chii
paraa dhena
paraa kramaa
paraa duraa
paraa gjy
paraa saadaa
paraa dushchakre
Ġtat twaa
Ġtada rtha
jJNa sa
Ġsarwe Na
li haa
li ka
li kha
ishhTa manaa
Ġshu kraa
Ġshaa p
Ġshaa dhi
Ġshaa rduu
Ġas treNa
Ġas treshhu
Ġas tiiha
Ġas traaNya
dhya maa
dhya gachChata
Ġgu l
Ġgu hama
Ġgu pt
Ġgu hyama
dama ma
swa nena
the ti
Ġanu ru
Ġanu pashyasi
Ġanu smR
Ġabhi warshha
Ġabhi dru
Ġabhi kaaN
Ġabhi dudruwu
Ġabhi garja
dii kshhaa
Ġkashha u
Ġkashha Na
th yaa
Ġwar Neshhu
Ġpuru shheNa
ge yama
ge yasa
ge bhy
sii ha
ktaa sa
jaya ti
jaya swa
Ġhaya shir
has reNa
Ġdawi radaa
Nii y
Nii kR
Nii ndriyaa
Ġkuru wR
Ġkuru shhu
Ġkuru nanda
Ġkuru wiiraaNaa
Ġkuru pitaamahama
Ġkuru paaNDawa
Ġbhiima sutaa
gu lii
gu hyama
ju h
Ġbarahma JNa
Ġbarahma hatyayaa
Ġdi shi
Ġdi wy
Ġdi wye
ttama uja
Ġdur jayama
Ġdur dyuuta
rau draa
sama u
sama ira
sama kshha
sama prabha
sama prabhama
ddhaa ni
Ġnara ke
Ġnara raakshhasau
gama da
wai riNama
Ġupa bh
Ġupa paa
Ġupa gamya
Ġupa panna
Ġupa pla
Ġupa sewate
Ġwii kshhamaaNaa
Ġbhawa dbhi
oda na
oda re
Ġkarma bhisa
Ġkarma phala
pe kshha
pe tuu
dewa l
dewa ira
ki maa
ki ndhaa
ki lbishha
gata u
mii rita
wada nti
tyaa sa
tyaa ge
Ġbahu shru
Ġbahu ruupaa
Ġbahu muula
Ġbahu shasa
pati taa
Ġwara ti
Ġwara te
hya maana
Ġiwaa N
Ġiwaa sa
Ġiwaa para
Ġiwaa kaasha
Ġiwaa tmana
Ġiwaa bhaati
Ġiwaa rNawama
iti na
iti bhira
Ġparama tta
Ġparama dur
Ġparama dhaarmi
Ġgaa walga
praa kaara
okaa sha
okaa rta
Ġke shhu
Ġke shaa
Ġsamu tta
Ġshi khi
raashhT ra
je naa
Ġpuur weNa
Ġsatya waana
graa ta
graa hyaa
Ġbu ddhe
lii kR
lii yante
Ġratha sa
Ġratha yuuthapa
sthi ra
sthi taama
ĠCha d
ĠCha t
ĠCha ta
Ġdhaa tawa
Ġdhaa raNa
ocha ya
ocha taa
ocha nta
ocha rama
Ġye shhaama
Ġtari raatra
tara ya
tara saa
atha inama
Ġsarwaa saa
Ġbhiishh maa
yi bhi
shhwa jya
Ġbaraahma Nama
Ġbaraahma Nii
Ġbaraahma Naira
sthaa wa
sthaa sa
sthaa nama
darsha naada
darsha naana
Ġnir waa
Ġnir guNa
Ġnir bhaya
Ġnir jane
ana la
ana bhi
ana rtha
ana tari
ana taraa
oke shwara
Ġsi ddh
Ġsi JNcha
oNa syaa
Ġshuu rasya
Ġpuraa da
waasa na
waasa way
warta maana
warta yana
oma ya
oma yaa
oma ka
oma paa
oma rama
oma tii
yathaa wata
Ġwid wa
Ġwid it
Ġwid ruta
Ġwid mahe
Ġwid rutaa
Ġwid raawya
taani iwa
abhi pre
mit ta
Ġupaa na
Ġupaa sii
Ġupaa dhyaa
Ġupaa gamana
Ġupaa shritaa
gni sa
Ġan yama
Ġan wayaa
ishya taa
tawa ga
tawa iwa
suu tra
Ġbala waaJNa
Ġbala want
Ġbala watta
hata ira
shii nar
Ġbhu jama
Ġbhu JNjiita
dharma sha
dharma raaj
aha nya
Ġti shhThaa
Ġpaartha sha
krama te
ji ghra
puur we
Ġsathi raa
Ġsathi taama
mahaa ratha
mahaa bhuutaani
Ġpashya tasa
yuu ttamauja
od bha
od gata
od itai
od deshe
od bhawaa
chChe daa
tira th
Ġpare shhya
Ġpare psu
Ġpare shhyaana
Ġwiira i
dur bala
dur mukh
dur geshhu
Ġparaap yaa
mpa dyate
mpa ritya
Ġdii ptama
ntya u
puu jit
puu jite
Ġwayaa kula
Ġwayaa senaa
Ġwayaa kule
Ġsau myaa
Ġmahii kshhita
Ġsharii raa
Ġsharii riNaama
wasa nta
wasa nti
rasa yaha
Ġut patya
Ġut pann
ĠpaJNcha twama
ĠpaJNcha warshhaaNi
Ġsuu te
Ġsuu tana
Ġsuu dana
Ġsuu nR
kru shura
Ġbhawe ya
Ġdhana dhaanya
Ġawa sh
Ġawa gaa
Ġawa sthita
Ġawa ruhya
Ġpitaa mahaana
Ġpash ye
Ġpash uunaa
Ġpash yaam
Ġchai naama
Ġchai naana
Ġchai shhaama
pari gha
ras y
jana sya
ĠyudhishhThira pur
nir mi
nir dwa
nir jitya
nir bibheda
Ġjana sthaane
Ġarha sya
Ġpuu jitama
Ġpuu jyate
Ġpuu jyaa
Ġewaa tra
anu yaa
anu gR
anu wra
anu kr
rshhi Naa
Ġpaapa i
Ġpaapa y
Ġwish raa
Ġwish iir
Ġwish waasa
oti shh
Ġnaraa dhipaana
hkha i
sta rama
waya sR
Ġsathaa syanti
Ġmahe ndreNa
Ġwaakya i
oshha sa
oshha yata
mpra ta
mpra haarasa
Ġse ya
Ġse wi
Ġse wita
mha y
raaya iwa
sarwa rat
oga sa
oga tama
oga jama
kiir tya
Ġshii taa
maha cha
maha tyaa
maha tasa
shreshhTha ira
mbha w
raawa tiima
Ġnish itaaJNa
Ġjanaa sa
Ġjanaa na
Ġpi paa
kara tu
kara Ne
kara Nii
kara meNa
Ġkashhi pta
Ġkashhi tima
sye da
Ġmaana se
mga re
mga taana
iha t
iha tii
iha yanti
Ġyasha s
Ġyasha sya
oha yaama
oha naama
Ġkaala y
Ġkaala wata
ĠgachCha na
pha le
pha laani
pha lgu
ar ha
apa kR
apa shyaama
apa sawya
mba raa
mba ndha
mba ndhaka
nanda ti
Ġash w
Ġash nu
sat ye
Ġabhya waada
Ġabhya patada
Ġabhya drawada
shhThaa nama
Ġparawi shhT
wesha yata
Ġwaak ye
Ġwaak shalya
Ġshatru ma
Ġshatru bhira
mna rama
Ġtap ye
Ġputraa Naama
mni karshha
Ġasa cha
Ġasa kta
grii waa
Ġparatya nanda
Ġparatya weda
Ġparatya waarayata
Ġparatya widhyata
tasyaa ha
tasyaa shwaa
Ġdhii r
Ġwarta maan
awa dhy
Ġwini hata
Ġwini itawata
Ġweda wida
Ġweda widu
Ġdaana wama
Ġdaana shii
sahas rama
Ġaaha wash
ĠjaJNaa nama
ĠjaJNaa tiina
Ġwana waasina
Ġwana waasaaya
ĠpaaJNchaa lyama
ish cha
obha ya
obha nte
Ġati maatra
Ġati wartituma
Ġati taranti
Ġnaya sya
Ġnaya ne
Ġnaya wasana
Ġnaya gr
Ġnaya patana
muu Dh
itta ya
Ġhari Na
Ġhari Naa
Ġhari yate
Ġhari bhira
Ġhari yuutha
iNu shhwaa
Ġdarsha niiya
wanta sa
Ġwipra dudruwu
ms itaa
ms yuu
nwi taama
nwi tau
ok tena
Ġaash ritama
Ġaash lishhya
Ġwishha maa
Ġkaar shhii
Ġkaar shhN
Ġkaar yeshhu
ĠpaaNDu shhu
ĠpaaNDu sutaa
chara da
chara ntii
Ġeka wastraa
oja waa
oja yaama
oja yeta
oja naanaa
Ġhe shha
Ġhe tuma
Ġguru ma
ara thii
Ġaasii cha
dwi paana
dau hi
Ġdhi shhN
Ġniha nishhyaami
Ġdawija rshhabhaa
ika stha
Ġrathaa sa
Ġrathaa sha
Ġmuni shaarduula
tai la
Ġparamaa Nama
Ġshare shhThe
Ġjaya si
Ġjaya ishhiNa
ih yate
Ġapa tyaani
Ġchatur Naa
yishh yana
Ġwidhi ra
Ġkari shhyata
bhawa dbhira
msaa naa
pat su
pat tyaa
Ġparya yama
Ġari karshana
Ġbhuuta puurwa
Ġbhuuta bhaawana
Ġkima rthama
naya n
naya sta
rthe shhu
raaj yena
Ġraajya phalama
Ġrakshha tu
ik kiNii
Ġsanaa tasya
Ġpii naa
maar gaa
Ġkesha w
Ġkesha sha
Ġkesha wena
draa kshha
Ġmaanu shhama
putraa wa
Ġchitra i
Ġchitra ira
Ġchitra ruupa
Ġchitra kuu
Ġchitra warmaa
kula sa
warshha sahasraaNi
Ġsarwabhuu tebhy
dhii na
iddha sa
iddha ye
Ġbhi nnama
Ġparaya yu
Ġparaya yura
Ġparaya yusa
Ġkawa chii
ĠpuNya shiila
ĠpuNya karmaNaama
ruupaa na
mja yaata
mja yena
kashha ma
kashha ya
ikshha ira
Ġshab dama
naasha k
naasha nama
cheta naa
athaa pashyana
athaa pareNa
athaa brawiina
Ġawya yaa
Ġawya graa
Ġawya grama
gandha ma
Ġraakshhasa sya
Ġraakshhasa ira
chii ka
maaNaa yaa
Ġparaha sa
Ġparaha rishhyaami
Ġdiwa saa
ĠyajJNa daana
ĠdhaartaraashhT rii
Ġhata putraa
Ġhata saarathi
rathi na
Ġbhuumi pama
Ġgataa sawa
otta maata
Ġsatrii bhira
Ġsatrii puurwa
ĠlakshhmaNa sha
sau bha
sau bhadra
abhaya wartanta
ijya nte
onya wadha
yishhya si
Ġraaj yaada
Ġyama y
Ġyama daND
Ġmuur tima
Ġsumahaa JNa
Ġkashhu draa
Ġbhiimasena dhana
wid itaa
wid ruma
Ġpita rau
Ġpita rasa
Ġpita rasha
ĠbaraahmaNaa sha
ĠbaraahmaNaa wasa
okta sa
okta wyaa
Ġdiwya i
ĠbaraahmaNa sa
mwi dhaa
tari dashaa
Ġpaawa kasa
Ġmuu D
Ġshubhaa shubha
bhiishh mama
eka sa
eka sya
eka paada
Ġpad maani
Ġgadaa has
Ġgadaa yuddha
Ġgadaa paaNira
Ġparaapta sa
Ġwayawa syati
Ġsabhaa yaama
mb ikaa
Ġama raa
Ġama rshhii
Ġagni ma
Ġagni shikh
Ġyukta u
Ġjiiwi tenaa
huur jitama
mta nura
barahma Na
barahma Nya
barahma rshhe
barahma Ny
ntara maatreNa
abhya yaata
abhya bhaashhata
abhya wartata
ogaa sha
hara nti
dara shhTuma
Ġmahaatejaa sa
parati pra
okshha Ne
okshha yaama
mana sha
gada sa
gada sya
Ġwada ti
Ġshha Na
Ġsharaa ddha
ishhii Naama
Ġpau raaNaa
Ġwaraa ha
hkhaa naama
Ġsara shhTaa
parii kshhya
Ġwina taa
Ġwina shhTaa
Ġwina shyanti
Ġnishaa maya
sarwe shhu
Ġsame shhu
Ġsame tau
Ġsame yaataa
kal pita
kal pena
Ġnaasti kaa
Ġtiikshh Nena
myaa ti
Ġnaanaa widhaa
prati jJNa
Ġwiir y
Ġmamaa pi
Ġnishh kramya
Ġkuntii putrasya
Ġbaahu bala
Ġchinta yaana
Ġchinta yanna
Ġchinta yaan
straa Nya
yat t
nai shhaa
Ġdat tena
ipaa tmaja
nwa ye
wat sar
Ġwarshha ti
Ġwarshha puu
Ġwarshha shata
Ġwarshha sahasra
Ġparatyu d
Ġparatyu dyaa
dita wya
lakshha yeta
Ġgar bhi
Ġtatraa pi
Ġtatraa sana
Ġaacha khyau
chu kshhubhe
Ġgami shhyanti
Ġhaa haa
Ġbarahmaa stra
Ġbarahmaa day
Ġastra i
Ġbhiimase naa
st y
Ġmanasaa pi
Ġmanasaa pya
shak y
Ġmahaatmaa nama
graha u
shre shhThe
Ġwibh raaja
Ġihaa sti
Ġsamut thita
Ġsamut panna
Ġhema puN
Ġhema parishhkR
Ġhema maalina
Ġawi shha
Ġwimu ktaa
Ġwimu chyate
Ġwimu khii
Ġwasa w
Ġwasa taa
Ġji jJNaa
Ġji giishha
Ġji jiiwi
Ġpurushhaa Naa
mant ritai
shruu Ni
panna sya
Ġpariyaa Nya
Ġpariyaa priye
Ġsamya N
Ġdiwyaa na
Ġhu taa
Ġnare ndrasya
bi bh
bi bhe
Ġbhara shhT
Ġdushh praa
iDha wrata
iDha wrataa
dawi shha
Ġmit raaNaama
Ġekaa nte
Ġekaa grama
ĠjaJNaana chakshhushhaa
hk hit
hk hitaama
Ġbalaa ha
Ġkashhatra dharmama
mayaa pi
samu d
Ġag niina
yudhaa manyu
wega pra
dharmaa nu
ditya warchasaa
peta tu
plu taa
paaJNchaa laasha
Ġrathi nasa
Ġkurwa ntu
pita rau
Ġnama s
Ġnama syanti
Ġkashhipra kaarii
mat t
Ġparayaa t
Ġparayaa ti
nura kta
Ġgha raa
Ġgha naa
Ġgha NTaa
Ġnaaraaya Nasha
puuja yeta
waasi bhi
Ġyudhya maana
Ġarjuna sya
Ġcheta naa
wayaa ghra
waaha nama
waaha naani
ip t
Ġri shhyate
Ġkasya itada
ĠgachChe ti
Ġrau hiNe
Ġrau kmiNe
Ġala kshh
Ġnira ye
Ġnira nukr
Ġgara nthi
Ġyuktaa ni
ama bu
ama rshhii
shuu draa
shuu raasha
desha ja
desha samu
Ġpuuja ka
Ġpuuja yana
Ġpuuja yaamya
mbhaa raana
mbhaa witaa
widhi naa
puN yama
bhuutaa naama
rakshha ta
rakshha saa
yuktaa naa
Ġud wiikshhya
Ġdiirgha kaala
Ġdiirgha darshi
mahe shwara
Ġjala daa
Ġbhuja y
Ġbhuja gaa
ihaspati sha
mghaa naa
patya ma
naabhi hata
Ġdadaa wa
Ġdadaa ni
Ġdadaa mya
bandha ma
ĠguNaa naa
Ġwiwidhaa yudha
Ġpushhpa ira
Ġmaanushha taa
Ġmaanushha ira
Ġtaraa Na
Ġtaraa taara
Ġpadaa tiinaa
Ġchaaru haasi
chChi nata
baahu sha
Ġwasudhaa tale
Ġwasudhaa dhipaa
mkruddha sa
tthaa ya
gadaa dhara
Ġwija yii
Ġwija yaaya
Ġparabha w
Ġparabha gna
Ġparabha wishhyati
Ġwardha nte
Ġsamupaa drawana
Ġsamupaa shnute
Ġmanii si
ska ndh
Ġjita klama
paraaya shchi
Ġsatriya sha
mcha yaa
mcha ye
Ġakshha yaa
Ġawaapnu wana
Ġsuurya warchasa
Ġapashya da
Ġbhal laira
Ġudya tama
Ġbhaara te
Ġbhaara tama
Ġbhaara saadhanama
daiwa ma
Ġchakra tu
Ġane kaa
Ġparatii chCha
Cha tra
Ġsapar sh
shai laa
Ġmar tyaana
Ġmar tyaanaa
Ġmanda ma
Ġtaapa sii
Ġtaapa saana
Ġdewii ma
Ġjaana nna
Ġdiwaa raatra
Ġdiwaa raatrama
Ġsaumit riNaa
Ġnaga raaNi
Ġdhaara yate
Ġdhaara yishhyaami
Ġshatruu JNa
waha nti
Ġpat ti
Ġwaaji bhi
Ġchaabhi pradakshhiNama
prabhaa ma
ĠparayachCha tu
og reNa
Ġkaara yeta
Ġbhuuri dakshhiNa
chaari Naama
Ġnishcha yaata
nwaa naa
oNaa ya
oNaa nii
ĠparaNa shyati
Ġshau rira
Ġgawaa ma
Ġsaaga rama
Ġsatyawaa di
Ġpashchaa na
mkaa rama
ĠdaNDa kaana
Ġshe shhe
ĠpaaNDawe ya
ĠpaaNDawe yaa
Ġwega wattarama
Ġanwa shaasa
ĠChinna ira
anta rikshha
odaa harantiimama
odaa warii
Ġamita wikrama
naanya thaa
Ġparashaa ntaa
ĠpuN yena
Ġsuma nda
Ġharshha yana
ĠparaaNa da
Ġkaurawa shreshhTha
Ġupe yiwaana
Ġrakshh yate
ipati sattama
atra iw
obhaa ta
oktaa ni
nada ta
nada nt
Ġkuu rma
Ġsukhaa wahama
Ġwat syaami
Ġparawe shhTu
mpanna u
Ġdharmaartha sahita
msya d
msya ma
shira s
wish ura
naagaa naa
naagaa shwa
naagaa yuta
Ġraadhe yama
ĠpaaNi ma
Ġhima wata
Ġbaashhpa ma
Ġsaubha dr
Ġgandharwaa Naa
odhi ta
oge shhu
naaha twaa
Ġsamaya maan
Ġruda ntii
ihiita waana
mda maa
mda rama
ugha i
maaya yaa
Ġsudur buddhe
Ġkumbha karN
Ġtattwa t
Ġsiddha sa
Ġsiddha chaaraNa
Ġbhaarga w
mbaa dhaa
ĠdakshhiNaa wataa
Ġbhak timaana
Ġpaala ne
Ġpaala yana
Ġpaala yishhyati
Ġpaarshha tama
kurwa na
hsa ra
Ġsatha wi
wishe shhaa
Ġsaanu bandha
Ġshaasa ne
ol uu
Ġwicha ri
Ġwicha chaara
shhTe shhu
Ġniwarta swa
Ġyugaa nta
paratya dR
bhuushha Na
Ġdawitii y
ĠdharaNii talama
ihaa Na
mkhyaa ya
Ġchatu shhTa
Ġchatu shhpa
Ġadhyaa ste
Ġpe ya
Ġaachaarya sya
Ġyathe psitama
otka NThaa
Ġabrawii la
Ġsakhaa ya
chakshhu shha
Ġawe kshhaswa
Ġmanasa sha
ĠgachChaa m
Ġhani shhyanti
asamaa bhi
Ġyuddhadurma dama
Ġyuddhadurma daana
ekaa nta
ig yaa
ig ura
mgama ma
odya taa
paryaa ya
paryaa kule
Ġdashaa rNaa
Ġpaata yishhyaami
Ġchaanyaa sha
Ġdawaadasha bhira
muurdha jama
Ġpadma nibhe
mshhT r
mshhT ra
samii kshhya
waahi nii
wishh waamitra
winaa shaa
Ġparahaa reNa
Ġparahaa ribhi
Ġaaya sta
ĠichChaa ma
Ġgaraa hya
parajaa pati
Ġdurdharshha ma
Ġkeka yai
barahmaa Nama
ĠpiiD ita
ĠpiiD itama
jaJNaa ti
ud we
Ġwidhaa nama
Ġwinaasha nama
Ġshiwa sha
dhaara Nama
shaata yata
mshati saahas
Ġgur war
awi dhyada
Ġpawi trama
Ġraame ti
reNaa tha
bhawi shhyasi
Ġewaabhi dudraawa
ihNa na
wak tra
wak traa
wak tuma
parwa tama
Ġsami ddhe
dada da
Ġwichara ntama
Ġparacha krire
Ġdama sa
chyu tama
Ġrama nte
Ġbahuwidha i
Ġshatakra tura
awaa k
rath yaa
gad gadayaa
kam pya
Ġparadaa syaami
Ġshama shaa
Ġshayaa n
Ġdayaa waana
Ġgarii yasii
Ġjagh niwaana
ishhTake tuma
watya sha
wibhuushhi ta
Ġniru chCh
paal ita
paal itaama
Ġhanu mana
Ġle lihaa
Ġmukta sa
Ġdawishha taama
Ġdiip yate
mtya kta
Ġsaka ndha
nimit tama
Ġbandhu shhu
Ġgii taa
Ġgii tawaa
Ġkaruura karmaa
Ġkaruura karmaaNa
oj yaani
wadhya taa
nishhe witama
Ġmarma su
kaNT ha
Ġpaaka shaasa
Ġwaag bhira
Ġtaaraa dhipa
Ġpariwaa ry
Ġlabdha waana
ĠpuurNa chandra
Ġmanaswi na
Ġmanaswi nama
kashhatra dharme
Ġyatna ta
rchi shha
Ġtasmi JNa
Ġdhanwi nau
Ġjaga cha
Ġparaartha yate
Ġparaartha yase
ĠChu bha
ĠChu chi
Ġwayapa niita
puurwaa hNe
Ġwadhyamaanaa sa
Ġgaraha Na
tithi ma
Ġwiche ra
Ġsaatwata sya
Ġmaharshhe ra
ĠanujJNaa t
Ġshikha ra
Ġshikha raaNi
arju nena
mkhya y
ĠkhaDga isha
sabhaa yaa
patra paa
Ġsawi tura
Ġsawi dyu
waak yama
waaraNa waajinaama
naarada sa
Ġsutii rthaa
Ġsutii kshhNa
Ġgajaa shwaratha
ĠkaaraNaa ntare
Ġchitraa na
Ġarju nasa
Ġdiipya maanaa
Ġwaahinii mukhe
indriyaa Niindriyaa
oT yasa
daNDa ma
widu shhaa
Ġchatwaa ri
Ġwakta wyama
Ġjaamadag nyena
Ġdashagriiwa sya
ĠtiikshhNa da
dishhTa u
Ġsad ma
Ġsad wR
Ġsani gdhaa
Ġsane haada
Ġpataa kaa
Ġwishikha i
Ġwadhe psayaa
Ġaanaya swa
Ġdada ta
Ġdada swa
kaashi re
Ġnirma me
Ġnidraa ndhaa
Ġkurwaa Naa
Ġwisp huurjitama
Ġshaweta ha
Ġnahushha sya
oDhu ma
Ġruu kshha
Ġabhyu pa
Ġabhyu pe
Ġparana shhTa
Ġind raashanisamaswanama
Ġikshhwaaku nandana
Ġnishi tena
Ġdhai ryama
Ġyushhmaa su
Ġsamaagama ma
okawi shrutama
mkruddhaa wa
kaarmu kama
Ġaneka dhaa
Ġsaubhadra sya
mamaa pi
mamaa pya
wiwar jita
Ġkare Nu
Ġnada nt
itapra jJN
Ġaawa ntyau
ĠaajJNaa pa
Ġday it
Ġbhaira wama
ĠjaTaa yura
Ġparipaala yeta
Ġmusa la
ndhaka wR
Ġgandhar waana
Ġmaatali naa
awya ktaa
samaana watsaa
shau cha
Ġkhe cha
Ġkala ha
tulya paraakrama
Ġshakta sa
Ġbhayaawa haa
ĠsuwarNa wikR
Ġgaru tmaana
Ġgaru Da
Ġram yaana
Ġmaaru ti
Ġwayasa naa
Ġguhaa yaa
Ġpuujya maan
Ġiip sitama
Ġshatrugh nama
ĠshhaD wi
Ġpala waa
maalyaa bharaNaa
Ġyadu nandana
Ġdahya maanasya
Ġrashmi bhira
Ġsarwasainyaa ni
Ġsamar tuma
parayaa te
Ġshaarad wata
Ġshaarad watasa
piiDa yana
aasa naani
saira ndh
Ġcharaa mya
Ġadhii yiita
Ġwine dura
Ġkashya p
Ġnidha nama
Ġuchya se
Ġnaaraa chaa
Ġnaarad ena
Ġsaadha w
Ġchikiirshha ti
Ġraajaputraa sha
Ġarcha yitwaa
Ġpaarshwa ma
Ġrud reNa
Ġpareta raaja
Ġwayaadhi ra
ĠwimuJNcha ti
Ġparajwal ita
shl ishhya
wayuu Dh
sharuu yataa
shhwaa pa
Ġasu raaNaa
Ġmale chChaa
gachChe thaa
Ġwayu t
Ġkashh we
Ġyad wada
Ġiwaacha lama
Ġnima j
shwaratha sa
Ġsharad dadhaanaa
Ġkashhatri ye
ĠwarawarNi nii
abhishhi chya
mwibha jya
ĠgaaNDiiwadha nwana
Ġyuutha pama
ari shhTa
ochCh ritama
shishhya nti
haari dra
Ġanti ke
maali nii
maali niima
nishha saada
kaura waa
itwi g
Ġunma thya
Ġuchcha i
Ġnaarha nti
Ġkaarta wiiryasya
Ġduhita rama
Ġbhaawitaa tmana
Ġmuhya nti
odhamuur C
ĠChii gh
suuya ka
mpari waarya
mpari shhwajya
Ġutpaa Tya
bii bha
haahaa kR
haahaa kaar
Ġsacha raacharama
Ġakurwa na
niwarta swa
Ġwiwya dhu
Ġshashaa pa
Ġshastraa Nya
Ġchu kr
Ġaara bdha
Ġdas yuuna
bharata sya
Ġur wii
Ġur wyaa
Ġsukumaa ra
Ġsukumaa rii
Ġkaamya ke
bandh ura
kuNDa laa
omadatta sya
abhiwaa daya
satriya sha
patnii bhyaa
ĠmantriNa sha
Ġbaahli ka
gne yama
ikama naa
mCha nna
oddhaa ra
Ġsatana yit
Ġchakraa N
Ġachi raada
Ġanena iwa
kashhu tpipaa
ĠkaNT he
Ġmaadha w
Ġmuch yeta
Ġphalaa nya
Ġsaindha waa
ĠdarashhTaa si
Ġkaamaruupi Na
Ġsiida ti
Ġwinishcha yama
bhiimase nena
Ġduura paati
Ġmadraraaja padaa
abhuu na
abhuu cha
onma thita
shawe taa
widdhaa ni
Ġjah yaada
Ġkusu ma
Ġkulii na
Ġlip seta
Ġmuna yasha
okakar shitaa
Ġjaamba waana
Ġshuka saaraNau
Ġabhija ghnatu
ishhisattama ma
anujJNaa t
anujJNaa taasa
ochita wya
aashii wishhaa
tapya se
yaja swa
wayu shhTaa
taar ksya
Ġwiita sh
Ġwiparii ta
karuddha sya
Ġkashma la
Ġaasu rii
Ġbharadwaa jaa
Ġwaaru Nii
dhaariNa u
baha wa
Ġbhaaswa taa
dushh kara
Ġputrapau tra
Ġiwaamba raata
Ġsathaawa raaNi
dawijaa ti
Ġashwatthaa maanama
Ġlaagha wama
Ġdaashaar hama
ai raawata
atii te
mgraha Ne
unma tta
aaja ghaan
hanya te
Ġsakh yama
wisp haarya
ĠpakshhiNa sha
Ġparashwa dhai
Ġkap ira
Ġkanya yaa
Ġshashwa da
Ġaahaara yata
Ġdari dr
Ġniwaara Ne
Ġjagma tu
Ġjagma tura
Ġchaawya ya
parabhaa taayaa
Ġbhuushha Naani
Ġsamaara mbh
barawii tu
mbabhuu wa
Ġnetraa bhyaama
Ġparasamii kshhya
amarshha washama
Ġshawetaa shwa
alambu sa
Ġsaphi ita
hraa daa
md w
upe tya
yajJNe shhu
waarshhNe ya
Ġwikarshha na
Ġparatha me
Ġparabrawii mi
Ġkaita wya
yudhi sThira
yuyudhaa te
Ġaadit ye
Ġdadh mura
Ġwaamya u
Ġsuman trama
Ġsaattwi ka
Ġkilbishha ma
Ġshushh ka
Ġwarte ta
Ġsamudaa hR
Ġnishaacha rama
Ġihaarha ti
Ġihaarha si
Ġsawayambhu waa
Ġkausal yaama
Ġanekasaahas rai
Ġanekasaahas raira
opradaa ne
tuur Nama
yantaa rama
wima rda
wista reNa
wibhiishha Na
Ġchaushha dhii
Ġpit rya
Ġwishikhaa na
kariya taa
itawarma Na
bhinand ina
Ġwaala wya
Ġbaraah mii
Ġsubahu sha
sindhu raaja
Ġdushcha rita
Ġyathaar hata
ĠjishhN ura
ĠbaaNama ya
chChaada yada
Ġwayaakhyaa tuma
Ġnihatyaa jau
Ġgirii Naama
Ġasite kshhaNe
Ġbisaa ni
ĠshikhaNDi nii
Ġyuyutsa yaa
kashhatriya sya
kashhatriyaa Naa
marii chira
raabhi mar
Ġmadhyaa hne
Ġniwaa rita
Ġhastya shwa
dhaarya taama
Ġsarwashaastra wishaarada
uurN itaa
Ġraajasuu ye
Ġjha shhaa
Ġparatipadya swa
okatra ya
Ġtatparaa bhawa
Ġiwaasha ne
Ġchekitaana sha
ĠtariwishhTa pa
Ġdashagrii w
ogakshhe ma
Ġgurushushruushha Ne
Ġparyadewa yana
saumadat ti
Ġkashhutpipaa se
Ġwayawasaa y
Ġadiinasa ttwa
iwya sana
yasmi JNa
Ġsakaa shaata
shakt yR
tirya gy
naaraacha ira
Ġwimi shraa
ĠwishhTa bhya
Ġwighasaa shina
Ġwasta wya
ĠyajJNi ya
Ġushhi twaa
Ġnaahu shha
Ġekara the
praharaNa ira
otphulla l
Ġsawabaahu balama
Ġmanuje shwara
Ġshareyasa sha
ĠchitrakuuTa sya
Ġdawaita wana
sru wu
ĠcharaNaa wa
Ġwaita raNii
Ġwasawa sha
Ġjawaa laa
bhaaradwaa j
Ġparamakru ddh
Ġsamuda ikshhata
Ġshatrunibarha Na
jamada gni
Ġbibhra tii
okyawi shrutama
Ġbhalla isa
Ġparaayashchi tta
Ġshiighraa stra
ĠyaudhishhThi re
Ġyudhaaman yuuttamauja
Ġpushhkare kshhaNa
ĠpaTTisha i
Tana rta
hswaa dhyaaya
Ġkishh kindhaa
Ġawama nye
naantaraa tmanaa
ninaada isha
Ġmahaasat twe
jaalaa wR
saawi trii
Ġsuru chira
Ġgalaani ra
ĠchichChi de
Ġwaikla wya
Ġsharawraa tai
Ġmahauja si
Ġasitaa paaN
Ġiwaadit y
Ġbhushu NDii
odwija te
Ġnaanaajanapade shwaraa
Ġsawayambhuu ra
Ġsanaatwaarcha yitwaa
Ġakshhau hiNii
Ġbhuurishrawa sama
ĠraameNaa klishhTakarmaNaa
Ġsamarashlaag hii
oNitakarda maama
ikshhwaakuu Naa
patri bhi
Ġsashaila wanakaana
Ġmahaabhu jama
Ġsushhe N
Ġsamakampa nta
iNushhwaa wahit
ĠkaarshhN ira
Ġwimukhii kR
Ġjijiiwi shhu
Ġyudhaamanyuuttamauja sau
C he
C hata
D itaa
N N
N ura
T he
a yaa
a tu
a bh
a we
a daa
a jaa
a pu
a shu
a ndha
a sthi
a gR
a dhar
a shra
a pari
a sta
a pii
a dyaa
a bhaawa
a nuu
a puurwa
a parati
a straa
a dr
a peta
a bruwana
a kaale
a maatya
a nwaa
a dayaa
a shaastra
a dharme
a jJNaata
a mitraa
a dri
a niikama
a siiti
a shhaTa
a taaD
b raahma
b ruwa
d bhya
d yaana
d raana
d raama
d ishama
d itaana
d ruta
d ishhTasa
e shh
e tama
e taani
g yaa
g ye
g yama
g dhama
g nera
h naa
h kh
h sheshha
i kshh
i hu
i si
i sama
i tura
i mama
i raawa
i naana
i shhaama
i ditaa
i ddhyaa
i bhyasha
i ndrasya
i kshhura
i jyate
i ddhena
i jina
i peNa
i rsha
i shire
j R
j wara
k yama
k laa
k kR
k yaama
k hura
l waa
l pena
m ne
m dR
m hama
m sii
m stha
m sye
m jii
m dhye
m gi
m kula
m bhaawa
m naaya
m mantrya
m prii
m kramaa
m bhuuya
m kulaa
m chitama
m Chinna
m syaada
m puujayaama
m watsar
n mi
n yaata
n yura
n neshhu
n niwaasa
o pi
o yama
o laa
o maana
o me
o rata
o du
o yena
o bhyaa
o wra
o paata
o jitaa
o bhisa
o raasha
o paala
o tiiti
o heNa
o wanama
o ratara
o bhuute
o nuda
o dhyanta
p si
p yata
p sitaa
r dhena
r chira
r bal
s pa
s naa
s yena
s taasha
s taasa
s waadya
s warga
s nushhaa
t thi
t taani
t sen
t meti
t waika
u ta
u shh
u bha
u pati
u bhaawa
u jasaa
u dayaa
u ddhR
u jaasha
u chChishhTa
Ġ itasa
aa h
aa ga
aa dhi
aa su
aa shaa
aa huu
aa tta
aa rtaa
aa pada
aa hwa
aa karNa
aa yudhaa
aa hawe
aa raNya
aa khyaata
aa wiwesha
aa huuya
aa raadha
aa widhya
aa kriiDa
ha wa
ha raa
ha yaana
ha riya
ha rshhi
ha yaanaa
ha nyaada
ta pta
ta smaa
ta sy
ta rpa
ta thai
ta thaiw
ma raa
ma sha
ma twaa
ma nii
ma hata
ma yuu
ma rai
ma dre
ma ryaadaa
ra kaa
ra Nama
ra yada
ra kshhitaa
ya j
ya nama
ya dR
ya dii
ya ntii
ya yura
ya ntiiha
ya jJNena
sh itaana
sh itaama
sh rit
wa war
wa pu
wa JNcha
wa naana
wa dhaaya
wa wau
wa wusha
sa w
sa ya
sa ru
sa taama
sa nte
sa putra
sa ptaa
sa mita
sa iwama
sa thaana
na cha
na yama
na gha
na ite
na sti
na dyaa
na ika
na kshhatra
pa yaa
pa nta
pa nama
pa gaa
pa dama
pa kshhma
pa tre
pa yitwaa
pa reta
pa yishhyati
haa sti
haa raya
haa Ti
hi na
hi raN
Ġsa pa
Ġsa yaama
Ġsa bhyaa
Ġsa sye
Ġsa padaa
Ġsa dbhira
Ġsa gaNaa
Ġsa yusa
Ġsa ntasa
Ġsa putreNa
Ġsa sainyaa
Ġsa gad
Ġsa shishh
Ġsa yaaja
Ġsa paaJNchaalaana
Ġsa strii
Ġsa mitau
Ġsa bhraatR
Ġsa dhanushh
raa meNa
raa gad
cha nda
cha lama
cha ritaa
cha ndreNa
cha karta
da g
da ka
da dhi
da kshha
da wii
da hata
da shii
da dhe
da mbha
da waada
da ntau
sha y
sha te
sha ni
sha la
sha ye
sha kta
sha tasa
sha kraa
sha raNaa
sha rmi
sha straaNi
sha weta
sha rutaa
sha peya
waa N
waa li
waa sii
waa tena
waa pR
waa yura
waa yusa
shh paata
shh Nasha
shh peNa
wi wa
wi mu
wi taana
wi kama
wi shhwa
wi tre
wi dhuu
wi staa
wi kramya
wi bhra
wi widhaa
wi shyaa
wi paryaa
wi muktaa
wi kshhata
wi wardhana
wi muJNcha
wi gaahya
wi bhrama
wi traasa
yaa s
yaa nya
yaa bhya
yaa bhyaa
yaa ghra
yaa wacha
yaa nwita
Ġta paa
Ġta tya
Ġta pati
Ġta raaNaa
Ġta nwa
Ġta Daa
Ġpa l
Ġpa tha
Ġpa tii
Ġpa th
Ġpa wane
Ġpa hla
taa cha
taa nu
taa mraakshha
Ġcha ru
Ġcha NDa
Ġcha mpa
Ġcha rshhi
Ġcha ritama
Ġcha litaa
Ġcha kaashire
ti ga
ti ka
ti kaa
ti itya
ti ke
ti bala
ti shhTh
Ġa kaa
Ġa wata
Ġa shu
Ġa ndha
Ġa hita
Ġa dhR
Ġa gachCha
Ġa tri
Ġa jitaa
Ġa ut
Ġa shana
Ġa shaN
Ġa raN
Ġa liN
Ġa indra
Ġa kaarya
Ġa dhaara
Ġa dharm
Ġa wasana
Ġa kshhaana
Ġa rundha
Ġa traana
Ġa shhTaawa
Ġa psarasaa
Ġa ikshhata
Ġa tyugra
maa dha
maa tha
maa tara
maa ndhaa
maa trama
maa ruta
maa Neshhu
maa haat
naa tra
naa daa
naa bha
naa tya
naa nte
naa shu
naa ntara
naa nwa
naa rjuna
naa rhaa
naa ditama
naa kaalat
te ya
ja ti
ja nna
ja gata
ja nyama
ja lasa
ja ratkaa
ja mbuu
ni taa
ni swa
ni shhTa
ni darsha
ni shhyati
ni weda
ni shama
ni warti
ni bandha
ni petura
ni waasama
ni shiithe
Ġp hena
Ġma ye
Ġma nta
Ġma rshhi
Ġma gna
Ġma Nira
Ġma raNe
Ġma gnaa
Ġma inaa
Ġma llaa
uu chura
ga j
ga ni
ga ru
ga tya
ga dama
ga tena
ga tima
ga ras
ga jaana
ga chCheda
ga jaanaa
ga ndh
ga ntuma
ga dhanwaa
ii sR
ii shwara
Na wa
shha wa
shha kuni
shha shhTyaa
Ġwi re
Ġwi wada
Ġwi ruupa
Ġwi ji
Ġwi lu
Ġwi haara
Ġwi prama
Ġwi yati
Ġwi jJNaana
Ġwi dhau
Ġwi kurwa
Ġwi gaNa
Ġwi kramaa
Ġwi babhau
Ġwi bhaaga
Ġwi shuddhaa
Ġwi deha
Ġwi tte
Ġwi weshaa
Ġwi kshhipana
Ġwi paapmaa
ka w
ka saa
ka pR
ka isa
ka smaada
ka shma
ka lasa
ka riiDa
ka thit
ka smaacha
ka dalii
ka shhyapa
ka patribhi
Ġwa w
Ġwa ta
Ġwa nd
Ġwa Ni
Ġwa ishh
Ġwa yaana
Ġwa yaami
Ġwa dhuu
Ġwa dhyate
Ġwa irama
Ġwa shhaT
Ġwa Dawaa
la ka
la bhe
la mbha
la shhita
Ġpara bhi
Ġpara paa
Ġpara laa
Ġpara ku
Ġpara di
Ġpara sthi
Ġpara pata
Ġpara nR
Ġpara haara
Ġpara khya
Ġpara kshhipya
Ġpara kiirNa
Ġpara kaashe
Ġpara kari
Ġpara pitaamaha
Ġpara chyu
Ġpara piiDitaa
Ġpara dish
Ġpara dudruwu
Ġpara pedire
Ġpara kiirtita
Ġpara liiyate
Ġpara pashyanti
Ġka m
Ġka rata
Ġka wya
Ġka smina
Ġka smaana
Ġka bandhaa
Ġka damba
Ġs ita
Ġs itaa
shhT ii
sya sa
sya taa
sya sya
sya nte
ri bhira
ri chyate
dha n
dha ru
dha nyaa
tu lyaa
ru ha
ru Nii
ru ddhaa
Ġsha T
Ġsha m
Ġsha pa
Ġsha laa
Ġsha pta
Ġsha taana
Ġsha tena
Ġsha krama
Ġsha shaasa
Ġsha trau
Ġsha patha
Naa sa
Naa rtha
tha u
Ġna ta
Ġna bh
Ġna kha
Ġna sta
Ġna ndana
Ġna shhTe
Ġna linii
Ġraa N
Ġraa g
Ġraa hura
ita cha
ita ja
ita ka
ita daa
ita jJNaa
ita wada
ita yasha
ita buddhi
yu shhama
yu shhmaa
yu ktaana
it taani
it taanaa
it weha
Ġaa ma
Ġaa wi
Ġaa tya
Ġaa tta
Ġaa gama
Ġaa kru
Ġaa saada
Ġaa dau
Ġaa yataa
Ġaa shaN
Ġaa naaya
Ġaa jagmu
Ġaa dishya
Ġaa haar
Ġaa jagmura
Ġaa haaraa
Ġaa babhau
Ġaa dira
Ġaa jagmusa
Ġaa ruru
Ġaa wedya
Ġaa mishha
Ġaa yudhaani
Ġaa haarama
Ġaa datswa
bh re
Ġya waa
Ġya dii
Ġya shhTa
Ġya shhTu
Ġya duu
Ġya ntra
Ġya kshhaana
Ġya jJNena
bhi shhi
bhi hat
bhi ttwaa
ye ma
dh maa
re N
re na
re shhaa
we di
we gama
we shheNa
we shhTita
Ġda m
Ġda sya
Ġda kshha
Ġda yaama
Ġda dhu
Ġda waya
Ġda yau
Ġda dura
Ġda waipaayan
Ġda dhaati
Ġda hantama
Ġi yeshha
daa mi
daa tuma
daa naata
daa ruNa
daa rayana
Ġmahaa wi
Ġmahaa maa
Ġmahaa dhwa
Ġmahaa gi
Ġmahaa dru
Ġmahaa naagaa
Ġmahaa wratama
Ġmahaa maayaa
Ġmahaa rNawa
Ġmahaa maatraa
Ġmahaa balaana
Ġmahaa sattw
Ġbha ishhTa
Ġbha rta
Ġbha ktama
Ġpu maa
Ġpu rata
Ġpu shhya
Ġpu nda
Ġpu rasya
Ġpu naati
Ġpu laha
kaa rta
kaa lya
kaa shaana
kaa shaada
bha jya
bha yaata
bha weda
bha waata
Ġni ita
Ġni yu
Ġni it
Ġni itaa
Ġni ku
Ġni tyaa
Ġni ras
Ġni naada
Ġni dhaana
Ġni paata
Ġni warti
Ġni patya
Ġni itira
Ġni warte
Ġni petu
Ġni wartituma
Ġni papaataa
Ġni drayaa
Ġni draama
Ġu para
Ġu ktama
Ġu dwa
Ġu chita
Ġu gre
Ġu gr
Ġu grata
Ġu shhTra
jaa N
jaa pa
jaa ne
jaa tii
jaa lama
Ġsh iir
Ġpaa re
Ġpaa dama
Ġpaa dena
Ġpaa Nau
Ġpaa radaa
Ġpaa lita
Ġpaa Naya
Ġpaa litaa
ch y
ch chi
ch yaasha
Ġwaa r
Ġwaa haa
Ġwaa te
Ġwaa chi
Ġwaa Nii
Ġwaa yau
Ġwaa raNe
Ġwaa Niima
Ġwaa shubhama
Ġwaa ditra
Ġwaa jiratha
saa maa
saa bhi
saa dh
saa kshhi
saa rwa
saa hama
saa rasa
saa dhana
saa twata
saa dinasha
Ġba ka
Ġba laani
Ġba lira
Ġba ndi
Ġsar p
Ġsar iisR
paa cha
paa te
paa tama
paa lya
paa pii
paa naani
paa rthaa
paa dyama
hii ma
nu sha
nu ruupa
nu shaasanama
Ġte pa
Ġte bhyasha
Ġte bhyasa
tya ya
tya nta
tya yama
mi n
mi sh
mi shhe
mi kaama
Ġtawa t
Ġtawa ye
Ġtawa rana
Ġtawa yeha
Ġtawa ritasa
Ġtawa rayanti
Ġsu l
Ġsu mR
Ġsu raasa
Ġsu pii
Ġsu tai
Ġsu mukha
Ġsu balaa
Ġsu warNaa
Ġsu jaataa
Ġsu sharmaa
Ġsu wyakta
Ġsu warchasama
Ġsu huta
Ġdha ta
Ġdha ya
Ġdha rama
Ġdha nya
Ġdha nyaa
Ġdha neshhu
iwa ta
iwa la
iwa tsa
Ġtu shhaa
Ġtu shhyati
Ġtu shhTu
Ġtu layaa
Ġtu bhyama
nta r
Ġga j
Ġga NDa
Ġga de
Ġga je
Ġga jaanii
Ġga jena
Ġja tu
Ġja wama
Ġja hura
Ġja Tii
Ġja gati
Ġja hau
Ġja ghaanaashu
Ġha wii
Ġha reta
Ġra waa
Ġra wai
Ġra sawa
Ġra sana
Ġra kshhiNa
Ġra hite
Ġra wira
Ġra shmiina
dhaa r
dhaa ma
dhaa tuma
dhaa reNa
dhaa wanti
dhaa wataa
dhaa riNama
Ġchaa ra
Ġchaa raa
Ġchaa la
Ġchaa dhi
Ġchaa dR
Ġchaa shu
Ġchaa pashya
Ġchaa bhisa
Ġchaa gamya
Ġchaa nyama
Ġchaa shrama
Ġchaa chaarya
Ġchaa nura
Ġchaa gamata
Ġchaa straaNi
Ġchaa bhawana
Ġchaa wamanya
Ġchaa tmani
Ġchaa gnau
Ġchaa rdayata
Ġchaa shiwa
Ġchaa pnuyaata
Ġmaa d
Ġmaa nii
Ġmaa wama
Ġmaa nina
kshha wa
kshha maa
kshha saama
pi tu
pi taawa
rii na
rii taa
rii shha
ishhT it
ne shhwa
ne yau
rama te
hu ti
hu tama
Ġnaa g
Ġnaa saa
Ġnaa tya
Ġnaa kar
Ġnaa shra
Ġnaa shama
Ġnaa smaana
Ġnaa kampa
Ġnaa nyena
Ġnaa shaaya
Ġnaa bhaaga
Ġnaa dhigachChati
Ġnaa kapR
war shhi
war Ne
war gama
war Naana
ND ena
Ġkaa wya
Ġkaa yaata
Ġkaa mii
Ġkaa shhThaa
Ġkaa wy
Ġkaa yaacha
Ġkaa purushh
Ġkaa minii
Ġkaa rshhiira
laa yaa
laa nya
ba dh
ba lii
ba rhi
Ġe naa
Ġe bhi
Ġe ke
Ġe teshhaa
Ġe shhyasi
Ġe shhaama
Ġe tay
Ġku rma
Ġku shaa
Ġku pya
Ġku tsa
Ġku tasha
Ġku mbh
Ġku Tu
Ġku Napa
shhu ma
Ġyu tama
Ġyu jya
Ġyu dhyata
Ġyu dhyate
Ġyu dhyeta
Ġparaa ta
Ġparaa ma
Ġparaa ja
Ġparaa ka
Ġparaa yama
Ġparaa hu
Ġparaa jita
Ġparaa kraanta
Ġparaa kraantaa
Ġparaa kampata
Ġparaa bhaawaaya
Ġparaa bhawaata
su y
su kh
su tena
su man
su ptaa
su shheNa
su paarshwa
mu da
mu hya
mu shhNa
mu muchu
Ġsarwa ga
Ġsarwa kR
Ġsarwa jJNa
Ġsarwa tasha
Ġsarwa dharm
Ġsarwa guN
Ġsarwa lakshhaNa
Ġsarwa dehi
Ġsarwa kshhatrasya
Ġsarwa dharmaaNaa
shaa ma
shaa waa
shaa la
shaa mi
shaa mya
shaa shwa
shaa dwa
shaa myati
pu ND
pu nasa
pu lastya
si hi
si ktaa
si shhama
nd ri
nd raada
bhaa raa
bhaa ka
bhaa waana
bhaa rata
bhaa waacha
bhaa gama
bhaa gena
bhaa waata
Ġsama taa
Ġsama hR
Ġsama bhyaa
Ġsama staa
Ġsama rth
Ġsama ntaana
Ġsama staana
Ġsama padyanta
thi te
pra suu
pra stha
pra saada
pra tyaaga
Ġhi nasti
gaa re
gaa JNa
gaa Dha
Ġsaa maa
Ġsaa mu
Ġsaa mya
Ġsaa lama
Ġsaa mba
Ġsaa shru
Ġsaa rasaa
Ġsaa mar
Ġsaa raswata
Ġchi reNa
Ġchi ttama
Ġchi tr
Ġchi tre
Ġchi ttaa
dya ta
dya taa
dya maanaa
dya maaneshhu
Ġme r
Ġme dha
Ġme dhayaa
tata raa
nya i
nya se
nya sta
ishh y
ishh wa
ishh Naana
ishh yeta
me ta
me tya
me kha
Ġraaja bhi
Ġraaja saa
Ġraaja nya
Ġraaja nyaa
Ġraaja gR
Ġraaja pur
Ġraaja rshhaya
Ġraaja madhye
Ġraaja bhaaryaa
ruu Nya
ruu Dhaa
ruu rawa
isha sha
msha kara
JN ch
JN chii
tii rshha
tii rthaa
tii rthaani
nii naa
nii laa
nii naama
nii yaada
nii teshhu
nii kena
Ġbhaa n
Ġbhaa shhi
Ġbhaa gaa
Ġbhaa wii
Ġbhaa wita
Ġbhaa weshhu
wii reNa
wii kshhituma
shya ta
Ġtathaa pya
Ġtathaa tmaana
Ġtathaa ny
Ġpari tu
Ġpari war
Ġpari gh
Ġpari dR
Ġpari mR
Ġpari khaa
Ġpari watsa
Ġpari wartante
Ġpari charyaa
Ġpari chakraama
Ġpari kiirtitaa
NDa wa
NDa ja
Ġwai chitra
msa ka
msa tsu
syaa hu
syaa mitra
kha bherii
chi rasya
kta sya
mya mya
mya ntu
du ghaa
du ndu
ku su
ku lena
ku bera
Ġchaiwa ina
para sh
para saa
para shu
para sthaa
para warta
para jaanaa
para yat
para harshha
para wishhTa
para kiirNa
para jajwaala
Ġbhii shha
Ġbhii maaya
Ġbhii maarjuna
Ġbhii maarju
bhuu twaa
bhuu tasya
bhuu tasa
bhuu tira
bhuu taasa
Ġyathaa y
Ġyathaa rtha
Ġyathaa dR
Ġyathaa puurwa
Ġsaha dewena
Ġbhuu sa
Ġbhuu tasya
Ġbhuu tira
Ġbhuu tebhy
chCha nda
chaa rasa
chaa tur
chaa raira
chaa raNai
chaa turwarNya
di tena
di wyama
se ya
Ġkar me
yata ra
yata shr
shwa sta
shwa raata
gh naa
raaja sha
raaja pu
raaja JNa
raaja rshhi
Ġtadaa nii
Ġtadaa rjuna
Ġtadaa twe
wya u
wya ti
wya ktama
itya tama
itya iwa
Ġdharma paraa
Ġdharma yukta
Ġdharma phala
Ġdharma nitya
Ġdharma putreNa
Ġdharma chaariNa
Ġdharma darshi
Ġdharma shiilaa
Ġdharma raajaaya
Ġdharma watsala
tat wa
tat twaa
ke t
ke tuma
ke tusha
ke sara
ke yuura
Ġki maa
kshhi kaa
kshhi taana
odha ya
odha sya
odha ira
odha naata
de sh
de hama
de hyaa
Ġparati b
Ġparati m
Ġparati ita
Ġparati itaa
Ġparati kR
Ġparati maana
Ġparati shhTha
Ġparati wiwyaadha
Ġparati jaaniihi
Ġparati kriyaa
Ġparati wyuu
Ġparati labhya
Ġparati chChanna
Ġparati bhaashhase
Ġde ya
Ġde shaa
Ġsamaa yukta
Ġsamaa sthita
Ġsamaa jJNaaya
Ġsamaa pn
Ġsamaa chaara
Ġsamaa hitama
Ġsamaa sthitaa
Ġsamaa kiirNaa
Ġsamaa jagmura
Ġsamaa dishhTaa
Ġsamaa chin
Ġsamaa chare
Ġsamaa shlishhya
ot su
ot kR
ot se
ot patya
gha raa
ĠC hama
le n
le khaa
Ġraajaa sau
ddh uuta
Ġsawa saa
Ġsawa nu
Ġsawa lpa
Ġsawa stya
Ġsawa rathama
Ġyaa ha
Ġyaa taa
Ġyaa thaa
Ġyaa saa
Ġyaa tya
Ġyaa chi
Ġyaa nyaa
Ġyaa yaada
Ġyaa naada
Ġyaa ntama
Ġyaa dawaa
Ġyaa syaamya
Ġyaa hiiti
Ġla u
Ġla bheda
Ġla bdhu
opa r
opa yaa
opa dhaa
opa laa
opa sR
opa tira
opa maama
opa chakrame
opa wishhTaa
opa nishha
opa sewa
opa lakshhaye
taama sa
naama rshhayata
ora ska
rwa sa
Ġbaa li
Ġbaa lasya
oka i
oka naa
oka ka
oka yaama
oka samanwita
oka paalaa
oka naatha
dra ya
wyaa da
wyaa sha
wyaa ni
wyaa hR
Ġdewa taasha
Ġdewa raaTa
Ġdewa gandharwaa
asa mii
asa twa
wana s
wana sya
Ġjaa lena
Ġjaa tasha
Ġjaa gar
Ġjaa lai
Ġjaa niita
Ġwaya k
Ġwaya rtha
Ġwaya dii
Ġwaya jana
Ġwaya chara
Ġwaya charata
Ġwaya shaatayata
Ġshara di
Ġshara Nya
Ġwe g
Ġwe tra
Ġwe de
Ġwe ditawya
kh yaada
Ġdaa naa
Ġdaa sya
Ġdaa raya
kar Nama
kar tuma
Ġmaha na
Ġmaha dbhira
paraa sa
paraa dha
paraa jaa
paraa saada
paraa pt
paraa pte
paraa pyaa
paraa dhaata
Ġtat parama
tta me
Ġdar p
Ġdar pama
Ġdar shina
Ġdar shita
jJNa i
jJNa u
jJNa pta
eta ja
Ġsarwe ndriya
li n
li la
li nasa
ishhTa l
ishhTa puurwaa
ishhTa puurw
ishhTa tanuu
Ġshu bhra
Ġshu chay
Ġshaa li
Ġshaa ntya
Ġshaa sti
Ġshaa rada
Ġshaa dwa
Ġshaa riira
Ġshaa streshhu
Ġas taa
Ġas it
Ġas tama
Ġas traa
Ġas tre
Ġas par
Ġas mada
Ġas miiti
dhya kshha
Ġaasa nama
Ġaasa nna
Ġar chya
Ġar chita
Ġar ditaa
Ġar thii
Ġgu ruu
Ġgu hena
swa n
swa laa
Ġanu pra
Ġanu wrata
Ġanu mate
Ġabhi sha
Ġabhi pra
Ġabhi gata
Ġabhi mukha
Ġabhi mukh
Ġabhi nand
Ġabhi jaayate
Ġabhi satkR
Ġabhi bhuuya
Ġabhi gamyaa
Ġabhi shhiJNcha
ipa shaarduula
dii ta
dii yataa
Ġwar jita
Ġwar maaNi
Ġsat y
Ġsat yaama
ge shwara
Ġtawaa tmaja
Ġtawaa rthaaya
Ġtawaa tmajama
jaya nta
jaya ntya
Ġhaya saa
Ġhaya shreshhThaa
has th
kshhya iwa
kshhya ntya
Ġdawi shh
Nii ta
Nii yaa
Nii ti
Ġputra daa
Ġputra ira
Ġkuru raaja
Ġkuru mukh
Ġkuru shaarduula
Ġkuru shhwaa
Ġkuru prawii
Ġkuru shhweti
Ġwacha naana
Ġbhiima sha
gu Ne
gu Nasa
gu Nai
gu NT
Ġbarahma gh
Ġbarahma datta
Ġbarahma Nasa
Ġbarahma chaari
Ġbarahma rshhira
Ġdi na
Ġdi ti
Ġdi naka
Ġdi wyaama
Ġdur ja
Ġdur mukha
Ġdur mukh
Ġdur wishha
Ġdur bal
Ġdur geshhu
Ġdur mukhasya
Ġdur winiita
rau drama
shi wena
she shh
sama ma
sama ya
sama rth
Ġnara kaa
Ġnara ira
Ġnara war
Ġnara pati
ratha isha
ratha stha
wai shyaa
wai nate
wai dehyaa
Ġupa sR
Ġupa sthaa
Ġupa tishhTha
Ġupa wishhTa
Ġupa yaanti
Ġupa ishhyati
Ġupa dhaaraya
ite ti
Ġwii ru
Ġwii ryaada
bhu JNjate
bhu JNjaanaa
Ġbhawa si
Ġbhawa ntu
oda naa
oda kaa
oda raana
oda dhau
oda yaashwaana
pe shha
pe shhu
dewa raaja
dewa wrata
Ġsharu tira
ki na
ki nama
ki raata
mii ma
mii naa
wada n
Ġbahu twa
Ġbahu warshha
Ġbahu ratna
khaa JNa
Ġwara yaama
hya itada
Ġiwaa wa
Ġiwaa babhau
Ġdhar mya
Ġdhar shhitaa
iti prajJNa
tena iwama
Ġparama k
Ġparama th
Ġparama dwa
Ġparama dharmaatmaa
Ġgaa mi
Ġgaa wasa
Ġgaa trai
sar pi
sar pata
Ġche t
Ġche ya
Ġche tana
Ġche mau
Ġche kitaa
Ġman tha
Ġman daa
ghaa te
Ġbharata sa
Ġbharata syaa
Ġkatha yataa
praa saada
okaa r
okaa JNa
Ġke tuma
Ġke sheshhu
Ġsamu dyu
Ġsamu kshhitaa
Ġsamu drama
Ġsamu ddhR
Ġshi ne
Ġshi lpa
Ġshi khii
Ġshi shiraa
Ġraakshha sama
raashhT raaNi
bu dama
Ġmahaaraaja ma
je thaa
Ġpuur w
Ġjii we
Ġsatya jita
Ġsatya wataa
graa mya
Ġbu ddh
Ġbu dhai
Ġbu budhe
Ġaha twaa
Ġaha nya
lii na
lii ne
Ġratha war
Ġratha waaji
Ġratha shreshhTh
Ġratha nemi
gra hii
gra isha
gra heNa
sthi ti
ĠCha wa
ĠCha ru
ĠCha nd
ĠCha reshhTha
ĠCha nai
ĠCha ndaa
ĠCha weta
ĠCha dai
twa itada
ocha raa
ocha tu
ocha taama
ocha naama
Ġye shhu
Ġtari bhisha
Ġtari shR
Ġtari guNa
Ġtari patha
Ġtari shiraa
Ġtari jaTaa
bala waana
bala wanta
ishha ta
ishha yasa
ishha dhwajama
maanaa ta
Ġsarwaa wastha
Ġnitya sa
yi ka
Ġbharaa ma
Ġbharaa nta
Ġbharaa tusa
Ġbaraahma Nya
sthaa ma
darsha yaama
darsha naama
Ġnir jitama
ana te
ana yaana
ana yena
ana suuyaa
ana wekshhya
ana taka
putra i
oke sha
oNa putraa
Ġshuu laa
Ġshuu lama
Ġpuraa wR
Ġpuraa Ni
Ġpuraa tana
Ġpuraa bhawata
waasa saa
warta swa
oma l
oma sh
yathaa shakti
JNja naa
Ġmahaatma nasa
Ġpurushha i
Ġpurushha syeha
Ġpurushha kaareNa
abhi kaaN
abhi maanena
abhi drawa
mit rasya
mit hyaa
Ġupaa yata
Ġupaa yaata
Ġupaa siina
tima dhye
Ġru g
Ġru ja
Ġru dita
gni h
Ġan weti
ishya taama
ishya muu
tawa taa
tawa tpra
suu ra
suu yaami
suu yanti
Ġbala ira
Ġbala wR
Ġbala wanti
Ġbala ugha
hata prawiiraa
Ġgh uurNa
Ġyata te
Ġyata nte
Ġyata swa
Ta stha
Ta bhay
shii ra
shii tena
shii leshhu
Ġbhu wa
Ġbhu kte
Ġbhu jyate
Ġbhu JNjaanaa
dharma jJNa
dharma wita
Ġti l
Ġti ira
Ġti sra
ji naa
ji jJNaa
ji hwaa
puur weNa
Ġkha ga
Ġkha dy
mahaa wane
Ġpashya te
Ġpashya nna
Ġpashya taama
Ġpashya swa
Ġpashya ntii
dhwa je
dhwa staa
mjaya sa
dhe yaa
dhe nu
dhe yaani
yuu pa
yuu Dha
od gataa
mama iwa
Ġpare kshhate
Ġbhaga wat
abha yeti
tapa s
tapa sha
tapa sya
dur gaa
dur labha
Ġparaap ti
Ġparaap sya
Ġparaap tuma
Ġparaap taana
Ġparaap tira
Ġparaap taasa
Ġdii pte
Ġdii ryate
puu raya
puu jitama
Ġwayaa saa
Ġwayaa pta
Ġwayaa ptaa
Ġsau warNaa
Ġsharii sha
Ġsharii reNa
Ġsahas reshhu
rasa dR
Ġut thi
Ġut paata
Ġut padyate
Ġut patanta
ida sa
ida yaana
Ġparii taatmaa
Ġparii kshheta
Ġparii yamaaNa
Ġkaru Naa
Ġsuu da
sawa la
shra maata
shra maasa
Ġyada rtha
yada rthama
Ġawa l
Ġawa bu
Ġawa sthitaa
Ġawa sthitaana
Ġawa dhiida
Ġkau be
bhii raa
bhii mama
ĠpaaNDawa y
ĠpaaNDawa sha
ĠpaaNDawa shreshhTha
ishhi ma
ishhi Nii
Ġpash uu
Ġchai waaha
Ġchai shwar
pari ye
pari yaana
pari bhra
pari waw
jana i
Ġdasha bhisha
Ġparajaa sha
Ġparajaa yante
dhyaa tma
ishhTaa tmaa
naada ya
nir yuu
nir muktaa
nir mitaa
nir hraada
Ġjana me
Ġjana sthaa
Ġjana ugha
Ġjana syaasya
ddhe ya
Ġarha nti
Ġpuu j
Ġpuu t
Ġpuu ra
Ġpuu ti
Ġpuu ru
Ġewaa wa
Ġewaa ti
Ġewaa dya
Ġewaa hama
Ġewaa bhawata
Ġewaa stu
ĠpaaNDawaa JNa
ĠpaaNDawaa niike
samaa gamya
samaa yukta
samaa wishhTa
anu shaa
anu jaanaami
anu jagmura
Ġpaapa kar
Ġpaapa karmaa
Ġwish ishhT
ithiwii paalaana
Ġaatma nya
Ġaatma nasa
Ġdara daa
Ġdara wyaa
Ġdara kshhyaama
Ġmana se
dyu tima
oti r
sma yanta
Ġdewaa pi
rathaa sha
hkha bhaagi
tre shhwa
waya shwa
Ġsathaa naada
Ġsathaa neshhu
Ġkaura wama
Ġmaama ka
Ġmaama kaa
oshha i
myu ga
mpra y
mpra kaasha
mpra haara
mpra yukta
mpra wartate
kshhe tra
wra ja
wra taama
Ġkaama i
Ġkaama t
mha rshha
mha wada
mha rate
sarwa t
sarwa ira
Ġbuddhi mant
oga kR
oga yukta
kiir tyaa
kiir tanama
Ġshii tama
Ġshii lama
Ġshii lena
maha rshhi
maha rshhe
Ġraagha waaya
raawa ru
raawa yaama
Ġlakshhma Neti
tatra ina
Ġpi pii
Ġpi tusha
Ġpi naaka
gachCha nna
Ġsukha sa
kara ira
sye ndra
pata cha
pata dbhira
tri yeNa
mga wai
kaara ira
iha na
iha cha
iha dratha
karma bhira
Ġdharmaa ta
Ġdharmaa ya
jii w
jii waa
jii muu
Ġpuurwa ira
Ġwiwi kta
Ġwiwi kte
rtaa sha
oha sa
oha nti
Ġtana y
Ġtana yasa
Ġkaala pak
ĠgachCha ntama
Ġana yaa
Ġana la
Ġana ntaa
Ġana wara
Ġana suuyaa
ar bu
Ġshata guNa
ĠbaaNa u
mba rama
mba ndhii
nanda nti
Ġash naati
Ġash weshhu
Ġash raushha
Ġpushh karaa
tsa raa
tsa rura
gii taa
Ġpariya darshana
Ġwishaa rada
Ġii shwaraa
Ġsawar Naa
Ġsawar gya
dasha warshhasahasraaNi
Ġabhya yu
Ġabhya bhaashha
Ġabhya dhika
shhThaa na
waara Nama
waara yana
waara yada
wacha naata
lena iwa
mna raa
kaama sha
kaama yaa
kaama ye
Ġteja si
Ġteja swi
mni bhe
mni hite
mni bhaana
Ġasa N
Ġasa ta
jaana na
jaana pada
Ġparatya wa
Ġparatya bhaa
tasyaa dya
Ġdhii maa
Ġdhii maaJNa
Ġwarta taa
Ġwarta yana
Ġwarta swa
Ġwarta yishhyaami
awa dhyaa
awa ruhya
awa gaahya
awa kiirN
Ġwini sh
Ġwini wR
Ġweda ira
Ġweda wid
Ġdaana waasha
Ġdaana wau
Ġdaana waira
iga sa
iga yaama
iga shaawaa
sahas rasya
Ġaaha ra
Ġaaha tya
ĠichCha ta
ĠichCha nna
ĠjaJNaa taa
ĠjaJNaa timadhye
Ġwana raa
Ġwana daa
Ġraaje ndr
ĠpaaJNchaa laira
ish chara
Ġtaya jya
Ġmahaana se
che rura
obha ma
obha yama
obha yana
Ġati ita
Ġati shhTha
Ġnaya ti
Ġnaya nti
khe na
khe la
Ġbaruu yura
Ġhari yuuthapa
iNu yaana
Ġdarsha ya
Ġdarsha naada
Ġdarsha yishhyaami
Ġwipra m
Ġwipra muchya
Ġwasu matii
Ġgata y
Ġgata ya
Ġgata wya
Ġgata chetasa
Ġgata chetana
Ġgata pratyaaga
ms tuu
naani iwa
Ġwaj raa
Ġwaj rii
Ġwaj rasa
Ġwaj riNa
Ġwaj riNama
mgraa m
shata ghnii
Ġwishha y
Ġwishha yama
Ġwidu sa
Ġwidu rasha
Ġkaar ye
ĠpaaNDu raa
ĠpaaNDu nanda
ĠpaaNDu putreNa
ĠpaaNDu suta
oja sa
oja naa
oja wai
Ġkaunte ye
Ġkaunte yama
Ġkaunte yasya
ara cha
ara dha
ara the
ara th
ara hati
Ġruupa ira
Ġgandha isha
dwi pa
dwi rada
Ġdhi kkR
Ġniha ntu
Ġdawija rshhabha
Ġdawija shreshhThaa
gi Nama
ika yaa
kraa ntau
Ġrathaa shwa
Ġrathaa bhyaa
Ġmuni bhi
Ġmuni shreshhTha
osha ma
osha taa
osha nta
osha ntii
Ġparamaa ma
Ġparamaa stra
Ġshare yaana
Ġshare yasha
asami nna
ih Naata
Ġtasyaa tha
Ġtasyaa maatyaa
Ġapa dhwa
Ġatha ina
ĠtishhTha ta
ĠtishhTha ntu
Ġchatur wi
Ġchatur the
Ġchatur bhisha
Ġsuuta putraa
Ġwidhi wacha
Ġkari yaama
Ġkari shhyaa
Ġkari shhyaama
bhawa ti
bhawa tprasaa
kii ma
kii chak
msaa ma
Ġdaru mama
Ġdaru padasha
jitaa tmaa
Ġanya i
Ġanya isha
Ġkara t
Ġiha ikamanaa
Ġjiiwa taa
mra bdhama
Ġparya N
Ġparya dhaawanta
Ġparya charata
kaana na
Ġshar karaa
Ġsawaa ma
Ġsawaa nya
raNaa ta
raNaa ya
Ġrakshha nti
Ġpii Dayaama
Ġmat taa
Ġmaar gita
Ġmaar jaara
ichCha te
maan ewa
maan wita
maar gama
maar geNa
upa de
upa sR
Ġmaanu shhya
Ġmaheshh waase
Ġshakra pur
Ġshakra saarathi
Ġshai lasya
warshha ma
warshha ira
Ġsarwabhuu tebhya
iddha isha
rat wama
rat nau
Ġbhi sha
Ġbhi itama
Ġbhi kshhura
Ġbhi itasa
Ġparaya taa
Ġparaya chChe
ĠpuNya tama
ĠpuNya jan
ĠpuNya gandhaa
ruupaa Nya
mja lpa
rthaa wa
rthaa sha
kashha ttaa
kashha triyeNa
Ġdhawa sta
Ġdhawa jena
ikshha isha
ikshha muula
ikshha muulama
Ġwane shhwa
Ġshab de
ati bhR
ati thii
pre psu
athaa brawiita
athaa pashyata
athaa ntarikshhe
ija t
ija cha
ija se
Ġawya ktaa
gandha waha
Ġparaha syaa
Ġsamii ritama
Ġdiwa spR
Ġmadhu par
Ġmadhu piN
ĠyajJNa shii
ĠyajJNa sena
ĠChi shhya
ĠdhaartaraashhT re
Ġanta ka
rathi n
kshhiNa u
pnu hi
Ġkaruddha sha
msh ura
msh ritaa
msh itau
ut thaa
ut sma
ut papaata
ut tishhTh
itra waasaway
mpraa tara
taawa kaa
ityaa sha
Ġsatrii bhi
Ġsatrii pu
Ġsatrii Naama
ĠlakshhmaNa sa
ĠlakshhmaNa puurwaja
dbhu t
Ġdawaa para
Ġdawaa reNa
Ġdawaa raaNi
Ġdawaa dashe
baraahma Nya
sau warNa
ihi itama
Ġmuur dhaana
Ġmuur dhaanama
bhaawa sha
Ġkashhu ta
Ġkashhu dr
Ġbhiimasena pur
msi tuma
msi ddhaa
wid waa
wid bhira
Ġsaaya kaanaa
kaar ye
okta puurwa
Ġsahaa chyuta
Ġsahaa nuja
dhawa jama
paaNDa waira
Ġdiwya sa
Ġdiwya darshana
ĠbaraahmaNa sha
ĠbaraahmaNa isha
mwi da
mwi dama
tari dhaa
tari bhira
tari bhisa
tari gartaa
tari garta
tari raatr
Ġyat taana
Ġpaawa ke
paala na
paala yana
ihas thaa
ihas th
Ġmuu laani
Ġshubhaa shubhe
Taa na
bhiishh me
Ġmantra sya
Ġparabh ra
ĠshareshhTha sha
Ġgadaa sha
Ġgadaa yuddhe
Ġwayawa syanti
hwa re
oni sa
Ġsapta dhaa
Ġsapta ite
Ġsapta rshhay
mkhye yaa
mb ike
shcha ryama
Ġama r
Ġama rapra
Ġyukta sya
mta paa
Ġmanya maan
barahma kshha
barahma charya
ĠChaa la
iddhaa ma
iddhaa rtha
iddhaa rthaa
Ġparwa taata
abhya wartanta
abhya shhiJNcha
ogaa sa
hara cha
dara kshhyanti
Ġtara yama
kaala sya
Ġsuta ira
parati bhaa
okshha sya
okshha Nama
Ġwada ta
Ġwada tasa
Ġshha ND
Ġsharaa ntaa
Ġsharaa bhyaa
Ġsharaa wita
ishhii wa
padya nte
Ġpau l
Ġpau r
Ġpau raa
Ġpau tra
Ġpau traa
Ġsahasrasha sa
hkhaa rt
Ġsara yuu
naanaa jana
naanaa deshasamu
Ġduu shhaNa
its naana
Ġaar y
shwaa naa
parii ta
parii ti
Ġwina N
Ġwina dana
Ġnishaa yaa
Ġnishaa karama
dru wu
Ġsame shhyaami
kal pitaa
Ġbabhuuwa tu
Ġbarawii ti
Ġbarawii tu
thena iwa
Ġyashaswi naama
Ġchara nta
Ġnaanaa desha
Ġnaanaa druma
Ġnaanaa praharaNaa
prati m
prati jJNaa
Ġduraa tmaan
mdha sha
mdha sya
Ġkiir ta
Ġkiir Naa
Ġkiir tya
Ġmamaa ra
Ġmamaa ya
Ġnishh phala
Ġudaa wahata
Ġkuntii su
Ġbaahu bhisha
Ġmahaatmaana sa
Ġchinta yaa
yat kR
nai kaanta
Ġwajra kalpa
Ġwajra dhara
Ġsada i
Ġsada si
Ġwarshha shataanya
Ġparatyu pa
Ġparatyu waachaa
Ġkanyaa sha
Ġjaye ya
dita sa
lakshha Nasa
Ġparasa hi
Ġparasa hya
ityu l
Ġshira sya
Ġgar bh
Ġmahataa wishhT
Ġtatraa pya
Ġtatraa siita
Ġpata y
Ġpata ntama
Ġaacha krame
chu krushura
oshhi taama
psa raa
Ġhaa ta
shma ya
shma shru
Ġartha sa
Ġartha wata
Ġutta N
Ġutta raa
opaa yaira
Ġwichi n
shak tyaa
Ġsamut thaa
Ġsamut pann
Ġhema chitra
Ġhema maali
Ġawi shaN
Ġwimu kt
Ġwasa naa
Ġwasa nti
Ġwasa tii
Ġwasa naani
shhTi ma
Ġji ghR
Ġpurushhaa sa
Ġdharm yama
mant rita
Ġshuchi ma
Ġbhar tusa
Ġwaasa sha
Ġrat nasa
Ġdiwyaa bharaNa
Ġraakshhase shhu
Ġnare ndraa
bhuushhi taama
Ġwiiraa Naama
Ġkaruddh ena
bi bhi
bi ndu
bi ndawa
Ġhara na
Ġhara de
Ġhara swa
Ġbhaaryaa yaa
iDha kr
iDha dhanwaa
wu sa
Ġsahitaa sa
Ġmit h
Ġmit raaNaa
Ġmit huna
ĠjaJNaana wijJNaana
Ġwaanara rshhabha
kuu Taa
shab daa
shab de
Ġparabhaa ta
Ġparabhaa wama
Ġnii yate
Ġbalaa balama
samu draa
Ġsahita i
Ġag nera
Ġbahuu naa
dharmaa ta
peta tura
Ġbhe t
Ġshaku naa
Ġshaku nta
Ġshaku nera
Ġrathi nasha
dewaa ha
dewaa pi
Ġphalgu naa
Ġphalgu nama
Ġphalgu nau
pash yaama
darau Naaya
sharii rasya
kawa ch
kalpa ira
Ġnama sha
Ġnama syaamya
Ġsura rshhabha
Ġsura gaNaa
Ġsura sut
Ġgiri ra
Ġgiri gu
Ġgiri wra
Daa ma
mat sya
gaNaa kiirNa
Ġparayaa taa
Ġparayaa nti
Ġnawa tyaa
yudha i
Ġgha Tama
Ġnaaraaya Nasya
Ġkashhatriya sya
hataa shwa
hataa shwaata
waasi naa
Ġwishwa staa
Ġsuraa Naama
Ġsuraa suraa
Ġnaaga pura
Ġnaaga saahwa
Ġyudhya taa
Ġyudhya maanaanaa
wayaa dhi
wayaa sama
wayaa jena
Ġwadhya maaneshhu
waaha naa
Ġchandra sa
Ġchandra suuryau
Ġwas tu
rjuna y
rjuna sya
mada rthama
Ġbii jama
Ġwima r
Ġrau dr
Ġrau dre
Ġrau dreNa
jja ta
mtana we
mtana wasa
Ġala mbala
Ġadhi pati
Ġnira ntarama
ĠkaaJNcha nai
Ġwedaa N
Ġwedaa naa
Ġparwata sa
ama laa
ama bara
ama rshhi
shuu nya
bahu warshha
itii y
raacha raa
Ġmahi shhyaa
anaa dR
rakshha u
waadya nta
Ġapaa wR
Ġud y
Ġud warta
Ġyuddhaa ta
Ġyuddhaa ni
JNjali ma
Ġpariiti maa
satya sya
pad maa
pad manaa
pad bhyaama
Ġwis mR
Ġwis tara
Ġjala daana
Ġchaiwaa tha
Ġchaiwaa nu
Ġchaiwaa pya
ihaspati sam
mghaa taa
naabhi hat
Ġdadaa ha
Ġdadaa si
Ġwiwidhaa sha
Ġpushhpa i
Ġpushhpa wR
Ġpushhpa phalaa
Ġmaanushha maa
Ġmant r
Ġmant re
Ġmant riNaa
Ġchaaru darshanama
chChi nnaa
chitra sen
Ġbhuutaa nya
baahu ka
baahu bhyaa
Ġwasudhaa ma
Ġwasudhaa yaa
mkruddha u
adhi itya
adhi kama
wane shhu
wishha ye
wishha NNa
Ġashwa i
Ġashwa medha
Ġwipraa sa
sarwaa Ni
sarwaa stra
mantra yaama
iddhi ra
iddhi bhi
tatraa pya
tatraa bhishheka
Ġparabha g
Ġdawa ira
Ġwardha yana
kima rthama
Ġsamupaa gata
ichCh reNa
ichCh raada
ichCh raata
mshu kaa
mshu kau
Ġshawe tapa
Ġmahaaya jJNe
Ġkur wii
Ġkur wata
Ġbharaatara sha
Ġsainyaa nya
ska nda
Ġkathaa sha
Ġkathaa bhira
Ġdawe shha
Ġdawe shhTaa
Ġdharu waa
Ġjita swar
paraaya Nama
mcha yama
dhanu sha
Ġjanma prabhR
ishhTama Ni
ishhTama nasa
Ġsattwa wataa
Ġawaapnu yu
Ġsuurya l
Ġsuurya rashmi
duu re
duu raada
Ġlaa la
tapaa p
ĠraashhT raaNi
Ġmahaapraa jJNaa
Ġmahaapraa jJNe
Ġudya taa
Ġraja niima
prabha w
Ġbhaara taanaa
Ġtapaswi naa
Ġtapaswi nama
Ġtapaswi naama
Ġmaanawa ira
suur y
suur yama
suur yaawa
tt w
upaa y
upaa ya
upaa wR
upaa sate
Ġchakra wartii
Ġparatii chii
Ġparatii kshhante
Ġsugriiwa sha
Ġkaaryaa Naa
Ġwet taa
Ġwet tuma
Cha traaNi
pau r
Ġsapar dha
Ġsapar she
Ġsapar shama
shai ney
ĠpaND it
Ġmar tyaa
nujJNaa tuma
puraa Na
Ġju shha
Ġdiwaa nishama
Ġsiddhaa na
Ġsiddhaa naa
Ġsiddhaa rthaa
Ġkaakutstha ma
idh r
idh raasha
wishaa la
wishaa laa
Ġtaras t
Ġtaras ta
Ġtaras taa
Ġtaras winau
Ġap la
Ġkapi la
Ġkapi laa
kaaraa rtha
Ġgaja isha
Ġdhaara yishhyati
agni h
Ġpat nya
Ġkacha ma
Ġkacha sa
Ġaapata taa
Ġuktaa ni
Ġwaaji medhena
Ġshilaa shitaa
Ġtapasa sha
kraama nti
ojana i
wida sa
Ġnaarada sa
NDaa ma
Ġkaara ka
Ġkaara kama
Ġbhuuri shra
Ġlakshha Naa
Ġshaashwa tiima
Ġshaashwa tiira
ĠkhaD gama
Ġnishcha la
Ġnishcha yama
Ġnishcha kraama
sahasra sh
nwaa n
oNaa da
gau ta
gau tam
ĠparaNa taa
Ġkaruu raa
Ġharii ra
Ġharii shwara
pratima u
Ġsaaga rasya
Ġsahasra sh
Ġpashchaa cha
hshaasa naa
mkaa rasa
ohitaa N
Ġtayaa g
Ġtayaa ga
ĠmaNi ma
ĠmaNi widruma
Ġwila pita
Ġshe kura
ĠkuJNja raa
Ġyuyu tsawa
Ġparitya ktuma
ĠpaaNDawe bhya
ĠpaaNDawe yasya
Ġwega waana
ĠChinna sa
Ġkiirti sha
Ġkiirti tama
anta raa
anta ka
odaa raa
odaa hR
orama i
orama ma
oddh uuta
Ġkewa laa
Ġkewa laana
Ġpanna gama
Ġatya ntama
Ġatya rthama
nishcha yama
Ġkal p
Ġkal ewa
Ġkal paa
ĠpuN y
ĠpuN yaama
ishhe sa
ipate sa
gandharwa na
id bhisha
utta maa
Ġpalawa ga
Ġpalawa gaa
tenaa jau
Ġmad baaNa
Ġaapa nne
Ġrakshh yaa
Ġkumaa raaNaa
Ġsahadewa sa
Ġdeha bhede
Ġshaastra dR
Ġwishwaa tmaa
apaa yaaja
hkhe shhu
oktaa r
Ġkuu pe
Ġsaarathi naa
Ġmegha sa
shikhaND i
shikhaND ya
Ġshakti shuula
ani sha
ani la
paJNcha wi
Ġmaru tt
Ġmaru dgaNaa
Ġwat s
Ġwat syasi
Ġparawe shhTuma
Ġmedi nyaa
Ġdharmaartha kushala
Ġdharmaartha kushal
Ġdhawaja isha
Ġhutaasha ne
msya se
shira si
wish eta
maanu shhii
Ġmadra k
ĠpaaNi laaghawama
Ġnaabhi gachChethaa
Ġnaanya thaa
waruu pi
Ġetaa nya
Ġetaa wata
Ġkaarmu kaa
Ġgandharwaa sha
Ġshareya saa
bhiimasena sya
ash waana
jyaa tha
mgha rshha
odhi taa
oge shwara
Ġmatta sa
Ġaashra maa
Ġwaama dewena
ihiita sha
ĠwishhNu ma
igu shaarduula
ishe da
parya pR
nishh yate
nishh kramya
Ġdayuu tena
Ġsudur labhama
Ġdaaru keNa
Ġtattwa jJNa
mkaasha i
okshhya si
Ġuur uu
waraa ha
dayaa waapR
Ġparadii ptama
yenaa pi
wedaa ha
wedaa sha
Ġbhak tisha
Ġpaala yaama
kule ndriya
ishwar yama
hsa raa
oD ya
Ġsatha i
Ġsatha la
wishe shheNa
wishe shhama
Ġshaasa naati
Ġsamupa sthite
Ġsamupa chakrame
Ġmahaabhaagaa sa
Ġkashhetra jJN
waaji bhi
bhar tsa
Ġmaayaa bhira
pushhpa phala
bhuushha Naa
bhuushha Nama
Ġdawitii ye
apra wR
mhaa re
mhaa naama
ogama i
yant y
Ġparyaa ptama
Ġpe tusa
Ġaakaasha sa
Ġyathe ndra
Ġniwe dyaa
Ġniwe shitaa
Ġniwe ditama
Ġtura g
Ġmukhaa da
shikha re
Ġrudra sha
dharme shhu
Ġkausa lya
waasudewa sha
manu shhyeshhu
Ġsap hiitaa
dawaa bhyaa
Ġwisha lya
Ġwisha kalii
Ġkale shama
Ġsamabhi drutaa
mgama i
odya taama
Ġapra dhR
Ġapra meyama
Ġnai rR
Ġdashaa haani
Ġbhaja nte
Ġpaata yitwaa
Ġchaanyaa JNa
odhanaa paraadhena
puujita sha
Ġdarakshhya ti
Ġpadma palaashaa
indra sena
msu shhu
samii ritama
gami shhyanti
Ġwira jaa
Ġwira raama
Ġwinir mita
Ġwinir jitaa
Ġaaya tama
Ġaala yama
Ġsarpa sa
Ġduraasa daa
Ġyathaanyaa yama
Ġmune ra
Ġlabh yate
Ġkeka ya
Ġkeka yaasha
Ġpurushhawyaagh rama
ĠpiiD yate
ĠjayeshhTha sa
ashwatthaa mni
ashwatthaa mana
ochi taama
ud wR
ud bhawa
ushha dha
ushha dhii
Ġwidhaa traa
Ġwidhaa syaami
Ġwinaasha ma
Ġwinaasha ya
Ġnakshha tre
ĠyajJNaa N
ĠyajJNaa rtha
Ġnipaati taa
Ġwayati itaayaa
Ġraakshhasii naa
Ġraakshhasii bhi
myukta sa
myukta ira
Ġgandharwa i
apashya ta
oddha wyama
sra shhTu
Ġpawi traa
Ġparasaa daada
Ġdaitya daanawa
bhawi shhya
Ġdhayaa yanta
Ġkaalaa tyay
Ġnararshhabha u
Ġnararshhabha ma
Ġutsa sarja
ihNa nti
atraa nuwa
parwa taa
Ġdama yanti
Ġniya mya
Ġniya taashana
Ġniraa shaa
chyu taana
Ġrama Niiya
Ġkaashya pasya
laagha wa
sarpa sa
wanaa shwa
Ġpanthaa na
Ġwatsa la
Ġshayaana sya
Ġaakhyaa tu
Ġjagh nire
ishhTake t
ĠpaaNDuputraa na
hkhita u
manya se
sara g
raajaana sha
dadaa ni
Ġparaja jwaala
Ġparamu dita
saatyaki sa
Ġbale ra
kuru te
kuru shhwa
Ġweshma ni
Ġdiip taama
Ġmatsya sya
idaa ma
ichChe ra
pit r
Ġsali le
Ġkashhaa nta
Ġkashhaa ntaa
Ġsubha gaa
itaaJNjali pu
Ġtath yama
Ġbhawishhya ntya
Ġtuu Nii
Ġpushhka raana
Ġpushhka laana
oj jwa
rja wa
rja wama
wadhya maanaa
wadhya maane
Ġsatu ti
Ġsatu twaa
Ġsatu wanti
Ġchari shhyati
Ġchari shhyanti
Ġkama laa
Ġkalpa sahasraaNi
bhraa tra
Ġwaag bhi
Ġtawada rtha
Ġtawada rthama
Ġlabdha lakshhaa
odarama haa
Ġdhaarmi kaa
Ġyatna waana
rchi shhaa
Ġre Nu
dai we
wishhaa dama
wishhTaa na
ĠpaT u
Ġdhu ndhu
Ġparame shhThi
Ġparame shhwaasa
Ġkampa na
Ġkampa te
Ġwaach yaa
Ġdhanwi naama
Ġjaga na
ĠraNaa jirama
shubhaa shubha
anawa gaata
puurwaa bhi
Ġsuutaputra ma
idu naa
mdhi sa
ĠwijJNaa taa
Ġwiche shhTa
Ġwastra ma
Ġparayu jya
Ġparayu ktena
Ġaap syasi
Ġjawal itaana
Ġabhishhe chaya
Ġkurukshhe trama
Ġwidyu jji
Ġrukma paatrii
Ġkhayaa taa
Ġsaubala sha
gma tu
mtaapa sa
rthi na
waak yaani
Ġayu dhyata
Ġayu ddhena
Ġnakula sya
Ġyayaa tera
Ġhar mya
Ġchintaa sh
syaama sa
baah li
Ġarju nena
Ġdhanushh paaNi
Ġdhanushh mataama
Ġkaratu bhira
Ġwaahinii pati
Ġbhaargawa sya
Chaa daya
iNa bind
Ġadharma ta
Ġnayaa yaa
ndi nii
Ġsamanu praapta
Ġbhaashha te
Ġwaishrawa Naa
ĠmushhTi ma
ĠmushhTi naa
ĠmushhTi deshe
Ġkarmaa Nya
Ġdewaraaja sha
Ġjaamadag nyasya
Ġmanyu ma
Ġmanyu naa
ishhabha dhwajama
Ġmatsyaa na
Ġpadmi nii
ĠtiikshhNa isa
Ġpatnii bhyaa
Ġghaati naa
Ġghaati nyaa
dwaa reNa
optaa ra
stama ye
Ġsani g
Ġsane haata
Ġpalaa yana
Ġwishikha ira
ĠparaNi dhaaya
ĠparaNi patya
Ġkali naa
Ġsharaawa yaama
Ġsharaawa yeda
Ġnanda ti
Ġmahaadewa ma
Ġpaati taa
Ġnaaraacha i
ĠparaajJNa sa
Ġyaata naa
Ġyaaja kaa
Ġshukra sya
Ġarthe shhu
mhanaa dena
Ġpiba ti
igapa kshhiNaama
ĠjaJNaati shhu
Ġparaspara kR
Ġpauru shhe
Ġpauru shheNa
Ġsapat naa
Ġsapat nii
Ġchayu t
Ġchayu taa
Ġchayu tama
Ġcharma Naa
Ġparana mya
Ġishhu bhi
Ġishhu bhira
Ġind ii
Ġdhai ryeNa
Ġdhau my
Ġdhau myena
ĠtaaD ita
Ġparatipat ti
Ġbarahmawaa dibhi
Ġdhaaraya ti
Ġdhaaraya nti
ĠbaraahmaNe bhy
ĠraawaNaa tmaja
ihNaa mi
ĠkiriiTi ne
ĠkiriiTi nama
Ġkiicha kena
mm itama
oDa shiima
tti ke
share y
share ya
Ġwiwar jita
Ġparata pta
Ġparata sthe
Ġnada nti
Ġaawa y
ĠaajJNaa payaama
Ġyakshha ira
Ġyakshha raakshhasa
Ġdayu tima
Ġnishha saada
hiina sya
gaara ka
Ġdura tikrama
Ġmusa laani
Ġdehi naama
ĠChuu ra
ĠChuu dra
Ġpishaa cha
jiiwi te
Ġgandhar waasa
Ġbabhuuwu sa
Ġbabhuuwu sha
Ġdhawajaa gre
mtanu sa
Ġmaatali sa
Ġwishwaamit rasya
Ġshatasahas ra
shawa shruu
Ġtapya ti
Ġamaa tyaana
Ġamaa waasyaa
jayaa gh
nirma m
nirma nu
niwesha ne
Ġaaja miiDha
Ġbhayaawa he
Ġbhayaawa haama
Ġgaru tma
Ġhanta wya
Ġhanta wyaa
Ġkarta wy
Ġguhaa ma
Ġnirda gdha
Ġnirda hanna
Ġdhanur weda
Ġdhanur wede
Ġpuujya maana
ĠshhaD bhi
Ġdawijaati shhu
ĠwasishhT hama
Dii kR
artha sya
jwa rama
pla we
pri yaana
madhya stha
dadhaa n
Ġtapta kaaJNchana
Ġpala wama
Ġai shwarama
Ġshawaa pada
Ġdahya maan
saadha ne
Ġrashmi waana
ĠhiraNya kashipu
Ġmunii na
Ġsathuu Na
darupada sya
an weshha
nawa tyaa
shalya sya
Ġkhaa NDawe
Ġtarpa yitwaa
Ġcharaa mi
Ġwishhaa dama
Ġwiddh ya
Ġwasuu na
ĠwaruNa sha
Ġparadyu mn
Ġkaraa bhyaa
Ġdau raat
Ġuchya taama
saatya kira
Ġnaabhya nanda
Ġkaana nama
siddha sa
siddha ye
Ġsaara swa
Ġsaara swat
Ġchikiirshha si
Ġraajaputraa wa
Ġparigha baahu
sheshhaa sa
Ġrud raasa
Ġrud raaNaa
tawara yaa
tawara maaN
Ġnayaweda yana
Ġkarawaa Niiti
ĠwimuJNcha nt
itu kaale
itu parNa
same taa
wisma y
Ġpakshha y
jaTaa su
Ġnataparwa Naa
Ġmahaama tii
Ġmahaabha yaata
Ġnima jja
Ġwaata nunnaa
ĠwaaraNaa wate
Ġsusamaa hitaa
Ġsarwadharma jJNa
Ġsarwadharma wita
ĠmuJNcha ti
shwaratha dwipaa
Ġbaahuu na
Ġpurushhe Neha
Ġsaumadat tira
Ġnarda nti
Ġpadaati bhi
Ġpadaati nama
Ġyuyudhaana sya
ĠgaaNDiiwadha nwaa
msta bhya
uluu ka
tad wana
haari Nii
haari Niima
Ġwipre ndra
Ġwipre bhy
Ġparasuu t
yuyu dhaana
Ġdadyaa cha
Ġsheshha ma
ĠkuNDa lii
Ġparaadur bhuutaa
hasti hast
ghaati na
ĠpuurNaa yat
Ġtiti kshhaa
kiirta yata
Ġwaamadewa sha
aneka shata
ag nera
yakshha raakshhasa
[...]
