{"<s>":0,"<pad>":1,"</s>":2,"<unk>":3,"<mask>":4,"!":5,"\"":6,"#":7,"$":8,"%":9,"&":10,"'":11,"(":12,")":13,"*":14,"+":15,",":16,"-":17,".":18,"/":19,"0":20,"1":21,"2":22,"3":23,"4":24,"5":25,"6":26,"7":27,"8":28,"9":29,":":30,";":31,"<":32,"=":33,">":34,"?":35,"@":36,"A":37,"B":38,"C":39,"D":40,"E":41,"F":42,"G":43,"H":44,"I":45,"J":46,"K":47,"L":48,"M":49,"N":50,"O":51,"P":52,"Q":53,"R":54,"S":55,"T":56,"U":57,"V":58,"W":59,"X":60,"Y":61,"Z":62,"[":63,"\\":64,"]":65,"^":66,"_":67,"`":68,"a":69,"b":70,"c":71,"d":72,"e":73,"f":74,"g":75,"h":76,"i":77,"j":78,"k":79,"l":80,"m":81,"n":82,"o":83,"p":84,"q":85,"r":86,"s":87,"t":88,"u":89,"v":90,"w":91,"x":92,"y":93,"z":94,"{":95,"|":96,"}":97,"~":98,"¡":99,"¢":100,"£":101,"¤":102,"¥":103,"¦":104,"§":105,"¨":106,"©":107,"ª":108,"«":109,"¬":110,"®":111,"¯":112,"°":113,"±":114,"²":115,"³":116,"´":117,"µ":118,"¶":119,"·":120,"¸":121,"¹":122,"º":123,"»":124,"¼":125,"½":126,"¾":127,"¿":128,"À":129,"Á":130,"Â":131,"Ã":132,"Ä":133,"Å":134,"Æ":135,"Ç":136,"È":137,"É":138,"Ê":139,"Ë":140,"Ì":141,"Í":142,"Î":143,"Ï":144,"Ð":145,"Ñ":146,"Ò":147,"Ó":148,"Ô":149,"Õ":150,"Ö":151,"×":152,"Ø":153,"Ù":154,"Ú":155,"Û":156,"Ü":157,"Ý":158,"Þ":159,"ß":160,"à":161,"á":162,"â":163,"ã":164,"ä":165,"å":166,"æ":167,"ç":168,"è":169,"é":170,"ê":171,"ë":172,"ì":173,"í":174,"î":175,"ï":176,"ð":177,"ñ":178,"ò":179,"ó":180,"ô":181,"õ":182,"ö":183,"÷":184,"ø":185,"ù":186,"ú":187,"û":188,"ü":189,"ý":190,"þ":191,"ÿ":192,"Ā":193,"ā":194,"Ă":195,"ă":196,"Ą":197,"ą":198,"Ć":199,"ć":200,"Ĉ":201,"ĉ":202,"Ċ":203,"ċ":204,"Č":205,"č":206,"Ď":207,"ď":208,"Đ":209,"đ":210,"Ē":211,"ē":212,"Ĕ":213,"ĕ":214,"Ė":215,"ė":216,"Ę":217,"ę":218,"Ě":219,"ě":220,"Ĝ":221,"ĝ":222,"Ğ":223,"ğ":224,"Ġ":225,"ġ":226,"Ģ":227,"ģ":228,"Ĥ":229,"ĥ":230,"Ħ":231,"ħ":232,"Ĩ":233,"ĩ":234,"Ī":235,"ī":236,"Ĭ":237,"ĭ":238,"Į":239,"į":240,"İ":241,"ı":242,"Ĳ":243,"ĳ":244,"Ĵ":245,"ĵ":246,"Ķ":247,"ķ":248,"ĸ":249,"Ĺ":250,"ĺ":251,"Ļ":252,"ļ":253,"Ľ":254,"ľ":255,"Ŀ":256,"ŀ":257,"Ł":258,"ł":259,"Ń":260,"aa":261,"ha":262,"ta":263,"ma":264,"ra":265,"ya":266,"sh":267,"wa":268,"sa":269,"na":270,"pa":271,"haa":272,"hi":273,"Ġsa":274,"raa":275,"cha":276,"da":277,"sha":278,"waa":279,"shh":280,"wi":281,"yaa":282,"Ġk":283,"Ġta":284,"Ġpa":285,"taa":286,"Ġcha":287,"ti":288,"Ġb":289,"Ġa":290,"maa":291,"naa":292,"te":293,"ja":294,"ni":295,"Ġd":296,"Ġp":297,"Ġma":298,"uu":299,"ga":300,"ii":301,"Na":302,"shha":303,"Ġwi":304,"ka":305,"Ġwa":306,"la":307,"Ġpara":308,"Ġka":309,"Ġs":310,"shhT":311,"sya":312,"ri":313,"dha":314,"tu":315,"ru":316,"thaa":317,"Ġsha":318,"Naa":319,"tha":320,"Ġna":321,"Ġraa":322,"ita":323,"yu":324,"Ġc":325,"it":326,"Ġaa":327,"bh":328,"Ġya":329,"tra":330,"bhi":331,"ye":332,"dh":333,"re":334,"we":335,"Ġda":336,"Ġi":337,"daa":338,"Ġmahaa":339,"Ġ.":340,"Ġbha":341,"Ġm":342,"Ġpu":343,"kaa":344,"bha":345,"ira":346,"Ġni":347,"ewa":348,"Ġu":349,"jaa":350,"Ġsh":351,"Ġpaa":352,"ch":353,"Ġwaa":354,"saa":355,"Ġba":356,"Ġsar":357,"tama":358,"paa":359,"hii":360,"nu":361,"Ġte":362,"tya":363,"he":364,"mi":365,"Ġtawa":366,"dhi":367,"Ġsu":368,"Ġdha":369,"iwa":370,"Ġtu":371,"nta":372,"Ġga":373,"Ġja":374,"Ġha":375,"Ġra":376,"dhaa":377,"Ġchaa":378,"Ġmaa":379,"Ġg":380,"kshha":381,"pi":382,"rii":383,"rma":384,"shhi":385,"ishhT":386,"kshh":387,"ne":388,"rama":389,"yama":390,"nti":391,"hu":392,"Ġnaa":393,"shhaa":394,"jJ":395,"war":396,"itaa":397,"ND":398,"Ġkaa":399,"chC":400,"wR":401,"laa":402,"ĠkR":403,"ba":404,"Ġe":405,"twaa":406,"Ġku":407,"nama":408,"shhu":409,"Ġyu":410,"Ġparaa":411,"su":412,"mu":413,"Ġsarwa":414,"waana":415,"shaa":416,"pu":417,"si":418,"ena":419,"nd":420,"Ġtaa":421,"hR":422,"bhaa":423,"Ġsama":424,"uur":425,"thi":426,"pra":427,"Ġhi":428,"gaa":429,"kR":430,"Ġsaa":431,"Ġchi":432,"dya":433,"Ġme":434,"tata":435,"Ni":436,"maana":437,"nya":438,"ishh":439,"me":440,"rya":441,"Ġraaja":442,"ruu":443,"isha":444,"huu":445,"msha":446,"Ġdu":447,"JN":448,"tii":449,"nii":450,"rata":451,"Ne":452,"Ġewa":453,"Ġbhaa":454,"wii":455,"shya":456,"traa":457,"rtha":458,"Ġtathaa":459,"tma":460,"Ġpari":461,"NDa":462,"Ġwai":463,"msa":464,"syaa":465,"kha":466,"Ġl":467,"hma":468,"rshha":469,"chi":470,"kta":471,"mya":472,"du":473,"ku":474,"Ġchaiwa":475,"wata":476,"para":477,"Ġbhii":478,"bhuu":479,"Ġyathaa":480,"Ġiwa":481,"Ġsaha":482,"Ġbhuu":483,"chCha":484,"chaa":485,"yaama":486,"di":487,"Ġmu":488,"yate":489,"nna":490,"ĠdR":491,"se":492,"ddha":493,"Ġkar":494,"yata":495,"Ġtata":496,"shwa":497,"gh":498,"raaja":499,"Ġtadaa":500,"wya":501,"itya":502,"Ġdharma":503,"tat":504,"ke":505,"pya":506,"Ġki":507,"jJNaa":508,"kshhi":509,"Ġn":510,"Ġj":511,"odha":512,"de":513,"ĠwR":514,"Ġparati":515,"Ġde":516,"Ġy":517,"Ġsamaa":518,"shhTha":519,"ot":520,"gha":521,"shhya":522,"dR":523,"ĠC":524,"bhira":525,"Ġpuna":526,"bhya":527,"ĠpaaNDa":528,"le":529,"ura":530,"Nama":531,"Ġraajaa":532,"ddh":533,"Ġtatra":534,"Ġsawa":535,"Ġyaa":536,"Ġla":537,"opa":538,"taama":539,"naama":540,"nte":541,"ora":542,"Ġraajana":543,"rwa":544,"Ġbaa":545,"oka":546,"dra":547,"wyaa":548,"Ġdewa":549,"nt":550,"asa":551,"wama":552,"Ġbara":553,"wana":554,"Ġjaa":555,"Ġwaya":556,"itwaa":557,"Ġshara":558,"ndra":559,"Ġwe":560,"shu":561,"dar":562,"kh":563,"Ġdaa":564,"baa":565,"nda":566,"kar":567,"shhe":568,"kra":569,"Ġmaha":570,"ndha":571,"paraa":572,"yaana":573,"Ġtat":574,"pta":575,"tta":576,"Ġapi":577,"Ġtada":578,"ĠpR":579,"ishhTwaa":580,"Ġdar":581,"jJNa":582,"Ġiti":583,"shhThi":584,"eta":585,"hama":586,"yana":587,"bra":588,"Ġsarwe":589,"li":590,"ishhTa":591,"tuma":592,"Ġshu":593,"lama":594,"taana":595,"Ġshaa":596,"reNa":597,"Ġas":598,"dhya":599,"Ġaasa":600,"ryaa":601,"Ġar":602,"yaami":603,"Ġgu":604,"dama":605,"ĠnR":606,"swa":607,"the":608,"Ġanu":609,"Ġabhi":610,"Ġtasya":611,"jya":612,"itama":613,"ipa":614,"dii":615,"ddhi":616,"Ġkashha":617,"th":618,"Ġwar":619,"Ġpuru":620,"Ġsat":621,"JNcha":622,"ge":623,"tmaa":624,"sii":625,"Ġchaapi":626,"ktaa":627,"Ġtawaa":628,"jaya":629,"Ġbhaarata":630,"Ġhaya":631,"mR":632,"yaata":633,"has":634,"Ġyudhi":635,"kshhya":636,"Ġdawi":637,"Ġmama":638,"Nii":639,"waacha":640,"wiita":641,"riya":642,"yena":643,"shhTa":644,"Ġputra":645,"smi":646,"nyaa":647,"Ġpaar":648,"Ġkuru":649,"Ġwacha":650,"Ġbhiima":651,"gu":652,"ju":653,"Ġbarahma":654,"Ġdi":655,"ttama":656,"raahma":657,"Ġdur":658,"rau":659,"shi":660,"Ġraama":661,"she":662,"sama":663,"Nya":664,"ddhaa":665,"tada":666,"smaa":667,"Ġnara":668,"ratha":669,"JNa":670,"gama":671,"wai":672,"Ġupa":673,"ite":674,"Ġwii":675,"bhu":676,"Ġbhawa":677,"oda":678,"Ġkarma":679,"ĠraNe":680,"pe":681,"ĠmR":682,"dewa":683,"Ġsharu":684,"ki":685,"gata":686,"mii":687,"wada":688,"tyaa":689,"iir":690,"hita":691,"Ġbahu":692,"kama":693,"kya":694,"khaa":695,"pati":696,"Ġwara":697,"hya":698,"Ġiwaa":699,"Ġdhar":700,"iti":701,"raana":702,"iN":703,"tena":704,"shhii":705,"Ġparama":706,"Ġgaa":707,"ĠR":708,"sar":709,"Ġche":710,"Ġman":711,"ghaa":712,"Ġabra":713,"Ġmayaa":714,"Ġbharata":715,"Ġkatha":716,"praa":717,"okaa":718,"Ġke":719,"stra":720,"Ġsamu":721,"Ġshi":722,"Ġraakshha":723,"raashhT":724,"bu":725,"Ġmahaaraaja":726,"sR":727,"je":728,"Ġpuur":729,"Ġjii":730,"dhu":731,"Ġsatya":732,"graa":733,"tasya":734,"Ġbu":735,"Ġaha":736,"lii":737,"ntaa":738,"Ġratha":739,"ithi":740,"gra":741,"sthi":742,"yaada":743,"ĠCha":744,"twa":745,"Ġdhaa":746,"ocha":747,"Ġtapa":748,"ĠyudhishhThi":749,"Ġye":750,"Ġtari":751,"tara":752,"atha":753,"bala":754,"ishha":755,"maanaa":756,"Ġsarwaa":757,"tasa":758,"tR":759,"Ġbhiishh":760,"Ġbhawi":761,"Ġnitya":762,"yi":763,"shhwa":764,"Ġbharaa":765,"Ġbaraahma":766,"sthaa":767,"nasa":768,"darsha":769,"Ġnir":770,"Ġchita":771,"ana":772,"putra":773,"pR":774,"oke":775,"Ġsi":776,"riyaa":777,"rshhabha":778,"kshhaa":779,"oNa":780,"Ġshuu":781,"Ġpuraa":782,"gR":783,"yasa":784,"waasa":785,"ĠdhR":786,"warta":787,"bhyaa":788,"isa":789,"oma":790,"yathaa":791,"Ġwid":792,"Naana":793,"JNja":794,"taani":795,"Naama":796,"Ġmahaatma":797,"ruupa":798,"tura":799,"Ġpurushha":800,"abhi":801,"ewama":802,"mit":803,"Ġsamare":804,"Ġpha":805,"Ġupaa":806,"tima":807,"shhyati":808,"reshhTha":809,"Ġru":810,"Ġchida":811,"ĠhR":812,"gni":813,"Ġan":814,"ishya":815,"Ġsai":816,"ĠbhR":817,"Ġmahaabaa":818,"ktwaa":819,"tawa":820,"Ġtawayaa":821,"suu":822,"Ġbala":823,"ĠgR":824,"hata":825,"Ġgh":826,"ntii":827,"raNa":828,"Ġyata":829,"kshhma":830,"Ta":831,"Ġabrawiita":832,"shii":833,"hitaa":834,"Ġbhu":835,"dharma":836,"aha":837,"Ġti":838,"Ġpaartha":839,"Ġnaama":840,"chChaa":841,"bara":842,"krama":843,"ji":844,"puur":845,"Ġsathi":846,"Ġkha":847,"mahaa":848,"Ġpashya":849,"dhwa":850,"Ġida":851,"mjaya":852,"tana":853,"dhe":854,"nena":855,"hura":856,"yuu":857,"od":858,"chChe":859,"mama":860,"tira":861,"Ġpare":862,"Ġwiira":863,"Ġbhaga":864,"Ġpunara":865,"abha":866,"dhar":867,"bhe":868,"tapa":869,"Ġshak":870,"api":871,"dur":872,"Ġparaap":873,"sena":874,"tau":875,"tathaa":876,"mpa":877,"Ġdii":878,"ishhya":879,"ntya":880,"JNchaa":881,"puu":882,"tr":883,"Ġwayaa":884,"Ġsau":885,"Ġtena":886,"Ġpar":887,"Ġmahii":888,"rta":889,"Ġtama":890,"Ġsharii":891,"Ġsahas":892,"sti":893,"wasa":894,"Ġtaana":895,"rasa":896,"Ġut":897,"Ġuwaacha":898,"ida":899,"Ġparii":900,"ishhNa":901,"Ġt":902,"ĠpaJNcha":903,"Ġkaru":904,"stha":905,"Ġsuu":906,"Ġtii":907,"sawa":908,"kru":909,"thaiwa":910,"Ġbhawe":911,"shra":912,"Ġdhanu":913,"pashya":914,"shhTaa":915,"Ġyada":916,"juna":917,"yada":918,"Ġch":919,"Ġdhana":920,"Ġawa":921,"Ġpitaa":922,"Ġtawama":923,"Ġkau":924,"Ġsharutwaa":925,"bhii":926,"yeta":927,"Ġtaata":928,"ĠpaaNDawa":929,"ishhi":930,"dhipa":931,"dana":932,"Ġpash":933,"Ġchai":934,"Ġpaarthi":935,"pari":936,"kaasha":937,"lya":938,"ras":939,"jana":940,"Ġdasha":941,"odhana":942,"Ġparajaa":943,"dhyaa":944,"ĠjaJ":945,"ishhTaa":946,"naada":947,"ĠyudhishhThira":948,"kt":949,"nir":950,"tatasa":951,"bhR":952,"Ġjana":953,"raasa":954,"raaNi":955,"wita":956,"ddhe":957,"Ġarha":958,"Ġpuu":959,"dhR":960,"Ġewaa":961,"ghra":962,"ĠpaaNDawaa":963,"smina":964,"samaa":965,"anu":966,"rasya":967,"rshhi":968,"Ġpaapa":969,"Ġwish":970,"Ġyuddha":971,"ithiwii":972,"Ġsadaa":973,"naata":974,"tmaana":975,"man":976,"rita":977,"Ġshat":978,"Ġaatma":979,"Ġdara":980,"Ġmana":981,"dyu":982,"oti":983,"sma":984,"Ġmahaaratha":985,"Ġdewaa":986,"rathaa":987,"Ġnaraa":988,"aya":989,"hkha":990,"sta":991,"tre":992,"waya":993,"par":994,"Ġsathaa":995,"maaNa":996,"Ġkaura":997,"ĠpaaND":998,"Ġbhiishhma":999,"yau":1000,"Ġmahe":1001,"Ġwaakya":1002,"Ġmaama":1003,"Nena":1004,"yura":1005,"saadya":1006,"oshha":1007,"raama":1008,"Ġchana":1009,"myu":1010,"mpra":1011,"Ġraawa":1012,"kshhe":1013,"wra":1014,"Ġse":1015,"Ġkaama":1016,"mha":1017,"rai":1018,"raaya":1019,"uula":1020,"sarwa":1021,"itaraashhT":1022,"Ġbuddhi":1023,"oga":1024,"daana":1025,"kiir":1026,"ptaa":1027,"Ġukta":1028,"Ġshii":1029,"maha":1030,"rasha":1031,"Ġawaa":1032,"rad":1033,"shreshhTha":1034,"sana":1035,"tur":1036,"Ġraagha":1037,"mbha":1038,"raawa":1039,"Ġnish":1040,"Ġjanaa":1041,"Ġlakshhma":1042,"Da":1043,"swi":1044,"niima":1045,"ĠshR":1046,"ntu":1047,"tatra":1048,"Ġpi":1049,"gachCha":1050,"Ġsukha":1051,"yasha":1052,"kara":1053,"Ġkashhi":1054,"jJN":1055,"meNa":1056,"lyaa":1057,"ntama":1058,"sye":1059,"pata":1060,"nnaa":1061,"tri":1062,"Ġmaana":1063,"ĠkarNa":1064,"mga":1065,"kaara":1066,"Ġeshha":1067,"jita":1068,"katha":1069,"ottama":1070,"iha":1071,"pii":1072,"karma":1073,"Ġbharatarshhabha":1074,"lu":1075,"Ġuktwaa":1076,"Ġwaana":1077,"khyaa":1078,"Ġdharmaa":1079,"jii":1080,"Ġitya":1081,"raaNaa":1082,"Ġyasha":1083,"bhuuta":1084,"Ġpuurwa":1085,"Ġwiwi":1086,"Ġdarau":1087,"rtaa":1088,"smaada":1089,"oha":1090,"Ġtana":1091,"Ġkaala":1092,"nye":1093,"sattama":1094,"ĠgachCha":1095,"Ġana":1096,"pha":1097,"Ġetada":1098,"dyate":1099,"ar":1100,"lpa":1101,"Ġshata":1102,"ĠbaaNa":1103,"Dha":1104,"apa":1105,"mba":1106,"yitwaa":1107,"nanda":1108,"Ġash":1109,"Ġpushh":1110,"tsa":1111,"shhyaami":1112,"Ġsii":1113,"gii":1114,"taanaa":1115,"Ġsarwaana":1116,"dhaana":1117,"Ġpariya":1118,"sat":1119,"Ġwishaa":1120,"Ġyadi":1121,"wena":1122,"Ġsharai":1123,"Ġii":1124,"Ġsawar":1125,"dasha":1126,"Ġabhya":1127,"shhThaa":1128,"paata":1129,"mshaya":1130,"waara":1131,"taasha":1132,"Ġahama":1133,"Ġparawi":1134,"wesha":1135,"Ġdury":1136,"rha":1137,"dhye":1138,"bhau":1139,"Ġwaak":1140,"dyaa":1141,"wacha":1142,"Ġkasha":1143,"shwara":1144,"Ġwachana":1145,"Ġshatru":1146,"lena":1147,"mna":1148,"Ġtap":1149,"Ġputraa":1150,"kaama":1151,"Ġteja":1152,"mni":1153,"itR":1154,"Ġyatra":1155,"hit":1156,"Ġasa":1157,"Ġadya":1158,"jaana":1159,"shheNa":1160,"grii":1161,"Ġparatya":1162,"Ġteshhaa":1163,"tasyaa":1164,"Ġdhii":1165,"rutwaa":1166,"Ġwarta":1167,"awa":1168,"Ġwini":1169,"Ġweda":1170,"Ġdaana":1171,"iga":1172,"sahas":1173,"Ġaaha":1174,"ĠichCha":1175,"ĠjaJNaa":1176,"Ġwana":1177,"eshha":1178,"Ġraaje":1179,"ĠpaaJNchaa":1180,"ish":1181,"mita":1182,"Ġtaya":1183,"Ġmahaana":1184,"che":1185,"chyate":1186,"gaama":1187,"rd":1188,"hana":1189,"Ġbh":1190,"Ġsarwama":1191,"jJNe":1192,"sura":1193,"obha":1194,"Ġati":1195,"teshhu":1196,"dhana":1197,"Ġnaya":1198,"ttamama":1199,"muu":1200,"mau":1201,"ishama":1202,"khe":1203,"Ġr":1204,"wara":1205,"itta":1206,"Ġbaruu":1207,"Ġhari":1208,"iNu":1209,"Ġdarsha":1210,"smaata":1211,"wanta":1212,"shhata":1213,"Ġwipra":1214,"saada":1215,"Ġchaapya":1216,"Ġraajendra":1217,"Ġwasu":1218,"shhTu":1219,"Ġgata":1220,"Ġbhawishhyati":1221,"Ġmahaabaah":1222,"ms":1223,"nwi":1224,"ok":1225,"Ġpati":1226,"naani":1227,"Ġwaj":1228,"dhama":1229,"Ġaash":1230,"mgraa":1231,"nau":1232,"shata":1233,"Nasya":1234,"Ġwishha":1235,"Ġwidu":1236,"Ġkaar":1237,"ĠpaaNDu":1238,"iwaa":1239,"chara":1240,"Ġeka":1241,"oja":1242,"Ġhe":1243,"ĠsamR":1244,"Ġguru":1245,"Ġkaunte":1246,"ara":1247,"treNa":1248,"Ġmanu":1249,"Ġaasii":1250,"Ġpaarthiwa":1251,"ndhaa":1252,"Ġruupa":1253,"Ġgandha":1254,"dwi":1255,"dau":1256,"Ġdhi":1257,"bhisha":1258,"Ġniha":1259,"Ġdawija":1260,"Ġwiirya":1261,"Ġphala":1262,"Ġbhaweta":1263,"gi":1264,"gena":1265,"ika":1266,"kshhu":1267,"kraa":1268,"yasya":1269,"Ġrathaa":1270,"traaNi":1271,"Ġmuni":1272,"osha":1273,"tai":1274,"Ġpate":1275,"Ġparamaa":1276,"Ġshare":1277,"Ġjaya":1278,"Ġsarwasha":1279,"asami":1280,"Ġmahata":1281,"Ġkashhat":1282,"Ġtuur":1283,"ih":1284,"shru":1285,"Ġtasyaa":1286,"Ġapa":1287,"Ġatha":1288,"daaya":1289,"ĠtishhTha":1290,"daya":1291,"jama":1292,"Ġmahaabala":1293,"taasa":1294,"Ġchatur":1295,"tishhTha":1296,"Ġasya":1297,"Ġbabhuu":1298,"Ġsuuta":1299,"nR":1300,"yishh":1301,"Ġwidhi":1302,"Ġkari":1303,"bhawa":1304,"rtaraashhT":1305,"kii":1306,"msaa":1307,"odhaa":1308,"itai":1309,"Ġdaru":1310,"wiida":1311,"jitaa":1312,"rada":1313,"pat":1314,"ntata":1315,"Ġarhasi":1316,"Ġanya":1317,"teshhaa":1318,"Ġkara":1319,"Ġiha":1320,"Ġyuddhe":1321,"Ġjiiwa":1322,"mra":1323,"Ġparya":1324,"kaana":1325,"Ġwaakyama":1326,"raya":1327,"pate":1328,"shhN":1329,"Ġari":1330,"ĠsR":1331,"Ġshar":1332,"Ġmahaarathaa":1333,"gaana":1334,"Ġbhuuta":1335,"Ġkima":1336,"Ġmahaatmana":1337,"mkh":1338,"tyu":1339,"naya":1340,"Ġsawaa":1341,"dhishhThi":1342,"oN":1343,"rthe":1344,"raNaa":1345,"raaj":1346,"Ġtathaiwa":1347,"Ġparas":1348,"Ġsuur":1349,"Ġraajya":1350,"Ġrakshha":1351,"rthama":1352,"Ġbhagawaana":1353,"ik":1354,"Ġsanaa":1355,"Ġpii":1356,"Ġmat":1357,"bhawata":1358,"Ġmaar":1359,"ichCha":1360,"kr":1361,"Ġraaghawa":1362,"maan":1363,"maar":1364,"Ġkesha":1365,"draa":1366,"upa":1367,"Ġnu":1368,"uuna":1369,"Ġgatwaa":1370,"Ġmaanu":1371,"Ġmaheshh":1372,"myuge":1373,"ĠpitR":1374,"ritaa":1375,"Ġshakra":1376,"bhy":1377,"putraa":1378,"wyaadha":1379,"chChaami":1380,"ina":1381,"pada":1382,"Ġtau":1383,"Ġshai":1384,"laana":1385,"Ġchitra":1386,"khaND":1387,"kula":1388,"tasha":1389,"weda":1390,"chya":1391,"warshha":1392,"Ġsarwabhuu":1393,"ghna":1394,"wyaaghra":1395,"dhii":1396,"Ġbhawaana":1397,"Ġwaasu":1398,"Ġsenaa":1399,"iddha":1400,"ny":1401,"rat":1402,"raira":1403,"shhye":1404,"yaasa":1405,"taapa":1406,"Ġbhi":1407,"Ġparaya":1408,"Ġkawa":1409,"bhisa":1410,"ĠpuNya":1411,"ruupaa":1412,"gataa":1413,"Ġgi":1414,"Ġkaarya":1415,"mja":1416,"rthaa":1417,"kashha":1418,"Ġdhawa":1419,"ikshha":1420,"shhyaa":1421,"Ġwane":1422,"Ġshab":1423,"kshhyaami":1424,"ati":1425,"nma":1426,"pre":1427,"naana":1428,"gamya":1429,"Ġparabhu":1430,"Ġparaapya":1431,"chCheda":1432,"mkru":1433,"naasha":1434,"cheta":1435,"itaana":1436,"mukha":1437,"rwaa":1438,"raasha":1439,"Ġathaa":1440,"Ġkaale":1441,"athaa":1442,"hmaa":1443,"ija":1444,"rdha":1445,"Ġsayaada":1446,"ĠbR":1447,"Ġawya":1448,"gandha":1449,"Ġraajaana":1450,"Ġraakshhasa":1451,"chii":1452,"maaNaa":1453,"Ġparaha":1454,"Ġuttamama":1455,"chCh":1456,"okaana":1457,"Ġraakshhasaa":1458,"ihya":1459,"taya":1460,"Ġsamii":1461,"Ġdiwa":1462,"Ġmadhu":1463,"gara":1464,"ĠyajJNa":1465,"Ġsahasaa":1466,"ĠChi":1467,"ĠdhaartaraashhT":1468,"Ġanta":1469,"Ġhata":1470,"Ġsamantata":1471,"Ġmahada":1472,"rathi":1473,"Ġtacha":1474,"Ġkuruu":1475,"Ġbhuumi":1476,"kshhiNa":1477,"pnu":1478,"Ġani":1479,"Ġgataa":1480,"Ġkaruddha":1481,"msh":1482,"ut":1483,"Ġne":1484,"itra":1485,"balaa":1486,"mpraa":1487,"taawa":1488,"Naira":1489,"ityaa":1490,"otta":1491,"Ġsatrii":1492,"bhiima":1493,"ĠlakshhmaNa":1494,"nandana":1495,"dbhu":1496,"mata":1497,"haara":1498,"shhpa":1499,"Ġdawaa":1500,"baraahma":1501,"Ġkula":1502,"ishhNaa":1503,"sai":1504,"sau":1505,"tejaa":1506,"riNa":1507,"Ġidama":1508,"ishhTha":1509,"Ġkusha":1510,"shhyanti":1511,"abhaya":1512,"dury":1513,"mgraame":1514,"ihi":1515,"ijya":1516,"onya":1517,"yishhya":1518,"Ġraaj":1519,"Ġyama":1520,"Ġmuur":1521,"Ġsumahaa":1522,"ndriya":1523,"bhaawa":1524,"bdha":1525,"maama":1526,"Ġkashhu":1527,"ruwa":1528,"trama":1529,"saama":1530,"Ġbhuutwaa":1531,"Ġbhiimasena":1532,"Ġsainya":1533,"ete":1534,"gmu":1535,"mwR":1536,"parama":1537,"shaasa":1538,"msi":1539,"muur":1540,"yadi":1541,"wid":1542,"Ġpita":1543,"yuta":1544,"yudhishhThi":1545,"Ġdaiwa":1546,"Ġsaaya":1547,"ĠbaraahmaNaa":1548,"dat":1549,"Ġchak":1550,"Ġasi":1551,"kaar":1552,"ĠsuhR":1553,"ĠCharutwaa":1554,"abara":1555,"itha":1556,"okta":1557,"Ġsahaa":1558,"yaasha":1559,"dhawa":1560,"paaNDa":1561,"ishhTadyu":1562,"Ġdiwya":1563,"ĠbaraahmaNa":1564,"mwi":1565,"Ġyena":1566,"tari":1567,"shama":1568,"Ġtasmina":1569,"Ġyat":1570,"Ġpaawa":1571,"paala":1572,"ihas":1573,"nuu":1574,"Ġsatata":1575,"Ġaasaadya":1576,"dhuu":1577,"Ġmuu":1578,"Ġshubhaa":1579,"sthaaya":1580,"Taa":1581,"tacha":1582,"shR":1583,"thama":1584,"yukta":1585,"bhiishh":1586,"Ġmantra":1587,"puurwa":1588,"Ġsiitaa":1589,"eka":1590,"prama":1591,"Ġpad":1592,"Ġwidyate":1593,"ĠwishhN":1594,"Ġparabh":1595,"ruta":1596,"ĠshareshhTha":1597,"jaanaa":1598,"Ġgadaa":1599,"Ġparaapta":1600,"Ġtaawa":1601,"wiirya":1602,"Ġwayawa":1603,"ĠbharaatR":1604,"hwa":1605,"mbh":1606,"oni":1607,"staa":1608,"yanti":1609,"Ġsabhaa":1610,"Ġsapta":1611,"Ġetata":1612,"etada":1613,"Ġbhawati":1614,"buddhi":1615,"Ġnaraadhipa":1616,"griiwa":1617,"Ġkaunteya":1618,"mkhye":1619,"ktama":1620,"mb":1621,"shcha":1622,"Ġama":1623,"Ġagni":1624,"reshhu":1625,"Ġyukta":1626,"Ġjiiwi":1627,"radwaa":1628,"huur":1629,"mta":1630,"Ġmanya":1631,"reta":1632,"bhama":1633,"barahma":1634,"mtapa":1635,"Ġanaa":1636,"itada":1637,"putr":1638,"Ġtatasa":1639,"ĠChaa":1640,"Nyaa":1641,"dwa":1642,"iddhaa":1643,"ota":1644,"Ġparwa":1645,"ĠaN":1646,"Ġdisha":1647,"ntara":1648,"Ġchaasya":1649,"Ġbaruuhi":1650,"abhya":1651,"ogaa":1652,"hara":1653,"saha":1654,"dara":1655,"Ġtara":1656,"ĠraajJNaa":1657,"Ġmahaatejaa":1658,"kaala":1659,"Ġuchyate":1660,"Ġsuta":1661,"Ġgati":1662,"parati":1663,"okshha":1664,"mana":1665,"gada":1666,"Ġwada":1667,"yeshhu":1668,"laani":1669,"shhyasi":1670,"dena":1671,"wyama":1672,"Ġshha":1673,"yati":1674,"raakshha":1675,"karama":1676,"Ġsharaa":1677,"Ġmahaabhaa":1678,"Ġwaide":1679,"syaami":1680,"karNa":1681,"Ġpitaamaha":1682,"ahama":1683,"ishhii":1684,"mbu":1685,"watii":1686,"pama":1687,"padya":1688,"Ġpau":1689,"kai":1690,"Ġwaraa":1691,"Ġkashhe":1692,"Ġtaama":1693,"Ġsahasrasha":1694,"ĠtuurNa":1695,"hkhaa":1696,"yanta":1697,"Ġsara":1698,"raada":1699,"naanaa":1700,"Ġduu":1701,"rishha":1702,"its":1703,"Ġaar":1704,"itaama":1705,"shwaa":1706,"parii":1707,"raata":1708,"maane":1709,"shhama":1710,"Ġwina":1711,"lawa":1712,"Ġparasha":1713,"Ġnishaa":1714,"bhaashhata":1715,"Ġchina":1716,"sarwe":1717,"ghaana":1718,"phala":1719,"dru":1720,"mdama":1721,"twama":1722,"wanti":1723,"Ġsame":1724,"kal":1725,"Ġbhaya":1726,"Ġmaarishha":1727,"Ġnaasti":1728,"warti":1729,"warNa":1730,"pura":1731,"raajasya":1732,"sthita":1733,"Ġmahaatmanaa":1734,"Ġtiikshh":1735,"Ġbabhuuwa":1736,"tathaiwa":1737,"raajaa":1738,"maaN":1739,"Ġwiwyaadha":1740,"shaana":1741,"tmana":1742,"jJNaaya":1743,"Ġbarawii":1744,"thena":1745,"Ġtapasaa":1746,"ishyate":1747,"ĠraawaNa":1748,"Ġyashaswi":1749,"adya":1750,"hyaa":1751,"lgu":1752,"myaa":1753,"nyama":1754,"¤ģ":1755,"à¤ģ":1756,"Ġhii":1757,"Ġchara":1758,"Ġbhartaa":1759,"ishhTyaa":1760,"Ġnaanaa":1761,"prati":1762,"Ġduraa":1763,"Ġwiir":1764,"mitra":1765,"Ġdaraupa":1766,"mdha":1767,"raaTa":1768,"Ġkiir":1769,"Ġapya":1770,"Ġmamaa":1771,"kasa":1772,"Ġnar":1773,"Ġiw":1774,"Ġnishh":1775,"Ġudaa":1776,"wartata":1777,"Ġkuntii":1778,"Ġbaahu":1779,"Ġsukhama":1780,"owi":1781,"jasa":1782,"ĠshaN":1783,"yeNa":1784,"Ġmahaatmaana":1785,"Ġchinta":1786,"Ġwaasudewa":1787,"ndh":1788,"straa":1789,"yii":1790,"Ġw":1791,"yat":1792,"shrama":1793,"wataa":1794,"nai":1795,"pare":1796,"padaa":1797,"Ġbi":1798,"Ġaadaaya":1799,"Ġdat":1800,"Ġputr":1801,"tyaki":1802,"ddhwaa":1803,"Ġwajra":1804,"Ġwiiryawaana":1805,"asi":1806,"ipaa":1807,"nwa":1808,"ohaa":1809,"pn":1810,"rNa":1811,"tasmaada":1812,"wat":1813,"Ġsada":1814,"wikrama":1815,"Ġmati":1816,"Ġwarshha":1817,"ĠparakR":1818,"Ġparatyu":1819,"Ġkanyaa":1820,"Ġpura":1821,"Ġjaye":1822,"Ġsawarga":1823,"dita":1824,"kacha":1825,"lakshha":1826,"Ġparasa":1827,"syati":1828,"ityu":1829,"Ġshira":1830,"Ġgar":1831,"shhaaNi":1832,"Ġsaadhu":1833,"chaarya":1834,"kshhita":1835,"Ġmahataa":1836,"ĠguNa":1837,"yishhyaami":1838,"tawaa":1839,"nara":1840,"Ġtatraa":1841,"Ġpata":1842,"Ġwinaa":1843,"Ġraam":1844,"itti":1845,"Ġaacha":1846,"ĠichChaami":1847,"Ġpuras":1848,"kaaN":1849,"chu":1850,"Ġgami":1851,"wardha":1852,"thita":1853,"Ġraajanna":1854,"graaha":1855,"dbhira":1856,"oshhi":1857,"psa":1858,"wrata":1859,"Ġhaa":1860,"yataa":1861,"shma":1862,"waada":1863,"Ġartha":1864,"Ġyasya":1865,"Ġutta":1866,"shhaama":1867,"Ġbarahmaa":1868,"Ġastra":1869,"Ġbhiimase":1870,"dr":1871,"opaa":1872,"st":1873,"wala":1874,"shana":1875,"Ġaya":1876,"maaNi":1877,"gar":1878,"Nau":1879,"Ġwichi":1880,"ĠraajJNa":1881,"Ġaasthaaya":1882,"chaara":1883,"kramya":1884,"brawiita":1885,"Ġcheda":1886,"Ġaatmana":1887,"Ġmanasaa":1888,"wal":1889,"shak":1890,"Ġyacha":1891,"Ġdadarsha":1892,"Ġmahaatmaa":1893,"Ġtawayi":1894,"Ġpurushh":1895,"ĠshikhaND":1896,"graha":1897,"Ġany":1898,"Ġpashyaami":1899,"rduula":1900,"kena":1901,"manaa":1902,"shre":1903,"Ġwibh":1904,"Ġwak":1905,"Ġihaa":1906,"siida":1907,"Ġsamut":1908,"Ġhema":1909,"bR":1910,"kte":1911,"ĠtR":1912,"harshha":1913,"Ġawi":1914,"Ġwimu":1915,"karshha":1916,"Ġwasa":1917,"shhTi":1918,"Ġji":1919,"Ġsawaya":1920,"Ġpurushhaa":1921,"Ġwachanama":1922,"Ġdharm":1923,"Ġmanye":1924,"Ġmahaabaahu":1925,"ĠdarashhTu":1926,"Ġkeshawa":1927,"smaana":1928,"mant":1929,"Ġwishe":1930,"kasya":1931,"ĠparawR":1932,"Ġjagata":1933,"warNaa":1934,"kut":1935,"Ġshuchi":1936,"hittwaa":1937,"Ġchakre":1938,"rdana":1939,"shruu":1940,"panna":1941,"Ġmayi":1942,"Ġwiddhi":1943,"Ġkalyaa":1944,"shhTh":1945,"ruNa":1946,"ruwana":1947,"Ġhatwaa":1948,"ndriyaa":1949,"Ġpariyaa":1950,"Ġsawayama":1951,"wartate":1952,"rshhe":1953,"taira":1954,"Ġsamya":1955,"waarya":1956,"kau":1957,"kampa":1958,"Ġbhar":1959,"Ġwaasa":1960,"Ġrat":1961,"Ġsarwal":1962,"kshhitaa":1963,"Ġsamaasaadya":1964,"Ġdiwyaa":1965,"Ġraakshhase":1966,"Ġdharmaatmaa":1967,"bhiishhma":1968,"kshhii":1969,"Ġhu":1970,"Ġtaira":1971,"Ġanii":1972,"gatama":1973,"Ġkadaa":1974,"Ġnare":1975,"Ġsusa":1976,"bhuushhi":1977,"ĠlaN":1978,"Ġpaarthaa":1979,"Ġwiiraa":1980,"Ġkaruddh":1981,"Ġdhanura":1982,"smai":1983,"bi":1984,"stya":1985,"Ġyasa":1986,"Ġbhara":1987,"Ġpur":1988,"Ġhara":1989,"Ġhataa":1990,"Ġdushh":1991,"Ġbhaaryaa":1992,"Ġbhuumau":1993,"Ġtejasaa":1994,"iDha":1995,"kira":1996,"wu":1997,"Ġuu":1998,"yacha":1999,"Ġsahitaa":2000,"dawi":2001,"shaN":2002,"maani":2003,"naaya":2004,"jagaama":2005,"Ġmit":2006,"Ġnihata":2007,"Ġwaayu":2008,"Ġbalama":2009,"dhaaya":2010,"NDii":2011,"Ġete":2012,"Ġekaa":2013,"opama":2014,"Ġasmaa":2015,"Ġtawaama":2016,"abhawata":2017,"ĠjaJNaana":2018,"Ġwaanara":2019,"Ġaahawe":2020,"hk":2021,"kuu":2022,"osa":2023,"oshhaa":2024,"yatra":2025,"shab":2026,"nira":2027,"Ġparabhaa":2028,"tusa":2029,"rura":2030,"Ġnii":2031,"Ġwaapi":2032,"Ġbalaa":2033,"tmaja":2034,"Ġkashhatra":2035,"Ġdawijaa":2036,"aga":2037,"ayama":2038,"wy":2039,"mayaa":2040,"mataa":2041,"samu":2042,"haana":2043,"Ġsahita":2044,"Ġag":2045,"Ġdiir":2046,"Ġmadhye":2047,"Ġwach":2048,"yudhaa":2049,"wega":2050,"Ġubhau":2051,"Ġbahuu":2052,"paada":2053,"pitaa":2054,"balama":2055,"Ġbhuwi":2056,"dharmaa":2057,"Ġarhati":2058,"piiD":2059,"ditya":2060,"ithaa":2061,"owaacha":2062,"peta":2063,"plu":2064,"waas":2065,"wishhTa":2066,"Ġbhe":2067,"jagmu":2068,"riyama":2069,"Ġshaku":2070,"paaJNchaa":2071,"Ġrathi":2072,"Ġkurwa":2073,"maanasya":2074,"chita":2075,"dewaa":2076,"ĠkarmaNaa":2077,"okeshhu":2078,"Ġphalgu":2079,"mena":2080,"pita":2081,"pash":2082,"darau":2083,"shara":2084,"sharii":2085,"kawa":2086,"kalpa":2087,"Ġshastra":2088,"Ġnama":2089,"nute":2090,"Ġsura":2091,"mukhaa":2092,"Ġsaardha":2093,"chinta":2094,"ĠpaaNDawaana":2095,"drawata":2096,"thya":2097,"Ġkashhipra":2098,"Ġparasparama":2099,"Ġgiri":2100,"Daa":2101,"bdh":2102,"ndhu":2103,"obhi":2104,"mat":2105,"gaNaa":2106,"Ġparayaa":2107,"Ġnawa":2108,"yudha":2109,"Ġyana":2110,"nura":2111,"Ġgha":2112,"Ġnaaraaya":2113,"ndraa":2114,"dura":2115,"senaa":2116,"kshhiNaa":2117,"ĠyudhishhThirama":2118,"Ġshuuraa":2119,"puuja":2120,"wrataa":2121,"Ġkashhatriya":2122,"dre":2123,"ibhi":2124,"nwita":2125,"hataa":2126,"chakra":2127,"waasi":2128,"yaani":2129,"Ġabha":2130,"jasaa":2131,"Ġwishwa":2132,"Ġparawa":2133,"Ġsuraa":2134,"Ġnaaga":2135,"Ġyudhya":2136,"mukh":2137,"Ġsarwat":2138,"dina":2139,"Ġmuhuur":2140,"Ġjaata":2141,"Ġarjuna":2142,"Ġraamasya":2143,"Ġcheta":2144,"ishhaa":2145,"ry":2146,"wayaa":2147,"waasaa":2148,"widha":2149,"Ġtasmaada":2150,"Ġwadhya":2151,"Ġaahura":2152,"yeda":2153,"Ġuta":2154,"ntau":2155,"kshhwa":2156,"Ġbhuuya":2157,"ntyaa":2158,"Ġsarweshhaa":2159,"ishhTadyumna":2160,"Dhaa":2161,"Nu":2162,"adaya":2163,"ditaa":2164,"ndaa":2165,"ohita":2166,"okya":2167,"yanna":2168,"waaha":2169,"Ġchandra":2170,"Ġwas":2171,"lasa":2172,"syanti":2173,"Ġshakya":2174,"Ġnadii":2175,"Ġbali":2176,"hena":2177,"Ġjagaama":2178,"Ġmaata":2179,"Ġpurushharshhabha":2180,"taparwa":2181,"ĠbaaNaira":2182,"Ġmaheshhwaasa":2183,"gna":2184,"ip":2185,"priya":2186,"rjuna":2187,"Ġri":2188,"mada":2189,"datta":2190,"wiira":2191,"Ġbii":2192,"Ġatra":2193,"Ġwima":2194,"kasha":2195,"Ġparada":2196,"Ġkasya":2197,"Ġbaha":2198,"Ġtumu":2199,"ĠgachChe":2200,"Ġrau":2201,"Ġena":2202,"Ġnityama":2203,"Ġrudhi":2204,"Ġshariimaana":2205,"Ġuktasa":2206,"Nira":2207,"ashwa":2208,"jja":2209,"mtana":2210,"rshh":2211,"trii":2212,"padyate":2213,"Ġsayaata":2214,"yaawa":2215,"Ġchakru":2216,"Ġala":2217,"Ġadhi":2218,"gat":2219,"ĠparahR":2220,"ruNaa":2221,"Ġnira":2222,"Ġgara":2223,"ĠkaaJNcha":2224,"Ġyuktaa":2225,"shaarduula":2226,"ndr":2227,"okasya":2228,"Ġwedaa":2229,"Ġwegena":2230,"Ġparwata":2231,"ĠpaaNDawaanaa":2232,"apaya":2233,"ama":2234,"gdha":2235,"hawe":2236,"raN":2237,"shuu":2238,"witaa":2239,"Nasa":2240,"laira":2241,"rushha":2242,"Ġbalii":2243,"Ġgatima":2244,"bahu":2245,"Ġhita":2246,"desha":2247,"Ġlabha":2248,"sminna":2249,"ĠutsR":2250,"Ġbhaweda":2251,"Ġpuuja":2252,"itaraashhTra":2253,"ĠichChasi":2254,"Ġkashhatriyaa":2255,"Ġpitara":2256,"etaa":2257,"itii":2258,"jitama":2259,"mbhaa":2260,"nn":2261,"tasmaata":2262,"rana":2263,"wadha":2264,"raacha":2265,"widhi":2266,"maanama":2267,"naati":2268,"Ġmahi":2269,"Ġwipu":2270,"ritama":2271,"itaira":2272,"paati":2273,"Ġkaakut":2274,"puN":2275,"bhuutaa":2276,"Ġbhuuy":2277,"odara":2278,"Ġsathita":2279,"ĠdarauNi":2280,"Ġsanaatwaa":2281,"ĠpuraskR":2282,"anaa":2283,"mkR":2284,"rda":2285,"tawya":2286,"rakshha":2287,"raNe":2288,"raNya":2289,"waadya":2290,"Ġapaa":2291,"Nai":2292,"Ġparataapa":2293,"syate":2294,"dharshha":2295,"yuktaa":2296,"bhyaama":2297,"Ġnib":2298,"Ġud":2299,"Ġchaapa":2300,"Ġeshhaa":2301,"Ġyuddhaa":2302,"Ġbhaar":2303,"kusha":2304,"odhan":2305,"asatu":2306,"Ġjaatu":2307,"sthitama":2308,"JNjali":2309,"Ġmahaabaahura":2310,"Ġpariiti":2311,"Ġdiirgha":2312,"etata":2313,"khii":2314,"oraa":2315,"mahe":2316,"rayaama":2317,"yante":2318,"satya":2319,"pad":2320,"yaacha":2321,"Ġadbhu":2322,"Ġwis":2323,"shhThe":2324,"Ġaashu":2325,"dhena":2326,"kaamaa":2327,"Ġwaacha":2328,"Ġjay":2329,"Ġjala":2330,"Ġmaadhawa":2331,"laama":2332,"sukha":2333,"Ġjaayate":2334,"paraakrama":2335,"Ġgaandhaa":2336,"Ġbhuja":2337,"Ġsathitaa":2338,"Ġchaiwaa":2339,"Ġwartate":2340,"ihaspati":2341,"Ġwaidehii":2342,"Ti":2343,"mghaa":2344,"sy":2345,"tay":2346,"tasmina":2347,"rawa":2348,"yadaa":2349,"patya":2350,"hitama":2351,"Ġsawya":2352,"Ġtasmaata":2353,"naabhi":2354,"lakshhma":2355,"weshhu":2356,"Ġdadaa":2357,"Ġsudu":2358,"Ġchaanye":2359,"bandha":2360,"Ġparaaha":2361,"pur":2362,"wyaagh":2363,"Ġasti":2364,"ĠguNaa":2365,"Ġchaina":2366,"Ġwiwidhaa":2367,"Ġpushhpa":2368,"Ġwidura":2369,"Ġaasiita":2370,"Ġmaanushha":2371,"yudhishhThira":2372,"NT":2373,"ghu":2374,"uwaacha":2375,"watsa":2376,"sanna":2377,"pannaa":2378,"Ġtaraa":2379,"Ġpadaa":2380,"Ġmant":2381,"bhra":2382,"paana":2383,"Ġrath":2384,"Ġchaaru":2385,"chChi":2386,"Ġetana":2387,"shaasana":2388,"ndu":2389,"rshhabhaa":2390,"chitra":2391,"Ġbhuutaa":2392,"Ġdharmama":2393,"Ġkila":2394,"dew":2395,"baahu":2396,"ndhawa":2397,"Ġshubha":2398,"putrasya":2399,"Ġkhalu":2400,"Ġshiighra":2401,"syewa":2402,"Ġwiwidha":2403,"Ġwasudhaa":2404,"mkruddha":2405,"adhi":2406,"bruwana":2407,"oshh":2408,"pt":2409,"tthaa":2410,"twata":2411,"wane":2412,"nasha":2413,"Ġsata":2414,"ĠsapR":2415,"sharutwaa":2416,"waasu":2417,"wishha":2418,"widhaa":2419,"yaaya":2420,"yaanaa":2421,"yaamya":2422,"Ġkena":2423,"Ġtai":2424,"taara":2425,"Ġashwa":2426,"gai":2427,"Ġwipraa":2428,"Ġwayama":2429,"Ġyadaa":2430,"bhaga":2431,"pitaama":2432,"warmaa":2433,"Ġsaatyaki":2434,"ĠchichCheda":2435,"ddhyaa":2436,"Ġsharaira":2437,"Ġasmi":2438,"Ġnarawyaaghra":2439,"Ġsharuta":2440,"sarwaa":2441,"idaya":2442,"mantra":2443,"Ġkaurawya":2444,"Ġbuddhira":2445,"arjuna":2446,"ĠpaaJNchaalaa":2447,"yishhyati":2448,"aN":2449,"iddhi":2450,"ktena":2451,"nyena":2452,"tsu":2453,"tayaa":2454,"tatraa":2455,"gadaa":2456,"Ġwija":2457,"Ġwiddhwaa":2458,"laya":2459,"Ġparabha":2460,"ĠraajJN":2461,"Ġdawa":2462,"Ġdhara":2463,"kshhaye":2464,"niiya":2465,"asaya":2466,"khyaata":2467,"Ġwardha":2468,"kima":2469,"Ġabrawiida":2470,"Ġsamupaa":2471,"darshanama":2472,"Ġshuura":2473,"Ġpurushhawyaaghra":2474,"Ġphalama":2475,"ĠsahasraaNi":2476,"Ġdhiimata":2477,"mjayama":2478,"prekshhya":2479,"dbhi":2480,"ima":2481,"ichCh":2482,"mshu":2483,"mate":2484,"naaraaya":2485,"nitya":2486,"Ġmanii":2487,"Ġkashhii":2488,"Ġshawe":2489,"Ġindra":2490,"Ġmahaaya":2491,"Ġukt":2492,"Ġkur":2493,"Ġewama":2494,"tmanaa":2495,"Ġmuhu":2496,"Ġkartuma":2497,"Ġmaharshhi":2498,"Ġpaarth":2499,"guNa":2500,"Ġpuurwama":2501,"sthitaa":2502,"Ġbharaatara":2503,"Ġsainyaa":2504,"sahasraaNi":2505,"paaNDawaa":2506,"Ġparataapawaana":2507,"khi":2508,"ska":2509,"sita":2510,"yya":2511,"Ġay":2512,"jaJ":2513,"Ġwanama":2514,"Ġkathaa":2515,"Ġnaiwa":2516,"dhyata":2517,"Ġdawe":2518,"Ġdharu":2519,"Ġsamantaa":2520,"ruupe":2521,"Ġbhuutaani":2522,"ĠdharmajJNa":2523,"Ġjita":2524,"Ġraajaanama":2525,"karmaa":2526,"paraaya":2527,"Ġsatriya":2528,"Ġbarahmana":2529,"radwaaja":2530,"Ġdattwaa":2531,"any":2532,"mcha":2533,"rmi":2534,"shitaa":2535,"Ġsanaata":2536,"Ġakshha":2537,"lai":2538,"Ġkai":2539,"dhanu":2540,"ittaa":2541,"bhyu":2542,"Ġyayau":2543,"dhyate":2544,"Ġima":2545,"daata":2546,"Ġbhayama":2547,"Ġjanma":2548,"Ġmaataa":2549,"Ġtaani":2550,"Ġmukha":2551,"asau":2552,"ishhTama":2553,"Ġsattwa":2554,"tmaanama":2555,"Ġdharme":2556,"suudana":2557,"Ġmahaarathama":2558,"Ġawaapnu":2559,"Ġjanaardana":2560,"Ġkashhiprama":2561,"ĠjaJNaatwaa":2562,"nwitaa":2563,"Ġsuurya":2564,"abarawiita":2565,"rshhNe":2566,"duu":2567,"dit":2568,"ishaa":2569,"swii":2570,"Ġlaa":2571,"tapaa":2572,"sawaa":2573,"haada":2574,"Ġapashya":2575,"jau":2576,"Ġmaithi":2577,"ĠraashhT":2578,"ĠdadR":2579,"Ġmahaapraa":2580,"Ġbhal":2581,"kaale":2582,"Ġudya":2583,"ntarama":2584,"Ġraja":2585,"prabha":2586,"Ġbhaara":2587,"rshhaya":2588,"ndana":2589,"Niima":2590,"Ġkurute":2591,"ochana":2592,"Ġtapaswi":2593,"Ġshariira":2594,"Ġyuddhama":2595,"Ġnishitai":2596,"Ġmaanawa":2597,"Ina":2598,"ala":2599,"drii":2600,"jeta":2601,"mnaa":2602,"mpaa":2603,"ntuma":2604,"suur":2605,"tt":2606,"upaa":2607,"daiwa":2608,"wisha":2609,"Ġtarai":2610,"Ġchakra":2611,"Ġchakshhu":2612,"Ġane":2613,"Ġmah":2614,"Ġwadha":2615,"Ġparatii":2616,"rit":2617,"ritya":2618,"Ġshawa":2619,"Ġsharaana":2620,"Naanaa":2621,"kaani":2622,"Ġwaasawa":2623,"Ġsugriiwa":2624,"Ġrathe":2625,"Ġkaaryaa":2626,"syaapi":2627,"Ġdesha":2628,"Ġwet":2629,"ĠbharatashreshhTha":2630,"treshhu":2631,"Ġshabda":2632,"Cha":2633,"gnaa":2634,"igaa":2635,"tanama":2636,"shyaa":2637,"shwata":2638,"pau":2639,"haasa":2640,"Ġsapar":2641,"shai":2642,"ĠpaND":2643,"Ġaparaa":2644,"Ġmar":2645,"Ġmanda":2646,"nujJNaa":2647,"Ġsutaa":2648,"Ġkuryaa":2649,"mukhe":2650,"puraa":2651,"Ġtaapa":2652,"maanasa":2653,"shwarama":2654,"Ġdharmaraaja":2655,"Ġkirii":2656,"Ġju":2657,"Ġdewii":2658,"okama":2659,"Ġjaana":2660,"etacha":2661,"Ġdiwaa":2662,"ĠgaaN":2663,"sthaana":2664,"darshana":2665,"Ġsiddhaa":2666,"Ġsaumit":2667,"Ġkaakutstha":2668,"Ġsawyasaa":2669,"idh":2670,"tuu":2671,"hate":2672,"wishaa":2673,"Ġtarii":2674,"Ġtaras":2675,"Ġap":2676,"maata":2677,"maatya":2678,"karaa":2679,"Ġwarama":2680,"Ġkapi":2681,"Ġnaga":2682,"Ġaagata":2683,"bhiishha":2684,"Ġdatta":2685,"kaaraa":2686,"bharaa":2687,"chcha":2688,"Ġwaachaa":2689,"paar":2690,"Ġtawara":2691,"ĠgaN":2692,"Ġgaja":2693,"Ġhanuu":2694,"tiima":2695,"Ġbhiim":2696,"Ġnuuna":2697,"Ġkathama":2698,"Ġdhaara":2699,"ishyante":2700,"Ġshatruu":2701,"itaraashhTr":2702,"arajuna":2703,"agni":2704,"bdhaa":2705,"lira":2706,"thii":2707,"maya":2708,"madhye":2709,"waha":2710,"Ġtay":2711,"Ġpat":2712,"Ġach":2713,"jaghaana":2714,"Ġmata":2715,"lasya":2716,"Ġkacha":2717,"Ġaapata":2718,"Ġbhadra":2719,"Ġuktaa":2720,"Ġwaaji":2721,"Ġchaabhi":2722,"Ġek":2723,"Ġkule":2724,"Ġyuga":2725,"suraa":2726,"mukta":2727,"prabhaa":2728,"chira":2729,"jJNaana":2730,"asati":2731,"Ġsharawar":2732,"gamata":2733,"gamana":2734,"Ġbahudhaa":2735,"Ġshilaa":2736,"Ġtapasa":2737,"mgawa":2738,"ĠparayachCha":2739,"Ġbiibha":2740,"gira":2741,"kraama":2742,"og":2743,"otuma":2744,"ojana":2745,"pte":2746,"rpa":2747,"swana":2748,"pade":2749,"wina":2750,"wida":2751,"widaa":2752,"Ġath":2753,"naawa":2754,"ĠwisR":2755,"Ġkariyaa":2756,"Ġnaarada":2757,"NDaa":2758,"Ġkaara":2759,"Ġsarwata":2760,"mshayama":2761,"Ġbhuuri":2762,"chaari":2763,"bhyasha":2764,"Ġyaanti":2765,"Ġlakshha":2766,"ntwa":2767,"khya":2768,"Ġshaashwa":2769,"ĠsarwaaNi":2770,"yitu":2771,"Ġsiddhi":2772,"wartanta":2773,"ĠkhaD":2774,"Ġtiirtha":2775,"Ġnishcha":2776,"sahasra":2777,"Ġaashrama":2778,"Ġsanaatana":2779,"ĠkuruuNaa":2780,"padyata":2781,"Ġbarawiimi":2782,"Ġlabhate":2783,"nwaa":2784,"oNaa":2785,"hasya":2786,"waata":2787,"gau":2788,"Ġwikrama":2789,"ĠparaNa":2790,"Ġkaruu":2791,"Ġkariya":2792,"Ġshau":2793,"thaiwaa":2794,"Ġpurii":2795,"Ġsuy":2796,"iwama":2797,"Ġgawaa":2798,"Ġharii":2799,"neshhu":2800,"laasha":2801,"Ġparaaya":2802,"pratima":2803,"Ġsaaga":2804,"ishhN":2805,"Ġje":2806,"ĠparatigR":2807,"Ġdew":2808,"Ġdewataa":2809,"siita":2810,"Ġbhawanti":2811,"Ġsatyawaa":2812,"Ġsahasra":2813,"Ġpashchaa":2814,"Ġshiigh":2815,"Ġtayaktwaa":2816,"Ġdaraupadii":2817,"Ġmahaayashaa":2818,"hshaasa":2819,"ihe":2820,"lwa":2821,"mkaa":2822,"mhR":2823,"ohitaa":2824,"straaNi":2825,"aar":2826,"Ġtad":2827,"Ġtayaa":2828,"Ġata":2829,"maada":2830,"ĠmaNi":2831,"Ġwila":2832,"Ġwakshhyaami":2833,"itau":2834,"ĠdaNDa":2835,"Ġmahaamu":2836,"Ġmahaadyu":2837,"bhawana":2838,"jaanii":2839,"Ġshe":2840,"Ġwaahi":2841,"ĠkaaraNa":2842,"ĠkuJNja":2843,"Ġyuyu":2844,"Ġparitya":2845,"Ġmuhura":2846,"ĠkarN":2847,"ĠparatishhThi":2848,"ĠpaaNDawe":2849,"Ġlakshh":2850,"Ġwega":2851,"ĠgaaNDii":2852,"Ġanwa":2853,"Ġparaapt":2854,"Ġsaumya":2855,"hkhama":2856,"Ġruupama":2857,"asamina":2858,"ĠtishhThati":2859,"ĠChinna":2860,"ihiitwaa":2861,"Ġkiirti":2862,"shakti":2863,"taparwabhi":2864,"Ġtarail":2865,"asha":2866,"anta":2867,"idi":2868,"odaa":2869,"orama":2870,"oddh":2871,"pena":2872,"spR":2873,"tap":2874,"wishata":2875,"Ġkewa":2876,"Ġpanna":2877,"Ġatya":2878,"Ġamita":2879,"naanya":2880,"nishcha":2881,"Ġmadh":2882,"Ġparashaa":2883,"Ġkal":2884,"Ġshariyaa":2885,"Naata":2886,"yusa":2887,"yudhya":2888,"daada":2889,"ĠpuN":2890,"Ġsuma":2891,"ntasa":2892,"Ġgate":2893,"Ġharshha":2894,"Ġchaaha":2895,"ĠparaaNa":2896,"ishhe":2897,"lina":2898,"ipate":2899,"kshhyanti":2900,"Ġdawij":2901,"Ġsatyama":2902,"ithiwyaa":2903,"Ġanye":2904,"tawayaa":2905,"Ġsathitama":2906,"dharmeNa":2907,"Ġkaurawa":2908,"gachChati":2909,"ĠbaaNai":2910,"gandharwa":2911,"Ġpaawaka":2912,"id":2913,"iJNja":2914,"nnama":2915,"ptama":2916,"ttaa":2917,"utta":2918,"washa":2919,"Ġpalawa":2920,"Ġchakaara":2921,"Ġabhuuta":2922,"tenaa":2923,"niita":2924,"Ġmad":2925,"syasi":2926,"dhara":2927,"tusha":2928,"Ġnahu":2929,"ithu":2930,"Ġaapa":2931,"Ġmahaabalama":2932,"Ġmahaahawe":2933,"Ġnidhana":2934,"Ġupe":2935,"Ġsugrii":2936,"Ġrakshh":2937,"Ġmaatara":2938,"kshhwaa":2939,"itaani":2940,"Ġkumaa":2941,"Ġdurma":2942,"tmajaa":2943,"kumaa":2944,"Ġsahadewa":2945,"Ġdeha":2946,"ndrasya":2947,"brawiida":2948,"liN":2949,"Ġshuk":2950,"Ġshaastra":2951,"ipati":2952,"Ġdiwi":2953,"Ġrathama":2954,"Ġbhawitaa":2955,"Ġbharaataa":2956,"Ġwidhii":2957,"Ġwishwaa":2958,"giishha":2959,"Ġsarwabhuutaanaa":2960,"chetasa":2961,"atra":2962,"apaa":2963,"hkhe":2964,"idhe":2965,"obhaa":2966,"oktaa":2967,"nada":2968,"pana":2969,"shar":2970,"Ġkuu":2971,"Naani":2972,"Ġnala":2973,"Ġuda":2974,"ĠwaarshhNe":2975,"Ġsukhaa":2976,"Ġghaa":2977,"kshhura":2978,"neha":2979,"Ġnaagaa":2980,"punara":2981,"prasaa":2982,"Ġsaarathi":2983,"Ġmegha":2984,"ĠraajaJNa":2985,"chitaa":2986,"chintya":2987,"durma":2988,"ĠkarmaaNi":2989,"Ġdharmasa":2990,"kshhipya":2991,"Ġyuu":2992,"Ġbaah":2993,"shubha":2994,"shikhaND":2995,"Ġjiiwita":2996,"Ġbuddhyaa":2997,"Ġbharaata":2998,"Ġpashyati":2999,"yuutha":3000,"Ġshakti":3001,"Ġbhiishhmasya":3002,"Ġpitura":3003,"Ġkushala":3004,"ithaka":3005,"Ġmanyase":3006,"Ġmaniishhi":3007,"ani":3008,"ste":3009,"sate":3010,"paJNcha":3011,"yaati":3012,"Ġchamuu":3013,"Ġmaru":3014,"Nasha":3015,"Ġwat":3016,"Ġparawe":3017,"Ġparathama":3018,"Ġyaja":3019,"weti":3020,"ĠpuNyaa":3021,"ĠnikR":3022,"Ġtej":3023,"Ġgau":3024,"Ġjawala":3025,"dhaanaa":3026,"shhitama":3027,"Ġnaati":3028,"Ġkaal":3029,"ĠparaaNaana":3030,"putreNa":3031,"thitaa":3032,"Ġchicha":3033,"Ġmedi":3034,"tiiti":3035,"Ġjite":3036,"Ġbhawataa":3037,"Ġbalawaana":3038,"mpanna":3039,"Ġdiipta":3040,"Ġparyu":3041,"Ġsathaana":3042,"karmaNaa":3043,"Ġwaanaraa":3044,"Ġdharmaartha":3045,"teshhaama":3046,"Ġdhawaja":3047,"Ġhutaasha":3048,"Ġbahuuna":3049,"dishhTyaa":3050,"jyate":3051,"msya":3052,"ogena":3053,"ryama":3054,"sthe":3055,"aatma":3056,"rasaa":3057,"rathe":3058,"shira":3059,"nakula":3060,"papaata":3061,"wish":3062,"maanu":3063,"naagaa":3064,"Ġmadra":3065,"ĠwiraaTa":3066,"Ġwayuu":3067,"ĠparajJNaa":3068,"Ġraadhe":3069,"Ġaatmaana":3070,"yeti":3071,"Ġimaa":3072,"bhaya":3073,"ĠpaaNi":3074,"numa":3075,"Ġtulya":3076,"ntare":3077,"Ġjagraaha":3078,"Ġhate":3079,"ĠraNa":3080,"kshhaya":3081,"Ġnaawa":3082,"Ġnaabhi":3083,"Ġnaanya":3084,"shhaada":3085,"waruu":3086,"Ġetaa":3087,"pushh":3088,"Ġhima":3089,"gaata":3090,"Ġchira":3091,"Ġkartu":3092,"kshhiNama":3093,"Ġdewi":3094,"ĠpaaNDawai":3095,"Ġbaashhpa":3096,"Ġsarweshhu":3097,"Ġanupraa":3098,"Ġkurunandana":3099,"shina":3100,"patira":3101,"Ġwaraja":3102,"omaharshha":3103,"Ġsaubha":3104,"Ġmahiipati":3105,"Ġmahiipate":3106,"manyu":3107,"Ġshatash":3108,"Ġdhiimaana":3109,"Ġkaarmu":3110,"Ġgandharwaa":3111,"Ġshareya":3112,"Ġjiiwati":3113,"bhiimasena":3114,"Ġwaktuma":3115,"mantrya":3116,"Ġsamyaga":3117,"Ġtumula":3118,"ash":3119,"dy":3120,"inama":3121,"jyaa":3122,"mgha":3123,"odhi":3124,"oge":3125,"rhaa":3126,"rth":3127,"hat":3128,"yai":3129,"hite":3130,"waama":3131,"naaha":3132,"Ġmatta":3133,"itasa":3134,"Ġaahu":3135,"Ġaashra":3136,"Ġmuula":3137,"Ġwaama":3138,"Ġsudaa":3139,"ntasha":3140,"Ġhayaa":3141,"Ġyukt":3142,"ndrama":3143,"Ġsamaya":3144,"dishya":3145,"opamama":3146,"brawii":3147,"Ġputrasya":3148,"jun":3149,"Ġsamudra":3150,"Ġruda":3151,"Ġwiirau":3152,"Ġjanaadhipa":3153,"ĠgachChati":3154,"cheda":3155,"Ġnihataa":3156,"ĠtuurNama":3157,"mkruddh":3158,"ihiita":3159,"Ġraajyama":3160,"ĠwishhNu":3161,"Ġparatyuwaacha":3162,"ĠgachCheta":3163,"Ġmaithilii":3164,"Dh":3165,"Tii":3166,"ah":3167,"disha":3168,"igu":3169,"ishe":3170,"ly":3171,"mda":3172,"pitR":3173,"stu":3174,"ugha":3175,"paya":3176,"parya":3177,"ĠsadR":3178,"raajya":3179,"Ġakar":3180,"maaya":3181,"maatra":3182,"nishh":3183,"thaaya":3184,"itawarmaa":3185,"Ġyau":3186,"Ġdayuu":3187,"Ġteshhu":3188,"ĠsukR":3189,"Ġsudur":3190,"Ġsumaha":3191,"Ġhayaana":3192,"kshhate":3193,"shhitaa":3194,"Ġkumbha":3195,"Ġdaaru":3196,"Ġtattwa":3197,"ttamaa":3198,"Ġshaanti":3199,"Ġdish":3200,"Ġsharutama":3201,"miiti":3202,"Ġbahubhira":3203,"Ġsatyasa":3204,"sthite":3205,"Ġsiddha":3206,"ishyata":3207,"suuta":3208,"Ġpaarthiwaa":3209,"kshhepa":3210,"Ġnarendra":3211,"Ġbhaarga":3212,"ata":3213,"ikshhaa":3214,"mira":3215,"mbaa":3216,"mkaasha":3217,"or":3218,"okshhya":3219,"tru":3220,"Ġuur":3221,"har":3222,"yachCha":3223,"waraa":3224,"chatur":3225,"dayaa":3226,"Ġkii":3227,"Ġtasmai":3228,"naaga":3229,"shhayaama":3230,"Ġparadii":3231,"dhau":3232,"Ġsharuu":3233,"Ġraatri":3234,"itte":3235,"traira":3236,"yenaa":3237,"wedaa":3238,"Ġdadau":3239,"ĠdakshhiNaa":3240,"Ġbhak":3241,"Ġpaada":3242,"Ġpaala":3243,"Ġpaapaa":3244,"Ġpaarshha":3245,"Ġbaru":3246,"Ġbaruwa":3247,"heta":3248,"dhaawa":3249,"shhita":3250,"ishhTi":3251,"neya":3252,"Ġsarwaira":3253,"shaastra":3254,"ĠtaadR":3255,"kule":3256,"kurwa":3257,"kesha":3258,"ĠbaaNaa":3259,"drawana":3260,"Ġdaashaa":3261,"Ġputrasa":3262,"Ġtaribhira":3263,"ĠbaraahmaN":3264,"itaraashhTrasya":3265,"kiirNa":3266,"mnataparwabhi":3267,"ishwar":3268,"Ġaasiina":3269,"Ġmahaarathaana":3270,"Ġmaarga":3271,"Ġanind":3272,"ottamaa":3273,"ishhTadyum":3274,"Ġjighaa":3275,"ĠdarashhTuma":3276,"Ġphalguna":3277,"bdhwaa":3278,"Ġadbhutama":3279,"hsa":3280,"hshaasana":3281,"nthaa":3282,"ndhi":3283,"oD":3284,"sitaa":3285,"yataama":3286,"Ġsatha":3287,"dashaa":3288,"shamya":3289,"wishe":3290,"wiwyaadha":3291,"yaanta":3292,"tejasaa":3293,"Ġparam":3294,"Ġshalya":3295,"ĠraameNa":3296,"Ġyath":3297,"kaashe":3298,"bhay":3299,"Ġgatira":3300,"Ġjagmu":3301,"Ġmaatu":3302,"riiDa":3303,"shhura":3304,"suta":3305,"Ġsaanu":3306,"ishhNi":3307,"shyati":3308,"Ġpariyama":3309,"Ġdharmasya":3310,"odhanama":3311,"Ġbaandha":3312,"Ġshaasa":3313,"ĠdharmeNa":3314,"Ġsamupa":3315,"Ġbhiishhm":3316,"Ġpuraatanama":3317,"Ġmahaatmanaama":3318,"Ġparekshhya":3319,"Ġparaaptaa":3320,"ĠraawaNasya":3321,"Ġdawijasattama":3322,"Ġwidhiwata":3323,"Ġrakshhasaa":3324,"Ġmahaabhaagaa":3325,"Ġkashhetra":3326,"Ġsametya":3327,"Ġshirasaa":3328,"Ġkaike":3329,"hshwa":3330,"ol":3331,"oshheNa":3332,"prii":3333,"rshhii":3334,"sth":3335,"ttha":3336,"hasa":3337,"tadaa":3338,"tawama":3339,"nand":3340,"waaJNa":3341,"waaji":3342,"uunaa":3343,"Ġwiha":3344,"Ġwicha":3345,"shhTe":3346,"Naada":3347,"yuddha":3348,"ĠaawR":3349,"Ġimaama":3350,"kaasa":3351,"bhar":3352,"bhawada":3353,"ĠniwR":3354,"Ġniwarta":3355,"jaayate":3356,"saarathi":3357,"Ġjane":3358,"Ġmaayaa":3359,"kshhyaa":3360,"Ġnaasha":3361,"Ġyugaa":3362,"pushhpa":3363,"Ġsaagara":3364,"niika":3365,"Ġbhaas":3366,"paratya":3367,"bhuushha":3368,"Ġdharmaraaj":3369,"ĠChittwaa":3370,"Ġanuttamama":3371,"geya":3372,"Ġdawitii":3373,"kiirti":3374,"Ġmaanawaa":3375,"ĠiidR":3376,"Ġsharey":3377,"ichChata":3378,"ĠmuuDha":3379,"Ġtaawakaa":3380,"ĠdharaNii":3381,"Ġdharuwama":3382,"Ġsawyasaachi":3383,"apra":3384,"anya":3385,"ihaa":3386,"ishu":3387,"jwaa":3388,"mhaa":3389,"mkhyaa":3390,"mprekshhya":3391,"ogama":3392,"onyama":3393,"uja":3394,"rayana":3395,"yant":3396,"naka":3397,"naira":3398,"Ġparyaa":3399,"Ġpapaata":3400,"Ġchatu":3401,"Ġadhyaa":3402,"Ġpe":3403,"Ġwigata":3404,"Ġparasaada":3405,"rira":3406,"rur":3407,"Ġshala":3408,"itraa":3409,"Ġaakaasha":3410,"Ġaasura":3411,"Ġaachaarya":3412,"Ġyathe":3413,"weshha":3414,"Ġbhakshha":3415,"Ġmitra":3416,"ĠputreNa":3417,"Ġniwe":3418,"Ġuwaa":3419,"paaNi":3420,"Ġtura":3421,"kshhNa":3422,"Ġnaatra":3423,"ndreNa":3424,"Ġbhaaga":3425,"Ġmukhaa":3426,"otka":3427,"ĠwarshhaaNi":3428,"shikha":3429,"Ġraamama":3430,"Ġabrawii":3431,"Ġrudra":3432,"ishyanta":3433,"dharme":3434,"Ġparaapnu":3435,"puujya":3436,"shrawa":3437,"Ġpitaama":3438,"Ġkausa":3439,"triy":3440,"Ġsamiikshhya":3441,"abarawiida":3442,"Ġrathinaa":3443,"Ġbahaw":3444,"Ġmahiita":3445,"waasudewa":3446,"Ġsamantaata":3447,"Ġshiighrama":3448,"omaa":3449,"manu":3450,"haaya":3451,"Ġsam":3452,"Ġsap":3453,"Ġsakhaa":3454,"chakshhu":3455,"dawaa":3456,"Ġawe":3457,"ĠamR":3458,"Ġmanasa":3459,"Ġwisha":3460,"Ġwinda":3461,"Ġwibhiishha":3462,"kari":3463,"ĠparagR":3464,"Ġkale":3465,"yuga":3466,"Ġdawaara":3467,"Ġmahaawiirya":3468,"Ġmahaamanaa":3469,"Ġniwesha":3470,"jaata":3471,"chura":3472,"Ġwaayura":3473,"ĠgachChaa":3474,"Ġjahi":3475,"Ġhani":3476,"warcha":3477,"Ġyudhaa":3478,"Ġsamabhi":3479,"gaada":3480,"ishhyate":3481,"kul":3482,"Ġbhuutaanaa":3483,"Ġdewaana":3484,"opamaa":3485,"asamaa":3486,"Ġmahatii":3487,"Ġastu":3488,"samanwita":3489,"Ġcheti":3490,"Ġbharatasattama":3491,"Ġtarishhu":3492,"Ġbharaatraa":3493,"Ġshakr":3494,"Ġparaapn":3495,"mpannaa":3496,"Ġyuddhadurma":3497,"Ġashnute":3498,"Ġkaaryama":3499,"Ġmanushhyaa":3500,"Ġrathaata":3501,"maarka":3502,"Ġmadhusuudana":3503,"ĠwishhNura":3504,"Ġtaray":3505,"Ġwisheshhata":3506,"ĠbhartR":3507,"pitaamaha":3508,"Chi":3509,"adR":3510,"drama":3511,"ekaa":3512,"ig":3513,"kma":3514,"mgama":3515,"odya":3516,"odhyaa":3517,"shmi":3518,"paryaa":3519,"raanta":3520,"shhmaa":3521,"wira":3522,"Ġapra":3523,"Ġasyaa":3524,"jagraaha":3525,"Ġmadhya":3526,"gati":3527,"Ġwijaya":3528,"ruhya":3529,"Ġshataa":3530,"Ġnai":3531,"Ġdashaa":3532,"ĠdakshhiNa":3533,"Ġmahaawii":3534,"Ġbhaja":3535,"irama":3536,"Ġpaata":3537,"saaya":3538,"Ġchaanyaa":3539,"Ġmaadrii":3540,"laapa":3541,"laanaa":3542,"prachCha":3543,"Neshhu":3544,"Ġbhaawa":3545,"Ġkartaa":3546,"odhanaa":3547,"Ġdewe":3548,"otsaa":3549,"Ġiwaabhawata":3550,"sarja":3551,"Ġwidwaana":3552,"oditaa":3553,"Ġbhagawana":3554,"puujita":3555,"Ġkaruddhaa":3556,"Ġdarakshhya":3557,"Ġmahendra":3558,"ogamaa":3559,"Ġparawiira":3560,"ĠichChati":3561,"kraanta":3562,"Ġkarishhyaami":3563,"Ġparyawaara":3564,"Ġdawaadasha":3565,"muurdha":3566,"Ġpadma":3567,"itsna":3568,"madag":3569,"ĠmaniishhiNa":3570,"INaa":3571,"amR":3572,"gre":3573,"indra":3574,"jena":3575,"mshhT":3576,"msu":3577,"mdara":3578,"ty":3579,"ukasa":3580,"Ġita":3581,"yajJNa":3582,"was":3583,"samii":3584,"chakshhwa":3585,"waaya":3586,"waahi":3587,"wishh":3588,"winaa":3589,"wiwesha":3590,"Ġabhawata":3591,"jaye":3592,"gaNa":3593,"gami":3594,"Ġwira":3595,"Ġwihita":3596,"Ġwinir":3597,"Ġparahaa":3598,"riNaa":3599,"Ġaaya":3600,"Ġaala":3601,"Ġaasthita":3602,"ĠaajJNaaya":3603,"ĠichChaa":3604,"Ġmahaabalaa":3605,"Ġmahaatapaa":3606,"Ġshete":3607,"Ġsarpa":3608,"paapa":3609,"Ġgaraa":3610,"Ġnaada":3611,"bal":3612,"ĠparaaNaa":3613,"Ġduraasa":3614,"tiinaa":3615,"Ġbhaami":3616,"Ġparishhwa":3617,"parajaa":3618,"bhuuda":3619,"Ġyathaanyaa":3620,"Ġmune":3621,"Ġmuktaa":3622,"seta":3623,"Ġyaani":3624,"Ġlabh":3625,"okasa":3626,"baandha":3627,"ipama":3628,"guNaa":3629,"Ġdurdharshha":3630,"ĠnarashreshhTha":3631,"Ġkeka":3632,"Ġbhawishhyanti":3633,"Ġpurushhawyaagh":3634,"dharmama":3635,"barahmaa":3636,"dhwaja":3637,"sthau":3638,"Ġparajaapati":3639,"dhyaaya":3640,"Ġpitu":3641,"gachChata":3642,"ottamama":3643,"ihNii":3644,"ĠpiiD":3645,"sainyaa":3646,"Ġmuurdh":3647,"ĠjayeshhTha":3648,"ashwatthaa":3649,"Ġchakrura":3650,"Ġwipula":3651,"jaJNaa":3652,"ĠmahaapraajJNa":3653,"Ġpitaamahama":3654,"draawa":3655,"my":3656,"muula":3657,"ochi":3658,"ud":3659,"ushha":3660,"radaa":3661,"yaira":3662,"yadya":3663,"shita":3664,"shrita":3665,"Ġsataa":3666,"sharuta":3667,"shhyate":3668,"taada":3669,"nima":3670,"nikaa":3671,"Ġdhe":3672,"Ġwidhaa":3673,"Ġwitta":3674,"Ġwinaasha":3675,"Ġparakaasha":3676,"ĠkaN":3677,"Ġnakshha":3678,"itata":3679,"itt":3680,"ittama":3681,"Ġaagatama":3682,"ĠyajJNaa":3683,"weta":3684,"weNa":3685,"Ġdad":3686,"kaarya":3687,"Ġnipaati":3688,"Ġshiwa":3689,"saana":3690,"Ġtenaa":3691,"dhaara":3692,"shhaana":3693,"ĠparaaJNja":3694,"muktaa":3695,"shaata":3696,"nyasya":3697,"mshati":3698,"dibhi":3699,"jJNaata":3700,"Ġsawasti":3701,"Ġlabdhwaa":3702,"Ġwayati":3703,"Ġtathe":3704,"Ġgur":3705,"diir":3706,"Ġkashhamaa":3707,"Ġpaarthena":3708,"guru":3709,"bhuja":3710,"Ġraakshhasii":3711,"Ġsainye":3712,"Ġpaarthasya":3713,"puurNa":3714,"Ġpashyanti":3715,"Ġkaurawaa":3716,"myukta":3717,"jiiwa":3718,"ĠputraaNaa":3719,"Ġtejaswii":3720,"Ġmanushhye":3721,"Ġgandharwa":3722,"mrabdha":3723,"Ġmaheshhwaasaa":3724,"yishhyanti":3725,"buddhira":3726,"owinda":3727,"Ġshakuni":3728,"oddhu":3729,"awi":3730,"apashya":3731,"ihii":3732,"jitya":3733,"kl":3734,"nyaana":3735,"oddha":3736,"ryeNa":3737,"sra":3738,"hatya":3739,"naiwa":3740,"Ġtaraya":3741,"Ġpawi":3742,"Ġpaura":3743,"Ġabruwana":3744,"Ġwisma":3745,"Ġparasaa":3746,"rutaa":3747,"Ġraame":3748,"yukt":3749,"reNaa":3750,"Ġdaitya":3751,"Ġiya":3752,"Ġmahaagh":3753,"bhawi":3754,"bharaNa":3755,"Ġnishamya":3756,"Ġuttama":3757,"Ġwaapya":3758,"het":3759,"Ġsut":3760,"Ġdhayaa":3761,"ĠjajJNe":3762,"Ġhasti":3763,"Ġchaatra":3764,"Ġchaanya":3765,"kshhama":3766,"Ġkaalaa":3767,"babhuu":3768,"sutaa":3769,"suhR":3770,"puNya":3771,"bhaana":3772,"bhaashha":3773,"Ġhitwaa":3774,"mshatyaa":3775,"kulama":3776,"paratyu":3777,"Ġyathaawidhi":3778,"Ġkartawya":3779,"odhanasa":3780,"otkacha":3781,"Ġtatraiwa":3782,"Ġyaana":3783,"Ġyaati":3784,"Ġbaala":3785,"dratha":3786,"Ġjaataa":3787,"Ġjaanii":3788,"jJNayaa":3789,"Ġshubhe":3790,"Ġabhisa":3791,"ĠsatkR":3792,"Ġnararshhabha":3793,"ochate":3794,"anagha":3795,"kramama":3796,"puurNaa":3797,"Ġpashyata":3798,"odita":3799,"Ġutsa":3800,"Ġewaabhi":3801,"Ġaasiida":3802,"ihNa":3803,"tishhThata":3804,"kiirshha":3805,"baraahmaNaa":3806,"Ġgamishhyaami":3807,"shabda":3808,"Ġrudhira":3809,"ĠpaNDita":3810,"Ġshatruuna":3811,"Ġbaruwaa":3812,"atraa":3813,"atara":3814,"jit":3815,"mwatsa":3816,"otu":3817,"otra":3818,"obhira":3819,"oNama":3820,"wura":3821,"yitaa":3822,"yamaana":3823,"shura":3824,"wak":3825,"parwa":3826,"Ġsami":3827,"charaa":3828,"dada":3829,"waasha":3830,"Ġpathi":3831,"taata":3832,"Ġadh":3833,"Ġanna":3834,"Ġabhaashhata":3835,"jagh":3836,"gate":3837,"gaja":3838,"Ġwichara":3839,"Ġwarata":3840,"labha":3841,"Ġparay":3842,"Ġparacha":3843,"ĠparabhR":3844,"Ġaapn":3845,"yeya":3846,"yeme":3847,"Ġdama":3848,"Ġbhawata":3849,"Ġniya":3850,"Ġniraa":3851,"chyu":3852,"Ġrama":3853,"ĠghR":3854,"Ġnaaha":3855,"Ġkaashya":3856,"Ġkaalena":3857,"laagha":3858,"twaada":3859,"Ġkura":3860,"shaaya":3861,"Ġsamara":3862,"gaani":3863,"Ġsaar":3864,"ruupi":3865,"Ġbhaaradwaaja":3866,"syaasya":3867,"sen":3868,"kshhituma":3869,"orasi":3870,"Ġjaat":3871,"swanama":3872,"shhTau":3873,"nyaada":3874,"petura":3875,"Ġbahuwidha":3876,"sarpa":3877,"ĠanR":3878,"shraya":3879,"Ġaatmanaa":3880,"Ġshatakra":3881,"satkR":3882,"tasyaama":3883,"yishhye":3884,"gandharwaa":3885,"jaanaami":3886,"ĠshikhaNDii":3887,"ruupeNa":3888,"awaa":3889,"jite":3890,"luu":3891,"rka":3892,"stii":3893,"streNa":3894,"twe":3895,"rath":3896,"wau":3897,"wanaa":3898,"dakshhiNa":3899,"Ġpanthaa":3900,"Ġbhittwaa":3901,"Ġdhuu":3902,"Ġmada":3903,"gad":3904,"game":3905,"kam":3906,"Ġwah":3907,"Ġwatsa":3908,"lasha":3909,"Ġparadaa":3910,"riNama":3911,"thaana":3912,"Ġshama":3913,"Ġshayaa":3914,"Ġshayaana":3915,"Ġnagara":3916,"yuddhe":3917,"Ġaakhyaa":3918,"Ġyadya":3919,"Ġdayaa":3920,"daanii":3921,"jaayata":3922,"Ġshishh":3923,"Ġdharuwa":3924,"Ġgarii":3925,"Ġjagh":3926,"kshhata":3927,"kshhaNa":3928,"wardhana":3929,"laasa":3930,"Ġsarwabhuuta":3931,"bhaati":3932,"tiina":3933,"Ġmum":3934,"tattwa":3935,"Ġjitaa":3936,"ddhena":3937,"ishhTake":3938,"Ġdurdhar":3939,"waipaa":3940,"Ġshir":3941,"Ġtaribhi":3942,"oNasya":3943,"Ġwidyaa":3944,"Ġwiditwaa":3945,"ntiiha":3946,"ĠbhuN":3947,"Ġsathit":3948,"dharm":3949,"Ġsathaanama":3950,"Ġputraana":3951,"Ġteshhaama":3952,"Ġdhiimataa":3953,"Ġwishhaya":3954,"ĠpaaNDuputraa":3955,"Ġsumahaana":3956,"Ġkashhudra":3957,"Ġsaayaka":3958,"Ġamarshha":3959,"Ġmanyate":3960,"Ġsaraswa":3961,"Ġaniikaani":3962,"hkhita":3963,"daraupa":3964,"chakrame":3965,"Ġawaapnuyaata":3966,"ĠraashhTra":3967,"Ġwidhiiyate":3968,"yyaa":3969,"tam":3970,"mar":3971,"manya":3972,"shnute":3973,"watya":3974,"waiwa":3975,"want":3976,"sara":3977,"pataa":3978,"haar":3979,"Ġsahit":3980,"raajaana":3981,"dadaa":3982,"wibhuushhi":3983,"Ġalpa":3984,"naacha":3985,"ĠdishhTyaa":3986,"gataana":3987,"Ġwim":3988,"ĠwikR":3989,"kashhi":3990,"kanyaa":3991,"Ġparaja":3992,"Ġparamu":3993,"Ġparawartate":3994,"ruddha":3995,"Ġaapnu":3996,"trau":3997,"Ġbhadre":3998,"Ġpumaana":3999,"Ġniru":4000,"saatyaki":4001,"Ġbale":4002,"paal":4003,"ntaka":4004,"Ġhanu":4005,"Ġnaanu":4006,"Ġyuwaa":4007,"shaada":4008,"Ġsaakshhaa":4009,"megha":4010,"Ġraajaputra":4011,"Ġle":4012,"kuru":4013,"Ġbhiiru":4014,"Ġmukta":4015,"Ġjitwaa":4016,"dewena":4017,"ottara":4018,"Ġjaayati":4019,"Ġweshma":4020,"shubhe":4021,"kramaa":4022,"siina":4023,"Ġdawishha":4024,"guN":4025,"Ġbhawatya":4026,"dewataa":4027,"okaanaa":4028,"buddha":4029,"maanaana":4030,"oNaputra":4031,"wartante":4032,"bheda":4033,"Ġdiip":4034,"Ġpashchi":4035,"rshhira":4036,"syeha":4037,"ĠgachChanti":4038,"Ġpushhkarama":4039,"Ġdarshanama":4040,"Ġmatsya":4041,"Ġshaila":4042,"ijata":4043,"harantii":4044,"Ġmahaabhaaga":4045,"itsnaa":4046,"Ġbhartaara":4047,"ĠdushhkR":4048,"ĠkaaJNchana":4049,"Ġaapatanta":4050,"ĠsharawarshheNa":4051,"kshhwaaku":4052,"ĠwaarshhNeya":4053,"Ġmahiitale":4054,"Ġyathaanyaaya":4055,"aja":4056,"gdhaa":4057,"il":4058,"idaa":4059,"ichChe":4060,"mtya":4061,"newa":4062,"ope":4063,"pit":4064,"skR":4065,"Ġh":4066,"manta":4067,"nar":4068,"Ġsaka":4069,"Ġsali":4070,"raaT":4071,"charya":4072,"shataa":4073,"widyaa":4074,"Ġtam":4075,"Ġpada":4076,"Ġaja":4077,"ĠadR":4078,"Ġabhyaa":4079,"nimit":4080,"Ġdishama":4081,"Ġwasha":4082,"Ġparaj":4083,"Ġkashhaa":4084,"syase":4085,"Ġaarya":4086,"Ġaatmaa":4087,"Ġdai":4088,"Ġnimit":4089,"Ġbandhu":4090,"heNa":4091,"Ġsubha":4092,"Ġgaura":4093,"Ġhat":4094,"Ġgii":4095,"Ġghana":4096,"itaaJNjali":4097,"NDe":4098,"Ġkut":4099,"Ġyuge":4100,"Ġparaana":4101,"ĠparaaNi":4102,"sure":4103,"medha":4104,"mshay":4105,"wiiraa":4106,"Ġlu":4107,"dudraawa":4108,"ĠbaaNaana":4109,"Ġtath":4110,"Ġkashhaya":4111,"Ġputrama":4112,"Ġraamasa":4113,"Ġyeshhaa":4114,"Ġbhawishhya":4115,"abhawana":4116,"Ġmahiima":4117,"wasana":4118,"Ġtuu":4119,"kiirNaa":4120,"Ġawaap":4121,"Ġawaapn":4122,"ĠkarNasya":4123,"phalaa":4124,"Ġpushhka":4125,"paatayata":4126,"Ġpatita":4127,"Ġdarupada":4128,"Ġawyayama":4129,"Ġkuruuna":4130,"oshhita":4131,"Ġbhiimasen":4132,"shruushha":4133,"Ġsamyaka":4134,"Ġharati":4135,"plutya":4136,"jagmura":4137,"ĠnaaraayaNa":4138,"ĠwasishhTha":4139,"Ġbiibhat":4140,"Ġkaruura":4141,"Ġmadhura":4142,"Ġlabheta":4143,"Dhama":4144,"iya":4145,"ikaa":4146,"lyama":4147,"mjJNaa":4148,"oj":4149,"odh":4150,"rja":4151,"rju":4152,"spar":4153,"Ġruupaa":4154,"yayaa":4155,"shwaasa":4156,"wadhya":4157,"nana":4158,"haaraa":4159,"Ġsatu":4160,"Ġsanti":4161,"wishya":4162,"Ġtathaiwaa":4163,"Ġparu":4164,"Ġpashu":4165,"taanaama":4166,"taatmaa":4167,"Ġchari":4168,"tisa":4169,"Ġawartata":4170,"nishhe":4171,"Ġmatama":4172,"Ġmarma":4173,"garaa":4174,"kaNT":4175,"Ġkama":4176,"Ġkalpa":4177,"rire":4178,"dhate":4179,"itasha":4180,"itawaana":4181,"bhraa":4182,"ĠyajJNe":4183,"bhinna":4184,"ĠmahaaraNe":4185,"kaanaa":4186,"Ġudii":4187,"Ġugra":4188,"Ġpaaka":4189,"Ġwaag":4190,"Ġwaaga":4191,"saahas":4192,"Ġtawada":4193,"Ġsure":4194,"Ġjaraasa":4195,"Ġjaghaana":4196,"Ġrakshhaa":4197,"Ġrathena":4198,"kshhau":4199,"ishhTasa":4200,"jJNi":4201,"bahuu":4202,"babhau":4203,"Ġsarwatra":4204,"puru":4205,"Ġtaaraa":4206,"Ġtaanya":4207,"Ġsaatya":4208,"ryate":4209,"Ġpariwaa":4210,"kshhitama":4211,"Ġsamaahita":4212,"Ġpunasa":4213,"ĠpaaNDawama":4214,"Ġlabdha":4215,"drawanta":4216,"Ġdewaira":4217,"Ġitihaasa":4218,"hasta":4219,"odaya":4220,"odarama":4221,"Ġchedama":4222,"ĠpuurNa":4223,"Ġdhaarmi":4224,"maanaanaa":4225,"Ġbhawishhyasi":4226,"anay":4227,"puurwama":4228,"Ġkhara":4229,"Ġshakyaa":4230,"Ġdhanusha":4231,"ithiwiima":4232,"Ġmanaswi":4233,"radhii":4234,"mgraama":4235,"Ġmaheshhwaas":4236,"kashhatra":4237,"Ġathaabrawiita":4238,"dbhuta":4239,"Ġsaayakai":4240,"Ġyatna":4241,"Ġwaraar":4242,"maaneshhu":4243,"Ġhiina":4244,"Ġgarbha":4245,"shreshhTh":4246,"Ġbalaata":4247,"ĠghaT":4248,"waasina":4249,"Ġripu":4250,"Ġwiwidhaani":4251,"Ġtariina":4252,"Ġjetu":4253,"Ġjitendriya":4254,"Ġparyawaarayana":4255,"Tha":4256,"ahi":4257,"be":4258,"diwa":4259,"inaa":4260,"ore":4261,"oNe":4262,"ogaana":4263,"rchi":4264,"sp":4265,"Ġre":4266,"yase":4267,"yayau":4268,"shyaama":4269,"shraawa":4270,"waira":4271,"sadR":4272,"patha":4273,"Ġsana":4274,"Ġsachi":4275,"chandra":4276,"dai":4277,"dayaama":4278,"wishhT":4279,"wishhaa":4280,"wishhTaa":4281,"Ġtasmi":4282,"ĠpaT":4283,"tisha":4284,"Ġasha":4285,"Ġanyaa":4286,"Ġamitra":4287,"Ġdhu":4288,"Ġwadhaa":4289,"Ġwaraana":4290,"Ġparame":4291,"Ġkampa":4292,"Ġkathita":4293,"yuge":4294,"yewa":4295,"Ġbharat":4296,"Ġshuur":4297,"Ġpaap":4298,"Ġwaach":4299,"Ġwaarayaama":4300,"paara":4301,"Ġdhanwi":4302,"Ġjaga":4303,"Ġhan":4304,"Ġrata":4305,"ĠraNaa":4306,"dhaawata":4307,"Ġchaana":4308,"Ġchaabhya":4309,"ĠmaatR":4310,"kshhayaa":4311,"kshhamaaNaa":4312,"nenaa":4313,"warga":4314,"Ġekama":4315,"Ġparaartha":4316,"bhaaga":4317,"Ġsaadh":4318,"msanti":4319,"bhuuya":4320,"bhuumi":4321,"dite":4322,"deshe":4323,"Ġdeshe":4324,"ĠChu":4325,"Ġyaawada":4326,"Ġbaal":4327,"Ġwayapa":4328,"shubhaa":4329,"geshhu":4330,"kshhyati":4331,"anawa":4332,"Ġsaindhawa":4333,"puurwaa":4334,"Ġshaky":4335,"Ġdiina":4336,"Ġdiinaa":4337,"Ġtiiwra":4338,"Ġpuujaa":4339,"Ġpaapama":4340,"kathama":4341,"Ġsiitayaa":4342,"sattwa":4343,"ĠpaaJNchaalya":4344,"rditaa":4345,"giri":4346,"Ġsuutaputra":4347,"Ġkarishhyati":4348,"mshita":4349,"raakshhasa":4350,"Ġratna":4351,"Ġabhawada":4352,"Ġwadhyamaanaa":4353,"Ġgaraha":4354,"Ġsainyaani":4355,"jaaniihi":4356,"Ġsumahada":4357,"harantiimama":4358,"grama":4359,"ishhu":4360,"idu":4361,"ishii":4362,"lla":4363,"mdhi":4364,"mbhu":4365,"ndhya":4366,"otya":4367,"twena":4368,"ujasa":4369,"hatyaa":4370,"madat":4371,"shwe":4372,"shena":4373,"sane":4374,"sapta":4375,"patada":4376,"Ġsayaana":4377,"Ġsawena":4378,"raantaa":4379,"raaNaama":4380,"daru":4381,"tithi":4382,"timaana":4383,"Ġab":4384,"Ġayama":4385,"ĠakR":4386,"Ġagra":4387,"janaa":4388,"Ġwiwa":4389,"ĠwijJNaa":4390,"Ġwiche":4391,"Ġwaira":4392,"Ġwastra":4393,"Ġparayu":4394,"ruN":4395,"Ġshatasa":4396,"Ġshachii":4397,"Ġshariyama":4398,"itasya":4399,"ityura":4400,"Ġaap":4401,"bhye":4402,"weha":4403,"Ġbhayaata":4404,"Ġpure":4405,"kaamya":4406,"kaaryaa":4407,"Ġnirii":4408,"Ġwaas":4409,"Ġwaaha":4410,"Ġwaari":4411,"Ġbabhau":4412,"Ġtawarit":4413,"Ġjawal":4414,"Ġhantaa":4415,"Ġramya":4416,"riiNaa":4417,"Ġtaawada":4418,"Ġsaatwata":4419,"Ġraajasattama":4420,"ĠdushhTaa":4421,"JNe":4422,"tiirya":4423,"Ġmudaa":4424,"Ġdharmaraajasya":4425,"tathe":4426,"keshhu":4427,"Ġsamaagataa":4428,"shuddhaa":4429,"Ġmaharshhe":4430,"Ġtattwata":4431,"Ġshaashwata":4432,"ĠanujJNaa":4433,"Ġabhishhe":4434,"shhTama":4435,"Ġkurukshhe":4436,"Ġsharuti":4437,"itira":4438,"Ġshikha":4439,"Ġwidyu":4440,"Ġrukma":4441,"gnira":4442,"Ġkhayaa":4443,"Ġsaubala":4444,"Ġmahiiyate":4445,"Ġpariit":4446,"ĠpaJNchabhira":4447,"sthama":4448,"Ġtiirthe":4449,"pashyata":4450,"nirgh":4451,"mhanaada":4452,"arju":4453,"shhTuma":4454,"nwitama":4455,"Ġpatitaa":4456,"Ġhet":4457,"Ġrathaana":4458,"mkhya":4459,"Ġdiwama":4460,"ĠdhaartaraashhTrasya":4461,"utsR":4462,"Ġdaiwata":4463,"Ġdaraupade":4464,"shreshhThaa":4465,"kirata":4466,"kawachaa":4467,"puujayana":4468,"Ġwiwidhaira":4469,"Ġsanaatanama":4470,"ĠkhaDga":4471,"Ġparyupaa":4472,"ditama":4473,"gma":4474,"igiishha":4475,"kla":4476,"ktaana":4477,"mbhi":4478,"mtaapa":4479,"ohi":4480,"omi":4481,"ogha":4482,"rthi":4483,"wye":4484,"tale":4485,"rataa":4486,"rate":4487,"yaswa":4488,"shwaana":4489,"santi":4490,"sabhaa":4491,"patra":4492,"payaama":4493,"Ġsawi":4494,"sharaira":4495,"waak":4496,"waaraNa":4497,"wija":4498,"witama":4499,"wishwaa":4500,"yaatraa":4501,"Ġaga":4502,"Ġayu":4503,"Ġanaama":4504,"naarada":4505,"jaN":4506,"Ġpitraa":4507,"Ġwikra":4508,"Ġwibu":4509,"kashhe":4510,"Ġwari":4511,"Ġwashe":4512,"Ġkarama":4513,"dhai":4514,"ruNama":4515,"Ġnakula":4516,"ity":4517,"Ġaatmaanama":4518,"Ġyayaa":4519,"Ġyamau":4520,"yetaa":4521,"ĠishhTa":4522,"kaayaa":4523,"ĠnigR":4524,"Ġshishhya":4525,"Ġpaara":4526,"paaND":4527,"Ġsutii":4528,"Ġsukhii":4529,"Ġgajaa":4530,"Ġjayama":4531,"Ġjagat":4532,"Ġhar":4533,"Ġhawya":4534,"Ġmaanasa":4535,"kshhayama":4536,"ishhTe":4537,"ishhThata":4538,"nera":4539,"Ġkaamaa":4540,"ĠkaaraNaa":4541,"sut":4542,"Ġsarwai":4543,"Ġsarwasya":4544,"puna":4545,"Ġsamapadyata":4546,"thit":4547,"gaamaa":4548,"Ġsaama":4549,"Ġchitraa":4550,"Ġchintaa":4551,"Ġmedhaa":4552,"ishhNe":4553,"meyaa":4554,"meti":4555,"mejaya":4556,"NDalama":4557,"syaama":4558,"kulaa":4559,"kuJNja":4560,"Ġbhuuteshhu":4561,"Ġmukhyaa":4562,"ĠdharmabhR":4563,"deha":4564,"otpa":4565,"Ġsawama":4566,"baah":4567,"Ġarju":4568,"damaya":4569,"Ġwarshhaa":4570,"Ġwachasa":4571,"ĠdidR":4572,"Ġdurga":4573,"Ġnarawyaagh":4574,"ghaata":4575,"Ġsatyawikrama":4576,"Ġbhiishhme":4577,"darshanaa":4578,"abhiwaadya":4579,"raNau":4580,"jina":4581,"Ġdiipya":4582,"Ġwayaasa":4583,"Ġdhanushh":4584,"ĠraawaN":4585,"mbhawa":4586,"Ġnishitaira":4587,"Ġparawiwesha":4588,"Ġdaanawaa":4589,"Ġkaratu":4590,"Ġparayayau":4591,"mukhama":4592,"mpraapya":4593,"ĠsatriiNaa":4594,"Ġraajye":4595,"raakshhasaa":4596,"Ġwaidehyaa":4597,"ĠtiikshhNaira":4598,"Ġkuntiiputr":4599,"lakshhaNama":4600,"ĠkalyaaNi":4601,"hkhitaa":4602,"Ġniila":4603,"mtanaw":4604,"Ġyuddhaaya":4605,"Ġbhallena":4606,"Ġwaahinii":4607,"Ġparityajya":4608,"omaharshhaNama":4609,"Ġbhaargawa":4610,"Ġsharuuyate":4611,"Ġpaarshhata":4612,"Chaa":4613,"anR":4614,"gya":4615,"ghR":4616,"iNa":4617,"indriyaa":4618,"ntra":4619,"oT":4620,"otira":4621,"ogii":4622,"uka":4623,"tasmai":4624,"shr":4625,"shwar":4626,"shishh":4627,"shchi":4628,"wahana":4629,"haat":4630,"daNDa":4631,"shastra":4632,"shhyaama":4633,"widu":4634,"Ġpadama":4635,"Ġchatwaa":4636,"Ġbisa":4637,"Ġadharma":4638,"tej":4639,"teshhwa":4640,"ĠmaN":4641,"Ġwakta":4642,"dharaa":4643,"thai":4644,"Ġnayaa":4645,"wegaa":4646,"Ġdakshhi":4647,"kaaya":4648,"ewate":4649,"Ġshitai":4650,"paalaa":4651,"mitaa":4652,"Ġgat":4653,"ĠgaNaa":4654,"Ġgadayaa":4655,"Ġrataa":4656,"dhaartaraashhT":4657,"Ġchaati":4658,"kshhaNaa":4659,"kshhamaaNa":4660,"ishhTwaiwa":4661,"Ġnaatha":4662,"warte":4663,"Ġkuta":4664,"ĠparaaN":4665,"muhuur":4666,"ndi":4667,"Ġtaara":4668,"bhaaryaa":4669,"Ġsamanu":4670,"gaasha":4671,"gaandhaa":4672,"Ġraajapu":4673,"ruuhi":4674,"Ġbhaashha":4675,"NDarii":4676,"Ġwaishrawa":4677,"msadi":4678,"kulii":4679,"ĠmushhTi":4680,"Ġkarmaa":4681,"bhyasa":4682,"opala":4683,"drawada":4684,"Ġdewaraaja":4685,"Ġjaanaa":4686,"Ġjaamadag":4687,"Ġwayakta":4688,"karmaaNa":4689,"Ġmaharshhaya":4690,"Ġbhiimasya":4691,"Ġbarahmal":4692,"smaacha":4693,"Ġupala":4694,"Ġmanyu":4695,"ishhabha":4696,"Ġbhiishhmama":4697,"Ġnityasha":4698,"yituma":4699,"kshhaana":4700,"Ġshuula":4701,"JNjate":4702,"ruupama":4703,"Ġupaadrawata":4704,"Ġtirya":4705,"Ġparetya":4706,"Ġbhagawa":4707,"Ġdiiptaa":4708,"sawaya":4709,"Ġdashabhira":4710,"Ġdasharatha":4711,"Ġdashagriiwa":4712,"Ġparajaanaa":4713,"Ġparajaayate":4714,"Ġewaabhya":4715,"wratama":4716,"Ġshiila":4717,"Ġanantarama":4718,"Ġtejasa":4719,"mnidhau":4720,"ĠpaaJNchaala":4721,"Ġtayakta":4722,"Ġdarshana":4723,"Ġaashritya":4724,"kraantaa":4725,"ikena":4726,"Ġmatsyaa":4727,"Ġparahasanna":4728,"mshitaa":4729,"mpraapta":4730,"Ġpadmi":4731,"Ġparwat":4732,"Ġwadataa":4733,"ĠtiikshhNa":4734,"Ġasmaaka":4735,"Ġyudhyaswa":4736,"Ġraudra":4737,"Ġdadaati":4738,"mpaayana":4739,"Ġkuryaada":4740,"Ġpatnii":4741,"Ġshaucha":4742,"Ġpashchaata":4743,"hkhena":4744,"Ġghaati":4745,"Ġgautama":4746,"Ġraadheya":4747,"Ġjaneshwara":4748,"Ġuwaacheda":4749,"Di":4750,"Te":4751,"aratha":4752,"anye":4753,"dwaa":4754,"dishhTa":4755,"gr":4756,"hpu":4757,"ipta":4758,"mshhi":4759,"myama":4760,"mgR":4761,"mkara":4762,"optaa":4763,"psu":4764,"pitama":4765,"rhi":4766,"stama":4767,"taraa":4768,"tasmi":4769,"madra":4770,"yasaa":4771,"waj":4772,"wasaa":4773,"watta":4774,"samR":4775,"Ġsad":4776,"Ġsati":4777,"Ġsani":4778,"Ġsane":4779,"Ġsatai":4780,"chak":4781,"dadarsha":4782,"shhkR":4783,"yaabhi":4784,"Ġtanu":4785,"Ġpataa":4786,"Ġpalaa":4787,"taaDa":4788,"maanena":4789,"tera":4790,"tejasa":4791,"gaNaana":4792,"Ġwista":4793,"Ġwishikha":4794,"Ġway":4795,"Ġwadhe":4796,"ĠparaNi":4797,"ĠparamaaNa":4798,"Ġparabhawa":4799,"Ġkali":4800,"Ġsena":4801,"Ġsharaawa":4802,"Ġnabha":4803,"Ġnanda":4804,"Ġnaishha":4805,"Ġaanaya":4806,"yeha":4807,"Ġdada":4808,"Ġdawii":4809,"Ġmahaadewa":4810,"kaashi":4811,"bhayaa":4812,"Ġnirma":4813,"Ġnipati":4814,"Ġnidraa":4815,"Ġuch":4816,"Ġpaati":4817,"Ġpaadau":4818,"paataa":4819,"paartha":4820,"heda":4821,"dhima":4822,"Ġsuwi":4823,"Ġsutama":4824,"Ġgantaa":4825,"Ġgantuma":4826,"ĠjaJNe":4827,"Ġchaanu":4828,"Ġmaaga":4829,"Ġnaaraacha":4830,"jJNama":4831,"Ġetau":4832,"Ġkurwaa":4833,"ĠparaajJNa":4834,"puras":4835,"nde":4836,"pradaa":4837,"prabhama":4838,"Ġhitama":4839,"Ġsaadhwa":4840,"Ġchikshhepa":4841,"ruuNaa":4842,"ĠpariwR":4843,"duraa":4844,"dudru":4845,"watasa":4846,"ĠparatijJNaa":4847,"otsR":4848,"bhyanujJNaa":4849,"ĠpaaNDaw":4850,"Ġraajaan":4851,"Ġsawap":4852,"Ġyaata":4853,"Ġyaaja":4854,"Ġlaghu":4855,"Ġsharawarshha":4856,"Ġdaataa":4857,"karshana":4858,"etasminna":4859,"Ġshukra":4860,"ĠastraaNi":4861,"Ġarthe":4862,"JNchana":4863,"geNa":4864,"Ġupayeme":4865,"Ġbahubhi":4866,"Ġsamud":4867,"buddhe":4868,"ĠyudhishhThir":4869,"ĠbhiishhmeNa":4870,"Ġmahaatmabhi":4871,"shiila":4872,"jire":4873,"Ġkhalwa":4874,"tapasaa":4875,"Ġtiiw":4876,"ishhiNa":4877,"Ġchainama":4878,"Ġewaanu":4879,"ĠpaapakR":4880,"mhanaa":4881,"Ġpiba":4882,"ĠdarauNira":4883,"Ġananta":4884,"apare":4885,"awashya":4886,"igapa":4887,"ĠjaJNaati":4888,"Ġwidhinaa":4889,"Ġparaspara":4890,"ichChasi":4891,"Ġsarwabhuutaani":4892,"Ġsarwabhuuteshhu":4893,"Ġshabd":4894,"Ġawyakta":4895,"Ġjiiwitama":4896,"mtapta":4897,"Ġparwatama":4898,"Ġpauru":4899,"piiDitaa":4900,"Ġmuhuurta":4901,"Ġbahawa":4902,"mtanawa":4903,"Ġwisp":4904,"Ġgaandhaarii":4905,"bhagawaana":4906,"Ġasmina":4907,"Ġshaweta":4908,"Ġrajanii":4909,"girasa":4910,"Ġnahushha":4911,"Ġuurdhwa":4912,"Ġdaashaarha":4913,"oDhu":4914,"Ġwindati":4915,"Ġparawiirahaa":4916,"Ġparishhwajya":4917,"Ġmuurdhni":4918,"ĠparaaJNjalira":4919,"klishhTa":4920,"atraapya":4921,"Ġsatainya":4922,"ane":4923,"ath":4924,"grya":4925,"grata":4926,"ihaana":4927,"jy":4928,"kisha":4929,"kriyaa":4930,"mdhaaya":4931,"odhena":4932,"pr":4933,"swaa":4934,"sit":4935,"stri":4936,"tryaa":4937,"wyaama":4938,"Ġruu":4939,"hanta":4940,"hatwaa":4941,"mai":4942,"paN":4943,"pasa":4944,"hiN":4945,"Ġsatii":4946,"Ġsapat":4947,"chala":4948,"dadR":4949,"wini":4950,"wiraaTa":4951,"yaanti":4952,"Ġpatima":4953,"Ġchayu":4954,"Ġcharma":4955,"Ġat":4956,"Ġabhyu":4957,"jay":4958,"Ġmatira":4959,"gasa":4960,"gatwaa":4961,"ĠwijJNaaya":4962,"kaN":4963,"Ġwadh":4964,"Ġparai":4965,"Ġparana":4966,"Ġkanaka":4967,"rikshhe":4968,"dhanwaa":4969,"yudhama":4970,"ittima":4971,"Ġaal":4972,"Ġaachaa":4973,"Ġaakhyaata":4974,"reda":4975,"Ġishhu":4976,"Ġind":4977,"Ġime":4978,"Ġikshhwaaku":4979,"Ġbhawaa":4980,"Ġbhayaa":4981,"ĠpuNDarii":4982,"kaalama":4983,"Ġnishi":4984,"jaatasha":4985,"saadhu":4986,"Ġbalena":4987,"Ġdhai":4988,"Ġdhau":4989,"Ġgaga":4990,"Ġhay":4991,"Ġramyaa":4992,"dhaawanta":4993,"ishhTena":4994,"warshhaaNi":4995,"barha":4996,"Ġyushhmaa":4997,"Ġsarwakaama":4998,"ĠtaaD":4999,"Ġsamawaa":5000,"prabhR":5001,"gaami":5002,"Ġsaantwa":5003,"ĠliN":5004,"chichCheda":5005,"ĠyathaawR":5006,"diwya":5007,"shwaraa":5008,"kshhipta":5009,"Ġparatipat":5010,"ĠsamaawR":5011,"Ġsamaagama":5012,"Ġyaada":5013,"okawi":5014,"wamanya":5015,"Ġdaasii":5016,"Ġasmaana":5017,"ĠguNaana":5018,"swanaa":5019,"Ġabhiwaadya":5020,"Ġsatyaa":5021,"Ġsatyena":5022,"Ġputraka":5023,"Ġbhiimama":5024,"Ġbarahmawaa":5025,"ĠbarahmaNa":5026,"ĠbarahmaNaa":5027,"smaaka":5028,"waishha":5029,"patima":5030,"Ġdhaaraya":5031,"maanaasha":5032,"ĠbaraahmaNe":5033,"Ġnirjitaa":5034,"ĠpuraaNa":5035,"mitraa":5036,"ĠpaJNchawi":5037,"Ġsuukshhma":5038,"Ġchaishhaa":5039,"Ġmahaarathau":5040,"ĠpaaNDuunaa":5041,"ĠraawaNaa":5042,"ihada":5043,"wachana":5044,"Ġasau":5045,"ihNaa":5046,"kashhat":5047,"mkruddhaa":5048,"ĠdhaartaraashhTra":5049,"ishhThat":5050,"Ġbhiimasenasya":5051,"kaarmu":5052,"ihaspate":5053,"sahadewa":5054,"manasaa":5055,"Ġkashhema":5056,"Ġyashaswinii":5057,"Ġhiinaa":5058,"Ġudaaharantiimama":5059,"Ġwaasudewasya":5060,"ĠkalyaaNa":5061,"Ġdiwyaani":5062,"Ġmithyaa":5063,"Ġparawakshhyaami":5064,"Ġmantri":5065,"Ġkurwiita":5066,"Ġudyamya":5067,"Ġaneka":5068,"ĠkiriiTi":5069,"idhra":5070,"Ġhanuumaana":5071,"Ġachyuta":5072,"Ġmedinii":5073,"Ġsaubhadra":5074,"okshhyase":5075,"Ġkiicha":5076,"Ġkaikeyii":5077,"atya":5078,"dira":5079,"hshre":5080,"iNii":5081,"lita":5082,"mm":5083,"mma":5084,"mka":5085,"mbara":5086,"nne":5087,"oNi":5088,"ojya":5089,"oDa":5090,"onau":5091,"tti":5092,"ukta":5093,"aachaarya":5094,"mamaa":5095,"yane":5096,"sasa":5097,"paura":5098,"Ġsaya":5099,"shasha":5100,"share":5101,"shhNa":5102,"wiwar":5103,"Ġpaya":5104,"Ġparushha":5105,"Ġchaya":5106,"maaNe":5107,"nire":5108,"Ġmay":5109,"gawaa":5110,"gaira":5111,"gajaa":5112,"garha":5113,"shhaNa":5114,"Ġwiwar":5115,"Ġwisar":5116,"Ġwidur":5117,"kapi":5118,"Ġparata":5119,"Ġkare":5120,"dhayaa":5121,"Ġsharwa":5122,"Ġnada":5123,"itapra":5124,"Ġaawa":5125,"ĠaajJNaa":5126,"Ġaamantrya":5127,"Ġyash":5128,"Ġyakshha":5129,"ĠyajJN":5130,"Ġday":5131,"Ġdayu":5132,"daama":5133,"daasa":5134,"Ġbhaira":5135,"bharaNaa":5136,"Ġniy":5137,"Ġnishha":5138,"saara":5139,"hiina":5140,"ĠgaNa":5141,"Ġgatama":5142,"Ġjayaa":5143,"ĠjaTaa":5144,"Ġhantu":5145,"Ġrakshhya":5146,"Ġgira":5147,"riiD":5148,"ishhThe":5149,"warNi":5150,"Ġkaamaana":5151,"baddha":5152,"twaata":5153,"Ġkurawa":5154,"mukhyaa":5155,"Ġsamabhawada":5156,"prawiira":5157,"gaara":5158,"Ġsaawi":5159,"huuya":5160,"mshapta":5161,"Ġdura":5162,"tman":5163,"Ġparipaala":5164,"chirama":5165,"chitraa":5166,"chaala":5167,"Ġmusa":5168,"ĠkarNama":5169,"raajana":5170,"Ġdehi":5171,"Ġdewyaa":5172,"ĠChuu":5173,"Ġsawakarma":5174,"Ġdewal":5175,"Ġdewala":5176,"Ġdaasha":5177,"baaNa":5178,"karta":5179,"ndhaka":5180,"Ġshushru":5181,"Ġaasana":5182,"swara":5183,"ĠwarNa":5184,"ĠwarNaa":5185,"Ġsattama":5186,"ĠkurushreshhTha":5187,"shiraa":5188,"Ġraamalakshhma":5189,"ĠkarmaNa":5190,"ĠgaatraaNi":5191,"Ġjiiwana":5192,"Ġbharaatura":5193,"putrau":5194,"JNjana":5195,"Ġpareshhayaama":5196,"Ġshakt":5197,"ishhyati":5198,"Ġpariityaa":5199,"Ġdewaanaama":5200,"ĠpaaNDura":5201,"Ġpishaa":5202,"jiiwi":5203,"waarayata":5204,"Ġparatyabhaashhata":5205,"saadanama":5206,"charana":5207,"Ġmanushhya":5208,"Ġgandhar":5209,"Ġbabhuuwu":5210,"oNita":5211,"Ġdhawajaa":5212,"Ġshabdena":5213,"chetana":5214,"Ġsamiipa":5215,"Ġdiwaukasa":5216,"Ġchakrire":5217,"jaanaati":5218,"mtanu":5219,"mdharaama":5220,"ĠshikhaNDinama":5221,"pashyaami":5222,"ĠmaataN":5223,"Ġmaatali":5224,"rjunau":5225,"Ġwardhate":5226,"paraayaNaa":5227,"Ġchakshhushhaa":5228,"Ġkariyataa":5229,"Ġmahaadyuti":5230,"nishchaya":5231,"Ġsumahata":5232,"iJNjayaa":5233,"Ġwishwaamit":5234,"Ġkaarmukama":5235,"Ġshaasanaata":5236,"Ġkausalyaa":5237,"Ġshatasahas":5238,"kaamyayaa":5239,"Chita":5240,"NNa":5241,"awya":5242,"adharma":5243,"abrawii":5244,"bira":5245,"eshhaa":5246,"guu":5247,"iJN":5248,"iddh":5249,"ktyaa":5250,"mbhuu":5251,"mjJNa":5252,"msthaa":5253,"mhitama":5254,"nyaama":5255,"oya":5256,"otaa":5257,"okshh":5258,"opya":5259,"rNaa":5260,"rye":5261,"tswa":5262,"tprasaa":5263,"shritya":5264,"sathaa":5265,"samaana":5266,"samya":5267,"patata":5268,"pann":5269,"raatra":5270,"raajJNaa":5271,"chatu":5272,"dade":5273,"shau":5274,"shawa":5275,"shhma":5276,"wir":5277,"yaataa":5278,"yaaja":5279,"Ġkhe":5280,"Ġtala":5281,"Ġtapya":5282,"Ġpatri":5283,"ĠpaprachCha":5284,"taayaa":5285,"Ġchareta":5286,"Ġah":5287,"Ġamaa":5288,"Ġadyaa":5289,"naapi":5290,"naartha":5291,"teja":5292,"jan":5293,"jayaa":5294,"janama":5295,"janya":5296,"nirma":5297,"niwesha":5298,"Ġmau":5299,"Ġmanaa":5300,"ganaa":5301,"shhakra":5302,"Ġwibhu":5303,"kayaa":5304,"layaa":5305,"Ġparatyaa":5306,"Ġkala":5307,"tulya":5308,"ruma":5309,"rundha":5310,"Ġsharama":5311,"Ġshakta":5312,"Ġaaja":5313,"Ġaarta":5314,"bhidya":5315,"bhishhe":5316,"dhyama":5317,"ĠichChe":5318,"Ġmahaanu":5319,"Ġbhayaawa":5320,"kaal":5321,"kaata":5322,"bhawaana":5323,"bhawama":5324,"Ġniryaa":5325,"Ġnighna":5326,"jaala":5327,"chyuta":5328,"paasha":5329,"paani":5330,"nushhaa":5331,"ĠsuwarNa":5332,"Ġsumantra":5333,"Ġgaru":5334,"Ġjagaamaa":5335,"Ġhanta":5336,"Ġhanyaada":5337,"Ġraj":5338,"Ġram":5339,"Ġrasaa":5340,"Ġchaaya":5341,"Ġmaaru":5342,"Ġmaatraa":5343,"Ġmaahaat":5344,"kshhatra":5345,"Ġeta":5346,"Ġenama":5347,"Ġekena":5348,"Ġyuktama":5349,"suwarNa":5350,"Ġsarwasa":5351,"ryata":5352,"tmani":5353,"msayaa":5354,"bhuutaani":5355,"chChasi":5356,"Ġkarta":5357,"odhasa":5358,"Ġparatibhaati":5359,"Ġdewesha":5360,"Ġsamaagamya":5361,"Ġdewasya":5362,"Ġwayasa":5363,"ndanaa":5364,"karN":5365,"kartaa":5366,"karNasya":5367,"Ġguhaa":5368,"Niiya":5369,"shir":5370,"sheshha":5371,"samanwitaa":5372,"Ġwiiraana":5373,"odayata":5374,"itima":5375,"Ġshiraa":5376,"grahama":5377,"ishhay":5378,"maanaasa":5379,"Ġsarwaasu":5380,"Ġnirda":5381,"Ġsainikaa":5382,"dhwajama":5383,"Ġsahasraa":5384,"Ġdhanur":5385,"Ġpuujya":5386,"Ġpaapasya":5387,"Ġwishru":5388,"Ġdewaanaa":5389,"mhasa":5390,"satrii":5391,"Ġiip":5392,"Ġsawargama":5393,"Ġparawisha":5394,"Ġshatrugh":5395,"Ġtayaja":5396,"mskR":5397,"ojanama":5398,"Ġkauntey":5399,"Ġnihatya":5400,"mrakta":5401,"Ġgire":5402,"rthaaya":5403,"Ġyamasya":5404,"Ġsainyasya":5405,"ithaga":5406,"dhuuma":5407,"Ġtarasaa":5408,"ĠshhaD":5409,"ĠshhashhT":5410,"ishhiiNaa":5411,"Ġcharati":5412,"mdharaa":5413,"lakshhaNa":5414,"Ġbhiimasenena":5415,"oshhaana":5416,"Ġdawijaati":5417,"ĠwasishhT":5418,"Ġaashugai":5419,"ndubhi":5420,"paaNDawaanaa":5421,"Ġapashyata":5422,"paarthi":5423,"Ġbiibhatsu":5424,"rpayata":5425,"ĠkaaraNama":5426,"Ġaashramama":5427,"Ġlakshhmii":5428,"Ġjagmura":5429,"Ġmaatula":5430,"jwaala":5431,"ujasama":5432,"muurdhani":5433,"babhuuwa":5434,"Ġutsahe":5435,"Ġsaakshhaada":5436,"ĠdushhTaatmaa":5437,"meyaatmaa":5438,"ĠraamalakshhmaNau":5439,"Dii":5440,"artha":5441,"astra":5442,"ataya":5443,"abrawiita":5444,"dwii":5445,"dbhisha":5446,"ek":5447,"idama":5448,"jwa":5449,"kuula":5450,"mshaa":5451,"nwaana":5452,"ntaana":5453,"op":5454,"ona":5455,"owR":5456,"ogra":5457,"ochcha":5458,"pla":5459,"pri":5460,"tyaana":5461,"wyuu":5462,"Ġit":5463,"talama":5464,"tasminna":5465,"madhya":5466,"shna":5467,"shuula":5468,"shritaa":5469,"waw":5470,"warma":5471,"nata":5472,"naitada":5473,"pasthite":5474,"haata":5475,"Ġsawe":5476,"Ġsaneha":5477,"raadha":5478,"chari":5479,"dadhaa":5480,"shasa":5481,"waanaa":5482,"waasama":5483,"wipra":5484,"wikR":5485,"widhya":5486,"widhaana":5487,"wishhN":5488,"Ġtapta":5489,"Ġtaraasa":5490,"Ġtasthau":5491,"Ġpala":5492,"taanya":5493,"Ġai":5494,"Ġaprati":5495,"maanya":5496,"maalyaa":5497,"naantare":5498,"niwR":5499,"ĠmaNDa":5500,"Ġmahya":5501,"ĠmaraNa":5502,"gaN":5503,"Naya":5504,"Ġwidha":5505,"Ġwiru":5506,"kashhii":5507,"Ġwapu":5508,"layama":5509,"lastya":5510,"Ġparal":5511,"rikshha":5512,"Ġshawaa":5513,"Ġshariya":5514,"Naaya":5515,"Naawa":5516,"Ġraatrau":5517,"Ġaawishata":5518,"bhyate":5519,"Ġyadu":5520,"yethaa":5521,"dhwama":5522,"Ġdahya":5523,"Ġdamaya":5524,"Ġiwaana":5525,"daasha":5526,"Ġbhagi":5527,"kaam":5528,"Ġniyama":5529,"Ġnipapaata":5530,"chena":5531,"Ġwaara":5532,"Ġwaataa":5533,"Ġwaasaa":5534,"saadha":5535,"Ġbal":5536,"hiinaa":5537,"hema":5538,"dhipaa":5539,"Ġsuni":5540,"ĠsubhR":5541,"ntakama":5542,"Ġjan":5543,"ĠraN":5544,"Ġrakshhitaa":5545,"Ġraghu":5546,"Ġrashmi":5547,"Ġmaaruta":5548,"Ġnaarii":5549,"laaN":5550,"bale":5551,"bali":5552,"Ġetaani":5553,"ĠparaajJNaa":5554,"susa":5555,"muJNcha":5556,"Ġsarwasainyaa":5557,"ndya":5558,"Ġsamar":5559,"ĠhiraNya":5560,"Ġbhaaradwaa":5561,"traaNaa":5562,"tmaka":5563,"syaamya":5564,"khaD":5565,"parayaa":5566,"paratyaa":5567,"Ġyathaawata":5568,"chaapa":5569,"yaamahe":5570,"dish":5571,"Ġmunii":5572,"Ġdharmaputr":5573,"Ġparatijagraaha":5574,"otsa":5575,"ddhR":5576,"Ġsawana":5577,"Ġyaatu":5578,"Ġbaalaa":5579,"drawa":5580,"Ġjaanaati":5581,"darshaa":5582,"ĠdaaruNa":5583,"Ġtattwena":5584,"etana":5585,"Ġshushraawa":5586,"Ġshaarad":5587,"ryaada":5588,"Ġarthaa":5589,"Ġguhya":5590,"Ġanusma":5591,"Ġkashhama":5592,"Ġsathuu":5593,"Ġdawijaana":5594,"petu":5595,"sarwaana":5596,"Ġketu":5597,"ochasi":5598,"Ġtapas":5599,"yina":5600,"ĠbaraahmaNaana":5601,"waasasa":5602,"Ġanwi":5603,"Ġanyaana":5604,"jighaa":5605,"odwaha":5606,"Ġutthaaya":5607,"Ġpariita":5608,"Ġpariitira":5609,"Ġwishruta":5610,"mantama":5611,"Ġaatmani":5612,"oshhama":5613,"ĠlakshhmaN":5614,"piiDa":5615,"Ġwiwidhaana":5616,"Ġkaalasya":5617,"Ġwishaalaa":5618,"Ġsawarge":5619,"rduu":5620,"ĠpaaNDunandana":5621,"Ġdhiga":5622,"Ġnihat":5623,"Ġmunira":5624,"Ġjayadratha":5625,"ĠtishhThanti":5626,"Ġchaturdasha":5627,"Ġdarutama":5628,"Ġanyada":5629,"Ġkimartha":5630,"Ġsuury":5631,"Ġpiitwaa":5632,"shhyaamya":5633,"ijada":5634,"Ġraakshhasaana":5635,"Ġkuruudwa":5636,"abhayabhaashhata":5637,"Ġyamasaadanama":5638,"ithag":5639,"Ġgadaama":5640,"Ġwayawasthita":5641,"ogaada":5642,"ishhiina":5643,"Ġmamaachakshhwa":5644,"Ġaachakshhwa":5645,"Ġmahaatmaan":5646,"Ġkurwana":5647,"Ġmuhuurtama":5648,"Ġnadiima":5649,"etaawada":5650,"paraayaNa":5651,"Ġanekasha":5652,"Ġyugakshhaye":5653,"ĠparatishhThitama":5654,"ĠgaaNDiiwa":5655,"Ġkewala":5656,"Ġhutaashana":5657,"Ġadhyaatma":5658,"Ġhanishhyaami":5659,"Ġduraasadama":5660,"ashwatthaamaa":5661,"Ġdhenu":5662,"Ġsaardhama":5663,"waipaayana":5664,"darupada":5665,"bhyetya":5666,"igiishhawya":5667,"dudruwu":5668,"waishhampaayana":5669,"an":5670,"ada":5671,"akshha":5672,"ashwaa":5673,"abhuuda":5674,"etaana":5675,"icha":5676,"iNaa":5677,"imi":5678,"inta":5679,"kle":5680,"lb":5681,"mde":5682,"mgata":5683,"mjJN":5684,"mkaara":5685,"mmata":5686,"mwaada":5687,"mchintya":5688,"oshhu":5689,"omya":5690,"ochaa":5691,"odhe":5692,"pyaa":5693,"stara":5694,"ubhau":5695,"aasa":5696,"hati":5697,"hala":5698,"hanti":5699,"harata":5700,"tarii":5701,"yan":5702,"yath":5703,"wayaasa":5704,"sata":5705,"saira":5706,"nawa":5707,"haasha":5708,"haarya":5709,"Ġsakha":5710,"raajJNa":5711,"danta":5712,"sharaa":5713,"shalya":5714,"shhyata":5715,"yaam":5716,"yaadR":5717,"Ġkhaa":5718,"Ġtawaana":5719,"Ġtarpa":5720,"Ġtanuma":5721,"Ġcharaa":5722,"Ġcharita":5723,"Ġchandrama":5724,"Ġadhii":5725,"Ġameyaatmaa":5726,"maayaa":5727,"maaJNa":5728,"naasti":5729,"Ġmataa":5730,"Ġmagha":5731,"gamaa":5732,"Ġwine":5733,"Ġwishhaa":5734,"Ġwiddh":5735,"Ġwiwesha":5736,"ĠwijJNe":5737,"Ġwal":5738,"Ġwasuu":5739,"ĠwaruNa":5740,"Ġwaseta":5741,"Ġparasthaa":5742,"Ġparadyu":5743,"Ġkaraa":5744,"Ġkalaa":5745,"Ġkashya":5746,"shhTasa":5747,"riy":5748,"Ġshanai":5749,"Ġnasa":5750,"itawata":5751,"Ġyasmina":5752,"wegena":5753,"Ġdau":5754,"Ġdaityaa":5755,"Ġmahaawega":5756,"Ġbhaktaa":5757,"kaatmajaa":5758,"Ġnidha":5759,"Ġnirya":5760,"Ġnishhe":5761,"Ġniwaata":5762,"Ġuchya":5763,"jaani":5764,"chyaa":5765,"saatya":5766,"nuja":5767,"Ġsuwrata":5768,"Ġdhanama":5769,"Ġgantu":5770,"Ġrakta":5771,"Ġraktaa":5772,"dhaaraa":5773,"Ġmaachirama":5774,"kshhase":5775,"ishhTibhi":5776,"Ġnaaraa":5777,"Ġnaabhya":5778,"Ġnaarad":5779,"NDuu":5780,"ĠkaaN":5781,"Ġkaana":5782,"laata":5783,"Ġetaana":5784,"Ġparaakra":5785,"Ġparaahura":5786,"Ġparaakramama":5787,"siddha":5788,"Ġtaawata":5789,"gaahya":5790,"Ġsaara":5791,"Ġsaadha":5792,"Ġchikiir":5793,"Ġchikiirshha":5794,"Ġmeghaa":5795,"meshhu":5796,"Ġraajaputraa":5797,"Ġduhitaa":5798,"JNjii":5799,"Ġbhaashhitama":5800,"traana":5801,"Ġparigha":5802,"ĠparipR":5803,"Ġbhiimena":5804,"Ġsahalakshhma":5805,"Ġbhuumira":5806,"ĠkarNena":5807,"raajake":5808,"Ġjih":5809,"odhayata":5810,"Ġparatipadyate":5811,"Ġdeshama":5812,"ghaT":5813,"Ġpunasha":5814,"Ġtatraiwaa":5815,"Ġyaahi":5816,"Ġlawa":5817,"asamya":5818,"asamiiti":5819,"wanandana":5820,"ĠsharaNa":5821,"Ġsharaddhaa":5822,"shuddha":5823,"paraapta":5824,"Ġastrama":5825,"dhyati":5826,"dhyase":5827,"Ġarcha":5828,"ipasattama":5829,"hast":5830,"Ġpaarshwa":5831,"sheshhaa":5832,"itena":5833,"Ġshil":5834,"ntaawa":5835,"sthitaana":5836,"Ġtapasha":5837,"Ġtaridashaa":5838,"athaina":5839,"Ġwidita":5840,"Ġrud":5841,"tawara":5842,"suuyaa":5843,"ntiima":5844,"ĠtishhThe":5845,"Ġpashyasi":5846,"dhwajaa":5847,"odwi":5848,"Ġpareta":5849,"Ġbhagawaa":5850,"Ġwayaadhi":5851,"Ġmahiipaala":5852,"Ġpariitima":5853,"Ġbhawena":5854,"Ġjanakaatmajaa":5855,"Ġwishwaruu":5856,"sarwathaa":5857,"Ġraaghaw":5858,"mbhawama":5859,"patanta":5860,"Ġmaanada":5861,"kaaraNaata":5862,"phalama":5863,"Ġashwaana":5864,"ĠsawarNa":5865,"Ġparawishya":5866,"Ġnayaweda":5867,"Ġaashrita":5868,"Ġwishhaye":5869,"araju":5870,"Ġmunipu":5871,"ĠshareshhTh":5872,"shrutya":5873,"Ġanyata":5874,"Ġanyathaa":5875,"Ġkarawaa":5876,"mrabdhaa":5877,"Ġwaasudew":5878,"Ġgiraa":5879,"rthaana":5880,"shhyaam":5881,"Ġparabhuma":5882,"baraahmaNa":5883,"Ġpaawakama":5884,"mbuuna":5885,"ĠChaadayaama":5886,"Ġdishasha":5887,"Ġwinashyati":5888,"mdamama":5889,"kalma":5890,"Ġyashaswina":5891,"Ġyashaswiniima":5892,"Ġmahaatmaanau":5893,"Ġchintayaama":5894,"Ġsadaiwa":5895,"wardhanama":5896,"Ġbhiimasenama":5897,"Ġwaktu":5898,"ĠwimuJNcha":5899,"Ġshuchira":5900,"Ġpaarthaana":5901,"kuuTa":5902,"agani":5903,"paaJNchaalaa":5904,"shariira":5905,"puujayata":5906,"raNye":5907,"naaraayaNa":5908,"Ġwetti":5909,"Ġshilaash":5910,"ĠlakshhaNama":5911,"Ġnishchaya":5912,"Ġwaahiniima":5913,"Ġbharaatarau":5914,"yuuthapaa":5915,"Ġmediniima":5916,"Ġsamudrasya":5917,"Ġmahaawiiryaa":5918,"Ġdewendra":5919,"Ġbhaamini":5920,"Ġdadyaada":5921,"diirgha":5922,"daraupadii":5923,"Ġhanumaana":5924,"Ġparajwal":5925,"anena":5926,"dityaa":5927,"gy":5928,"hne":5929,"itu":5930,"ichChaami":5931,"kitaa":5932,"mraa":5933,"mtu":5934,"mdh":5935,"mch":5936,"mwar":5937,"mdi":5938,"mse":5939,"obhya":5940,"oNena":5941,"phu":5942,"priyaa":5943,"rdi":5944,"uda":5945,"aarur":5946,"tathaiwaa":5947,"mahi":5948,"rayata":5949,"shl":5950,"shishhTaa":5951,"wanama":5952,"wayuu":5953,"sada":5954,"sakR":5955,"same":5956,"sattamaa":5957,"nadii":5958,"pasya":5959,"hiraNya":5960,"raaje":5961,"charata":5962,"sharuu":5963,"shakra":5964,"sharai":5965,"waaka":5966,"shhwaa":5967,"widdh":5968,"wisma":5969,"Ġtast":5970,"Ġpakshha":5971,"ĠpaJNchaa":5972,"Ġchatura":5973,"Ġchaitada":5974,"Ġchakshhura":5975,"Ġasu":5976,"ĠaJNja":5977,"Ġaishwar":5978,"maawa":5979,"maalii":5980,"jata":5981,"jala":5982,"jaTaa":5983,"Ġmaya":5984,"Ġmale":5985,"gachChe":5986,"kasyaa":5987,"Ġwayu":5988,"Ġparayata":5989,"Ġparapura":5990,"Ġkashh":5991,"Ġkawacha":5992,"Ġshaktaa":5993,"Ġshataani":5994,"ĠshastraaNi":5995,"ĠnashhTa":5996,"Ġnataparwa":5997,"yusha":5998,"yuktena":5999,"Ġaana":6000,"Ġaaditya":6001,"Ġyad":6002,"yeshhaa":6003,"reshhwa":6004,"wedama":6005,"Ġiwaacha":6006,"Ġimau":6007,"Ġindriyaa":6008,"Ġmahaama":6009,"Ġmahaabha":6010,"ĠmahaamR":6011,"Ġbhawana":6012,"Ġbhayaana":6013,"Ġpurama":6014,"Ġnima":6015,"Ġniyata":6016,"jaalena":6017,"Ġpaarwa":6018,"Ġwaata":6019,"ĠwaaraNaa":6020,"Ġbaddha":6021,"Ġsarw":6022,"paaNira":6023,"dhiga":6024,"Ġsusamaa":6025,"Ġsupar":6026,"Ġtubhya":6027,"Ġgarasa":6028,"Ġgaraama":6029,"Ġrawi":6030,"Ġchaasi":6031,"Ġchaapare":6032,"riira":6033,"nemi":6034,"Ġnaapi":6035,"itaasa":6036,"itaasha":6037,"Ġkaalama":6038,"ĠparaakR":6039,"Ġsarwadharma":6040,"ndre":6041,"ndrii":6042,"bhaashhi":6043,"uurdhwa":6044,"maanasha":6045,"Ġraajarshhi":6046,"ruuna":6047,"ĠdushhTa":6048,"tiiha":6049,"tmanaama":6050,"Ġpariwaarya":6051,"syaarthe":6052,"chit":6053,"kur":6054,"kulaama":6055,"Ġbhiimaa":6056,"Ġyathaagatama":6057,"chaariNa":6058,"ĠmuJNcha":6059,"Ġmuchyate":6060,"Ġtatasha":6061,"shwaratha":6062,"tatyaa":6063,"kshhitaama":6064,"odhane":6065,"ĠCh":6066,"leshhu":6067,"Ġsawala":6068,"Ġyaawata":6069,"opajii":6070,"Ġbaahuu":6071,"Ġsharad":6072,"Ġwedaana":6073,"shushru":6074,"shhThita":6075,"Ġshaapa":6076,"Ġshaarduula":6077,"Ġshaalwa":6078,"dhyayana":6079,"ryaadaa":6080,"ĠguNaira":6081,"Ġabhiprekshhya":6082,"ipaNa":6083,"Ġkashhatri":6084,"Ġpurushhe":6085,"Ġputrash":6086,"Ġkurushhwa":6087,"shikhaa":6088,"gamama":6089,"Ġupasthitama":6090,"ĠupaspR":6091,"Ġsharutaa":6092,"ĠwarawarNi":6093,"Ġchena":6094,"Ġshiwaa":6095,"Ġpuurwe":6096,"Ġsatyawatii":6097,"ochata":6098,"ochanaa":6099,"maanaani":6100,"anaya":6101,"oNau":6102,"Ġpurushharshhabhaa":6103,"abhishhi":6104,"mjayau":6105,"Ġparekshha":6106,"Ġpareshhaa":6107,"mpata":6108,"Ġwayaagh":6109,"ĠsauhR":6110,"Ġsaumadat":6111,"idaye":6112,"ishhNasya":6113,"Ġawasthaa":6114,"Ġjananii":6115,"ĠpaaNDawaanaama":6116,"ĠwishishhTa":6117,"Ġwishishhyate":6118,"Ġmahaarathai":6119,"Ġsathaawara":6120,"ĠlakshhmaNena":6121,"Ġkashhiti":6122,"karmaNa":6123,"giita":6124,"Ġiishwara":6125,"Ġputraasa":6126,"okena":6127,"Ġhetu":6128,"Ġgurura":6129,"Ġnihate":6130,"ĠshareshhThaa":6131,"oNitama":6132,"Ġraaghawasya":6133,"Ġparayat":6134,"chetasama":6135,"raashani":6136,"Ġraakshhasaadhipa":6137,"dbhutama":6138,"shaasanaata":6139,"widita":6140,"datte":6141,"mwibha":6142,"dhuunaa":6143,"kalpaa":6144,"Ġduraatmana":6145,"Ġnarda":6146,"rNawa":6147,"ĠjayeshhTh":6148,"ĠguNai":6149,"Ġwichitra":6150,"kampata":6151,"Ġraakshhasendrasya":6152,"Ġuuchu":6153,"samut":6154,"Ġsahitau":6155,"jagmusa":6156,"Ġshakunira":6157,"Ġbalinaa":6158,"Ġripuu":6159,"Ġwimala":6160,"ĠparadakshhiNama":6161,"kushala":6162,"Ġpadaati":6163,"ichChra":6164,"jaJNaana":6165,"Ġsaparsha":6166,"wishaarada":6167,"bharaatR":6168,"Ġmahaamune":6169,"Ġyuyudhaana":6170,"ĠgaaNDiiwadha":6171,"Ġshukla":6172,"Ġghaata":6173,"Ġyuuya":6174,"Ġyuutha":6175,"shikhaNDii":6176,"ishhTadyumn":6177,"wisheshha":6178,"ĠkashhetrajJNa":6179,"Ġyugaante":6180,"Ġbhaaskara":6181,"Ġdawitiiya":6182,"ĠichChaamya":6183,"baandhawaa":6184,"Ġparakaashate":6185,"Ġsainyeshhu":6186,"Ġkuraw":6187,"Ġbiibhatsura":6188,"radhiiyata":6189,"shuddhaatmaa":6190,"Ġanaamayama":6191,"puraskR":6192,"iJNjaya":6193,"Ġparaakramii":6194,"Tu":6195,"ay":6196,"ari":6197,"ajaatasha":6198,"hyama":6199,"hsR":6200,"imaa":6201,"jitwaa":6202,"mh":6203,"msta":6204,"ogi":6205,"ochCh":6206,"opeta":6207,"smya":6208,"swata":6209,"uluu":6210,"wyena":6211,"yita":6212,"Ġshh":6213,"Ġruupe":6214,"aakaasha":6215,"tad":6216,"tala":6217,"tasmaana":6218,"maNDa":6219,"shishhya":6220,"wasu":6221,"wantama":6222,"sadaa":6223,"sawya":6224,"palaa":6225,"pariya":6226,"haari":6227,"raah":6228,"raaga":6229,"chaya":6230,"charyaa":6231,"chamuu":6232,"chareta":6233,"danama":6234,"shatru":6235,"waakya":6236,"shhuu":6237,"winau":6238,"widhyata":6239,"Ġahi":6240,"Ġanti":6241,"Ġapaatayata":6242,"maali":6243,"nishha":6244,"Ġmatwaa":6245,"gandhi":6246,"Ġwimaana":6247,"Ġwipre":6248,"kaura":6249,"Ġwaiwa":6250,"Ġparab":6251,"Ġparach":6252,"Ġparasuu":6253,"Ġparasiida":6254,"Ġkasa":6255,"ĠkariiDa":6256,"shhTwaa":6257,"dhanwi":6258,"ruru":6259,"Ġnau":6260,"itana":6261,"itakR":6262,"yuyu":6263,"itwa":6264,"itwi":6265,"ittira":6266,"Ġaah":6267,"Ġaay":6268,"Ġaayasa":6269,"Ġaashii":6270,"bhru":6271,"bhrama":6272,"Ġyasyaa":6273,"Ġyatta":6274,"Ġdadhi":6275,"ĠdaND":6276,"Ġdadyaa":6277,"Ġimaana":6278,"daawa":6279,"Ġmahaawane":6280,"Ġmahaabhuja":6281,"Ġbhag":6282,"Ġbhayaada":6283,"kaashaa":6284,"bhasa":6285,"Ġunma":6286,"Ġuchcha":6287,"Ġubhay":6288,"Ġsheshha":6289,"Ġshitaira":6290,"Ġpaape":6291,"Ġwaaka":6292,"Ġbabhaa":6293,"paap":6294,"Ġsutaana":6295,"ĠtushhT":6296,"ntaraa":6297,"Ġjanasa":6298,"Ġjantu":6299,"Ġhanti":6300,"Ġrasa":6301,"Ġchaabrawiita":6302,"ishhTira":6303,"ntibh":6304,"Ġnaarha":6305,"Ġnaamnaa":6306,"ĠkaashhTha":6307,"Ġkaarta":6308,"Ġetacha":6309,"ĠkuNDa":6310,"Ġparaadur":6311,"mum":6312,"Ġsarwathaa":6313,"putre":6314,"ndhii":6315,"pratii":6316,"gaasa":6317,"gaaNDii":6318,"dyamaana":6319,"tatasha":6320,"nyada":6321,"ishhNena":6322,"ryayaa":6323,"ishasa":6324,"Ġduhita":6325,"niiha":6326,"Ġbhaawitaa":6327,"wiikshhya":6328,"tmakama":6329,"msasi":6330,"paragR":6331,"Ġyathaakaama":6332,"Ġmukh":6333,"Ġmuhya":6334,"Ġmudita":6335,"jJNaanaa":6336,"kshhiNaama":6337,"odhamuur":6338,"deshhu":6339,"ĠChii":6340,"ĠChR":6341,"opasa":6342,"Ġsharaisa":6343,"shubhama":6344,"darshii":6345,"Ġshubhama":6346,"Ġabhii":6347,"Ġabhipraa":6348,"ipaNaa":6349,"hasti":6350,"Ġpaarshwe":6351,"Ġkurupu":6352,"Ġkurusattama":6353,"Ġbarahmahatyaa":6354,"rathama":6355,"peNa":6356,"Ġparamadaa":6357,"ghaati":6358,"strabhR":6359,"ĠpuurNaa":6360,"sthit":6361,"Ġnityadaa":6362,"abhimanyu":6363,"gninaa":6364,"tawayi":6365,"suuya":6366,"ahani":6367,"Ġtiti":6368,"jigiishha":6369,"Ġkhayaata":6370,"mahaana":6371,"Ġpareshha":6372,"Ġbhagawataa":6373,"Ġparaaptama":6374,"mpari":6375,"Ġutpaa":6376,"ishhNasa":6377,"krushu":6378,"shrawaa":6379,"pashyana":6380,"pashyati":6381,"shhTaawa":6382,"bhiisma":6383,"ĠpaaNDawasya":6384,"ĠpaaNDawaira":6385,"Ġjanamejaya":6386,"Ġpuujita":6387,"ritai":6388,"Ġkaurawe":6389,"myuktaa":6390,"daanawa":6391,"kiirta":6392,"mgamaa":6393,"mnibha":6394,"Ġwartamaane":6395,"awatiirya":6396,"Ġdaanawaana":6397,"igayaa":6398,"sahasreNa":6399,"ĠichChataa":6400,"rdita":6401,"muuDha":6402,"Ġaashritaa":6403,"Ġapashyaama":6404,"tishhThanta":6405,"Ġkarishhyanti":6406,"Ġdaruma":6407,"patti":6408,"Ġrakshhasaama":6409,"Ġshaineya":6410,"ratna":6411,"Ġbhinna":6412,"Ġawyaya":6413,"Ġparahasya":6414,"ottamaana":6415,"Ġmuurdha":6416,"mwiitaa":6417,"Ġagnira":6418,"iddhaana":6419,"ishhiikesha":6420,"sarweshhaa":6421,"ĠtiikshhNaa":6422,"Ġwiiryama":6423,"psarasaa":6424,"Ġwasati":6425,"Ġuuchura":6426,"opamai":6427,"Ġkurwanti":6428,"ĠshastrabhR":6429,"ĠparawawR":6430,"Ġwipulaa":6431,"Ġadbhuta":6432,"sukhama":6433,"bhagawana":6434,"ĠpaaJNchaalaanaa":6435,"ĠkashhiiNa":6436,"Ġsainyaanaa":6437,"Ġmukhama":6438,"sawaagata":6439,"suurya":6440,"shaila":6441,"Ġsaumitrira":6442,"ĠparayachChati":6443,"ĠparayachChanti":6444,"Ġwikramama":6445,"Ġatand":6446,"Ġwilapa":6447,"Ġmahaamuni":6448,"Ġmahaadyute":6449,"Ġbaahw":6450,"Ġwayuuha":6451,"Ġaashrame":6452,"Ġwaamadewa":6453,"Ġbhaktyaa":6454,"ĠdharaNiitale":6455,"Ġsawyasaachinaa":6456,"Ġabrawiina":6457,"ĠwibhiishhaNa":6458,"Ġniweshanama":6459,"asamaaka":6460,"Ġdarakshhyasi":6461,"waahiniima":6462,"oddhuma":6463,"Ġpawitra":6464,"ĠbaruwaaNa":6465,"ĠpaaNDuputraaNaa":6466,"Ġpaakashaasana":6467,"Ġdhaarmika":6468,"aneka":6469,"abrawiicha":6470,"Ġraghunandana":6471,"Ġanusmarana":6472,"Ġkuruudwaha":6473,"Chaada":6474,"ag":6475,"adha":6476,"asmina":6477,"bii":6478,"duur":6479,"gita":6480,"ij":6481,"ime":6482,"ibhira":6483,"iju":6484,"ktuma":6485,"mtaa":6486,"mgaa":6487,"mshra":6488,"mbhii":6489,"mpre":6490,"obh":6491,"ojaya":6492,"odhaana":6493,"ptaana":6494,"rN":6495,"rmaa":6496,"sitama":6497,"stre":6498,"haraNa":6499,"raja":6500,"radama":6501,"yakshha":6502,"yathaiwa":6503,"shraa":6504,"wati":6505,"wate":6506,"sam":6507,"nanti":6508,"paT":6509,"paprachCha":6510,"haahaa":6511,"Ġsahi":6512,"Ġsacha":6513,"dayata":6514,"dakshhiNama":6515,"sharu":6516,"waahana":6517,"widdha":6518,"wisR":6519,"wishana":6520,"wikramaa":6521,"yaan":6522,"yaaNaa":6523,"yaawada":6524,"ĠcharaNau":6525,"Ġadii":6526,"Ġaji":6527,"Ġamba":6528,"Ġakurwa":6529,"naasa":6530,"naabhyaa":6531,"tewa":6532,"teti":6533,"jayama":6534,"jale":6535,"jajJNe":6536,"niha":6537,"niraa":6538,"nibha":6539,"niwarta":6540,"Ġmari":6541,"Ġmatsa":6542,"ĠmaNDuu":6543,"gala":6544,"gare":6545,"gamyaa":6546,"shhasa":6547,"shharii":6548,"Ġwiwya":6549,"Ġwikhyaa":6550,"Ġwikraa":6551,"Ġwiwardha":6552,"ĠwiraaT":6553,"kare":6554,"kaira":6555,"kalyaa":6556,"Ġwadaa":6557,"Ġwarma":6558,"Ġwasana":6559,"Ġwashama":6560,"Ġparadhaa":6561,"ĠparaNe":6562,"Ġparamukhe":6563,"thaasa":6564,"Ġshal":6565,"Ġshashaa":6566,"Ġshastraa":6567,"ĠraajJNe":6568,"yugaa":6569,"Ġchu":6570,"itye":6571,"Ġaara":6572,"Ġaagamya":6573,"Ġaapanna":6574,"bhibhuu":6575,"yetu":6576,"wekshhya":6577,"weshhTa":6578,"Ġdas":6579,"ĠishhTaa":6580,"Ġbhagna":6581,"bharata":6582,"Ġur":6583,"ĠuchCh":6584,"Ġukte":6585,"jaasha":6586,"Ġwaatara":6587,"Ġwaarshhi":6588,"Ġwaahana":6589,"Ġbah":6590,"Ġbandha":6591,"paawa":6592,"Ġtebhy":6593,"tyartha":6594,"Ġtawaritaa":6595,"dhika":6596,"Ġsukhe":6597,"Ġsukumaa":6598,"Ġsubahuu":6599,"Ġdhanuu":6600,"Ġgatasa":6601,"Ġjani":6602,"Ġhatama":6603,"Ġhastaa":6604,"Ġchaahama":6605,"shhaata":6606,"jJNena":6607,"itaastra":6608,"Ġkaamya":6609,"bandh":6610,"namaskR":6611,"ĠparaawR":6612,"sukhaa":6613,"sugriiwa":6614,"muchya":6615,"puNyaa":6616,"ĠtaaJNa":6617,"bhaawana":6618,"Ġsamabhawata":6619,"Ġsaant":6620,"Ġchitta":6621,"Ġraajashaarduula":6622,"JNche":6623,"Ġpariy":6624,"syaanu":6625,"syaamita":6626,"khai":6627,"rshhayasha":6628,"chitama":6629,"myati":6630,"kuNDa":6631,"kurwaa":6632,"paras":6633,"paramaa":6634,"bhuuy":6635,"Ġyathaawada":6636,"dire":6637,"Ġmumu":6638,"wyasa":6639,"ĠdharmajJNaa":6640,"odhama":6641,"ĠparatishhThaa":6642,"shhyatha":6643,"Ġsawabhaa":6644,"Ġyaacha":6645,"Ġyaanta":6646,"Ġlalaa":6647,"oraga":6648,"asatra":6649,"Ġwayathaa":6650,"Ġwayadhama":6651,"ĠsharawR":6652,"shushruushha":6653,"darshi":6654,"yaanagha":6655,"ishhTawaana":6656,"Ġshaanta":6657,"ĠguDaa":6658,"ipasha":6659,"ipatira":6660,"Ġwarja":6661,"gendra":6662,"tmaan":6663,"hastaa":6664,"Ġdawipa":6665,"Ġbhiimaparaakrama":6666,"Ġdiwyama":6667,"Ġupasa":6668,"Ġkarmasu":6669,"Ġwaratama":6670,"Ġiwaambu":6671,"sarwata":6672,"Ġcheha":6673,"ghaanaa":6674,"Ġrathawa":6675,"Ġdhaaraa":6676,"Ġdhaataa":6677,"ochati":6678,"Ġtapasi":6679,"Ġtaril":6680,"darshane":6681,"anaye":6682,"anayathaa":6683,"Ġsindhu":6684,"omadatta":6685,"abhiwaa":6686,"dheya":6687,"Ġbhagadatta":6688,"Ġparaapte":6689,"Ġwayaaghra":6690,"Ġshariire":6691,"Ġshariirama":6692,"ishhNayaa":6693,"ĠkaruNa":6694,"Ġawasthitama":6695,"Ġkaushi":6696,"Ġkautuu":6697,"Ġjanapade":6698,"Ġpuujaya":6699,"Ġaatman":6700,"mpratama":6701,"mprahR":6702,"sarwama":6703,"Ġbuddhima":6704,"mahataa":6705,"ĠawaasR":6706,"raawaNa":6707,"mgamya":6708,"ottamai":6709,"karmaNaama":6710,"phal":6711,"satriya":6712,"ĠparawishhTa":6713,"Ġshatrughna":6714,"Ġwartamaana":6715,"ĠpaaJNchaalii":6716,"Ġmahaanadii":6717,"Ġwajrama":6718,"Ġwishhama":6719,"tishhThati":6720,"Ġbabhuuwura":6721,"Ġwidhiwada":6722,"kiirya":6723,"Ġdarumaa":6724,"patnii":6725,"ĠparyapR":6726,"oNit":6727,"Ġpiita":6728,"maarga":6729,"Ġshakrasya":6730,"Ġshailaa":6731,"atiiwa":6732,"Ġraakshhasaanaa":6733,"ĠkuruuNaama":6734,"Ġaniwarti":6735,"mpraaptaa":6736,"Ġyamakshhayama":6737,"Ġkashhudhaa":6738,"abarawii":6739,"Ġsahaamaatya":6740,"ĠmuuDhaa":6741,"pramatta":6742,"Ġparabhura":6743,"Ġsaptabhi":6744,"Ġjiiwitaa":6745,"Ġjiiwituma":6746,"iddhaanaa":6747,"Ġduuta":6748,"Ġnishaachara":6749,"druma":6750,"ĠtiikshhNai":6751,"Ġdaraupadyaa":6752,"ohaada":6753,"tawaama":6754,"ĠsamutsR":6755,"Ġwimukta":6756,"ĠkalyaaNii":6757,"Ġraakshhasendra":6758,"bhiishhmadr":6759,"Ġdushhkara":6760,"daraupade":6761,"Ġnawabhi":6762,"Ġchandramaa":6763,"Ġmahishhii":6764,"ĠmantriNa":6765,"Ġbhuutaanaama":6766,"Ġsamantaada":6767,"ttwi":6768,"daiwatama":6769,"Ġaparaajita":6770,"Ġsaumitri":6771,"Ġsaumitre":6772,"paarshwa":6773,"ĠsharawarshhaaNi":6774,"Ġsiddhima":6775,"Ġpashchaada":6776,"Ġkewalama":6777,"Ġatyanta":6778,"Ġkumaara":6779,"Ġbaahli":6780,"ĠpaaNinaa":6781,"Ġdayuuta":6782,"rshhiiNaa":6783,"Ġwigataj":6784,"otsaaha":6785,"Ġbhaaminii":6786,"Ġtathetya":6787,"Ġhastina":6788,"Ġbhaaradwaajasya":6789,"Ġsalila":6790,"ĠruupaaNi":6791,"ĠwarishhTha":6792,"gaandhaarii":6793,"Ġraajaputrii":6794,"wattarama":6795,"hshreyasa":6796,"mraktal":6797,"lbishha":6798,"Ġtawaanagha":6799,"ĠaJNjasaa":6800,"Ny":6801,"al":6802,"acha":6803,"asyaa":6804,"akar":6805,"alpa":6806,"dri":6807,"dyama":6808,"gne":6809,"gheNa":6810,"hshha":6811,"ikama":6812,"ichChaa":6813,"ikshhe":6814,"iDhaa":6815,"mdwa":6816,"mkalpa":6817,"mCha":6818,"mjaayate":6819,"mpuujya":6820,"ntaama":6821,"ohe":6822,"oddhaa":6823,"oTa":6824,"pti":6825,"sewa":6826,"str":6827,"tsaa":6828,"tpi":6829,"tkR":6830,"wraa":6831,"ĠruupeNa":6832,"aatmaa":6833,"aatmaana":6834,"tar":6835,"rasi":6836,"rashmi":6837,"yatya":6838,"yatraa":6839,"yamaan":6840,"shw":6841,"wan":6842,"way":6843,"sap":6844,"sawar":6845,"sahita":6846,"patana":6847,"haani":6848,"Ġsah":6849,"Ġsadya":6850,"Ġsatana":6851,"raatri":6852,"chay":6853,"dadh":6854,"dashe":6855,"dayuu":6856,"shaw":6857,"waase":6858,"waadii":6859,"shhy":6860,"shhNi":6861,"shhNii":6862,"Ġtare":6863,"ĠpaN":6864,"Ġchakraa":6865,"tishhThe":6866,"Ġadha":6867,"Ġatu":6868,"Ġachi":6869,"ĠapR":6870,"Ġanena":6871,"maatraa":6872,"maalya":6873,"janma":6874,"nina":6875,"nishhThaa":6876,"nihatya":6877,"uuchu":6878,"gachChaa":6879,"Ġwihaa":6880,"Ġwidaa":6881,"Ġwibha":6882,"ĠwiwR":6883,"Ġwidya":6884,"Ġwijaana":6885,"Ġwipr":6886,"kadaa":6887,"kashhu":6888,"Ġwadana":6889,"Ġwanaani":6890,"laye":6891,"Ġparatra":6892,"ĠparadR":6893,"Ġkarau":6894,"Ġkadana":6895,"Ġkabandha":6896,"ĠkaNT":6897,"riNaama":6898,"dharuwa":6899,"tumu":6900,"Ġshasha":6901,"Ġsharma":6902,"Ġshatr":6903,"Naasha":6904,"Naabhi":6905,"Ġnaika":6906,"ittena":6907,"ĠaanR":6908,"Ġyaira":6909,"Ġyatraa":6910,"yeshhwa":6911,"wesh":6912,"Ġdag":6913,"Ġdanti":6914,"Ġdagdha":6915,"Ġihe":6916,"Ġindr":6917,"Ġmahaanaada":6918,"Ġmahaaswana":6919,"Ġbharu":6920,"Ġbhakta":6921,"kaanya":6922,"Ġnime":6923,"Ġniyat":6924,"Ġnikshhipya":6925,"Ġwaali":6926,"ĠwaaraNa":6927,"Ġwaachya":6928,"saaha":6929,"paaya":6930,"Ġtawadii":6931,"Ġsupra":6932,"Ġsurai":6933,"ntaradhiiyata":6934,"Ġgama":6935,"Ġgandhaa":6936,"ĠgachCheda":6937,"Ġjale":6938,"Ġjaigiishhawya":6939,"Ġhanya":6940,"Ġrakshhi":6941,"dhaanya":6942,"dhaarmi":6943,"Ġchaasmi":6944,"Ġmaadha":6945,"Ġmaasaa":6946,"Ġmaalya":6947,"Ġgura":6948,"riima":6949,"kshheta":6950,"Ġkaam":6951,"Ġkaaka":6952,"baruuhi":6953,"Ġew":6954,"Ġeti":6955,"Ġetena":6956,"Ġsarwasai":6957,"shaarduu":6958,"purushha":6959,"Ġsamama":6960,"Ġsamartha":6961,"Ġsamabhya":6962,"pradaana":6963,"gaaya":6964,"gaanaa":6965,"Ġmeru":6966,"Ġmene":6967,"ishhNu":6968,"tiiya":6969,"niina":6970,"Ġbhaaska":6971,"tmabhi":6972,"tmawaana":6973,"tmajama":6974,"Ġwaishya":6975,"msash":6976,"msana":6977,"rshhay":6978,"myate":6979,"kuni":6980,"parasa":6981,"parawR":6982,"parajJNaa":6983,"Ġbhuuyasa":6984,"chChati":6985,"chaar":6986,"chaarii":6987,"Ġmuch":6988,"Ġmukt":6989,"shwasya":6990,"Ġdharmasha":6991,"Ġdharmawita":6992,"kesh":6993,"keNa":6994,"otsyaami":6995,"opapannaa":6996,"oraruupa":6997,"Ġdewasa":6998,"Ġdewadewa":6999,"Ġwayasana":7000,"Ġdaasa":7001,"Ġdaanta":7002,"ĠdaaruNaa":7003,"Ġmahat":7004,"ttamaana":7005,"Ġdarpa":7006,"Ġsarweshhaama":7007,"Ġshushruu":7008,"Ġkashhatriy":7009,"thyate":7010,"Ġwarshhe":7011,"Ġsatye":7012,"Ġbarahmacha":7013,"Ġupachakrame":7014,"odasha":7015,"odayaama":7016,"ĠkarmaNi":7017,"tyaaga":7018,"iirNa":7019,"Ġwarada":7020,"Ġiwaantakama":7021,"Ġsamudya":7022,"Ġshibira":7023,"jeda":7024,"Ġjiiwaa":7025,"Ġsatyaparaakrama":7026,"ĠyudhishhThire":7027,"ishhayasha":7028,"Ġbhawishhyaami":7029,"ĠbaraahmaNasya":7030,"Ġnirjita":7031,"anayata":7032,"putrasa":7033,"Ġphalaa":7034,"Ġupaagata":7035,"Ġupaagamya":7036,"Ġupaagamata":7037,"Ġupaasate":7038,"Ġsaindha":7039,"Ġsainyena":7040,"ĠbhuJNjate":7041,"Ġtimi":7042,"abhawada":7043,"Ġshakyate":7044,"Ġshaktyaa":7045,"wasati":7046,"Ġutsaha":7047,"Ġpariitaa":7048,"ishhNau":7049,"ĠpaJNchamama":7050,"Ġtiirthama":7051,"ishhira":7052,"Ġdashabhi":7053,"Ġjanapadaa":7054,"ithiwiipate":7055,"ĠdarashhTaa":7056,"Ġnaraadhipaa":7057,"hkhash":7058,"maaNasya":7059,"mprayachCha":7060,"wrate":7061,"Ġkaamaruupi":7062,"mhasya":7063,"Ġuktawaana":7064,"Dayaama":7065,"Ġkashhitau":7066,"mgawaa":7067,"mgate":7068,"ihad":7069,"karmabhi":7070,"jiiwita":7071,"arja":7072,"Ġpushhkara":7073,"Ġsiida":7074,"Ġabhyayaata":7075,"mnibhama":7076,"Ġparatyapadyata":7077,"Ġwinishcha":7078,"Ġdaanawa":7079,"Ġatikramya":7080,"wantasha":7081,"oktu":7082,"ĠsarwashastrabhR":7083,"shrutama":7084,"Ġmahaabalau":7085,"Ġsuutaputrasya":7086,"Ġkarishhye":7087,"bhawanti":7088,"odhaada":7089,"Ġjiiwanti":7090,"raajena":7091,"Ġsuuryasa":7092,"Ġmaargama":7093,"ichChayaa":7094,"Ġmaanushhe":7095,"Ġchitrasena":7096,"athaanyada":7097,"tayaktwaa":7098,"Ġmadhuraa":7099,"ĠdhaartaraashhTraa":7100,"Ġbhuumima":7101,"mpraapte":7102,"bhiimase":7103,"baraahmaNaanaa":7104,"Ġsahaaya":7105,"Ġshubhaana":7106,"mbhraa":7107,"onima":7108,"Ġsabhaayaa":7109,"Ġnaraadhipama":7110,"Ġjiiwite":7111,"hkhaani":7112,"hkhaartaa":7113,"Ġduura":7114,"itsnama":7115,"raajaanama":7116,"Ġbhartaarama":7117,"Ġudaawahana":7118,"Ġsawargal":7119,"Ġgarja":7120,"Ġgamishhyasi":7121,"oshhitaa":7122,"Ġhaardi":7123,"Ġaniiki":7124,"piiDita":7125,"pluta":7126,"Ġgirima":7127,"Ġnawabhira":7128,"ĠnaaraayaNaa":7129,"itiiya":7130,"ihaspatira":7131,"Ġsudushh":7132,"Ġsatanaantare":7133,"Ġshawetawaa":7134,"Ġudyata":7135,"Ġmartya":7136,"Ġtaapasaa":7137,"ĠkiriiTii":7138,"Ġsawyasaachii":7139,"ĠparaNamya":7140,"ĠparaayaNama":7141,"hshaasan":7142,"ĠparatishhThita":7143,"Ġupetya":7144,"Ġdurmati":7145,"shikhaNDina":7146,"Ġmadraraaja":7147,"Ġmaithiliima":7148,"ikshhaana":7149,"hshwasa":7150,"otkaTa":7151,"manushhya":7152,"chakshhushhaa":7153,"warchasa":7154,"Ġpaatayaama":7155,"wasishhTha":7156,"Ġwismaya":7157,"Ġsamiti":7158,"jaghne":7159,"Ġwahni":7160,"Ġlebhe":7161,"Ġparushhaa":7162,"kaaryaaNi":7163,"Ġjawalita":7164,"Ġkurukshhetra":7165,"Ġsutiikshh":7166,"Ġmedhaawii":7167,"otpala":7168,"Ġpadminiima":7169,"hpure":7170,"madraraaja":7171,"taaDayata":7172,"Ġsenayaa":7173,"ĠpuNDariikaa":7174,"Ġtatraiwaantaradhiiyata":7175,"Newa":7176,"at":7177,"abhuu":7178,"apya":7179,"adhyaa":7180,"abhuuta":7181,"dyuu":7182,"dishhTaa":7183,"ditra":7184,"inda":7185,"ijana":7186,"iptaa":7187,"litaa":7188,"mwa":7189,"mshe":7190,"mkshhaye":7191,"mpuurNaa":7192,"nwana":7193,"oshhya":7194,"okt":7195,"ochya":7196,"onma":7197,"ohitama":7198,"osahasra":7199,"rcha":7200,"rthii":7201,"tye":7202,"ughaa":7203,"Ġoja":7204,"hayaa":7205,"taisha":7206,"tathama":7207,"mah":7208,"yas":7209,"wadhaa":7210,"wasi":7211,"sathi":7212,"satata":7213,"satriy":7214,"nas":7215,"naiwaa":7216,"pakshha":7217,"patraa":7218,"haama":7219,"haawa":7220,"Ġsayu":7221,"Ġsant":7222,"Ġsadana":7223,"Ġsayura":7224,"raaha":7225,"raagha":7226,"chakru":7227,"chakshhe":7228,"chakraama":7229,"daND":7230,"shawe":7231,"waapya":7232,"wiwi":7233,"wikra":7234,"widdhaa":7235,"yaatu":7236,"yaawata":7237,"Ġtan":7238,"Ġtarya":7239,"Ġpatra":7240,"Ġpakshhi":7241,"Ġpampaa":7242,"taala":7243,"Ġam":7244,"ĠajJNaa":7245,"Ġashe":7246,"Ġamit":7247,"Ġajaana":7248,"Ġagamata":7249,"maasa":7250,"maataa":7251,"maaga":7252,"naatha":7253,"naanu":7254,"naabhya":7255,"jaira":7256,"nidhi":7257,"nikR":7258,"nibarha":7259,"Ġmate":7260,"Ġmatima":7261,"gartaa":7262,"gandhaa":7263,"gaNaira":7264,"Ġwir":7265,"Ġwida":7266,"Ġwiwaa":7267,"Ġwika":7268,"ĠwikarNa":7269,"Ġwishhaada":7270,"Ġwikraanta":7271,"kalaa":7272,"laha":7273,"labhya":7274,"Ġparawaa":7275,"Ġparawar":7276,"Ġparasu":7277,"ribhi":7278,"rudhi":7279,"Ġsharaasa":7280,"Ġnaiwaa":7281,"Ġnaitada":7282,"itay":7283,"itanaa":7284,"itajJNa":7285,"Ġaas":7286,"Ġaashaa":7287,"Ġaagataa":7288,"ĠaakaaN":7289,"Ġyayu":7290,"ĠyadR":7291,"Ġyakshhaa":7292,"trasa":7293,"bhita":7294,"wekshha":7295,"wedya":7296,"Ġishhyate":7297,"daanaa":7298,"Ġmahaamate":7299,"Ġbharaaja":7300,"kaarama":7301,"kaalaa":7302,"Ġnidhi":7303,"ĠnishhThaa":7304,"Ġuddha":7305,"Ġudwi":7306,"Ġwaalii":7307,"Ġwaayasa":7308,"Ġwaahaana":7309,"nugaa":7310,"heshhu":7311,"miNa":7312,"mishha":7313,"Ġtawarita":7314,"dhita":7315,"dhinaa":7316,"dhipati":7317,"dhirathi":7318,"Ġsute":7319,"Ġsukh":7320,"Ġsushr":7321,"Ġdhanaa":7322,"Ġdharshha":7323,"Ġjah":7324,"ĠjagR":7325,"Ġjagada":7326,"Ġhasta":7327,"Ġchaasyaa":7328,"Ġchaatmaana":7329,"Ġmaasa":7330,"Ġguu":7331,"kshhye":7332,"warmaaNa":7333,"warshheNa":7334,"itaaJNa":7335,"Ġkaamama":7336,"Ġkusu":7337,"Ġkulii":7338,"Ġkuntyaa":7339,"Ġyuyudhaa":7340,"sukumaa":7341,"Ġsarwadaa":7342,"siddhaa":7343,"Ġsamaye":7344,"Ġsamayanna":7345,"Ġsamajaayata":7346,"Ġhitaa":7347,"Ġsaatwa":7348,"medhaa":7349,"ruup":7350,"ruura":7351,"ishata":7352,"niikama":7353,"Neti":7354,"Ġbhaaryayaa":7355,"Ġtathaapare":7356,"Ġparitraa":7357,"Ġwaishyaa":7358,"Ġlip":7359,"chikiirshha":7360,"myataa":7361,"kumbha":7362,"Ġbhiitaa":7363,"Ġsahadew":7364,"Ġmuna":7365,"Ġmukhya":7366,"Ġkarhi":7367,"ghraaya":7368,"Ġdharmata":7369,"Ġdharmachaari":7370,"tath":7371,"Ġdewaasa":7372,"otsye":7373,"ĠpaaNDawena":7374,"Ġsawatejasaa":7375,"Ġyaanya":7376,"ĠyaadR":7377,"ĠyaajJNa":7378,"opahata":7379,"okakar":7380,"Ġdewagandharwa":7381,"Ġjaamba":7382,"Ġwesh":7383,"khyaana":7384,"Ġdaanama":7385,"baahura":7386,"paraaNaa":7387,"shhThitaa":7388,"etasya":7389,"brahma":7390,"Ġshuka":7391,"ĠguN":7392,"Ġanush":7393,"Ġabhija":7394,"ĠwarNaanaa":7395,"gur":7396,"Ġdurgaa":7397,"shilaa":7398,"Ġnaraka":7399,"waikshhata":7400,"Ġupaiti":7401,"odaka":7402,"odadhi":7403,"pede":7404,"Ġbahuwidhaa":7405,"Ġiwaama":7406,"Ġparamarshhaya":7407,"Ġpuurwaa":7408,"tasyaiwa":7409,"ochanama":7410,"ishhaya":7411,"Ġshuudra":7412,"Ġwidma":7413,"Ġwidwaa":7414,"Ġwidyaada":7415,"raNai":7416,"shiilaa":7417,"puurw":7418,"odit":7419,"Ġwiirasya":7420,"Ġshakn":7421,"puujitaa":7422,"ĠpaJNchabhi":7423,"kruddha":7424,"pashyataa":7425,"ĠpaaNDawau":7426,"ishhibhi":7427,"ishhisattama":7428,"Ġpashuuna":7429,"odhanasya":7430,"anujJNaa":7431,"parwata":7432,"sarwabhuuta":7433,"Ġbuddhimaana":7434,"daanasya":7435,"Ġnishchita":7436,"ĠlakshhmaNasya":7437,"Ġpitusa":7438,"gachChana":7439,"gachChada":7440,"ardha":7441,"Ġashru":7442,"wachanaada":7443,"Ġdaanawe":7444,"ĠichChana":7445,"ĠpaaJNchaalaana":7446,"obhane":7447,"Ġbaruuyaa":7448,"Ġharira":7449,"Ġdarshayaama":7450,"Ġwiprarshhe":7451,"shataira":7452,"Ġrathaada":7453,"ihyaa":7454,"Ġbabhuuwaa":7455,"Ġkarishhyasi":7456,"odhaata":7457,"odhaanaa":7458,"Ġanyatra":7459,"Ġbhuutale":7460,"raajye":7461,"Ġsuurye":7462,"Ġsuuryama":7463,"Ġrakshhasa":7464,"maarjuna":7465,"Ġmaanushhaa":7466,"Ġsenaapati":7467,"rathii":7468,"rthaani":7469,"Ġdhawajama":7470,"ikshhata":7471,"Ġparahasana":7472,"Ġantare":7473,"Ġkushalaa":7474,"widuu":7475,"Ġpitar":7476,"yudhishhThir":7477,"ĠbaraahmaNaanaa":7478,"Ġbarawiihi":7479,"Ġcharanti":7480,"ĠwiiryeNa":7481,"ĠudaahR":7482,"rNawama":7483,"ityuma":7484,"psarasa":7485,"Ġuttara":7486,"Ġuttamaa":7487,"Ġwisheshha":7488,"ĠwisheshheNa":7489,"warNaanaa":7490,"kausa":7491,"Ġasmaada":7492,"samudra":7493,"Ġrathina":7494,"Ġnamasyaami":7495,"mukhaana":7496,"Ġjaataruupa":7497,"ishhTadyumnasha":7498,"Ġraudraa":7499,"Ġpuujayitwaa":7500,"Ġyuddhaada":7501,"padma":7502,"Ġwismita":7503,"kimartha":7504,"imase":7505,"wishada":7506,"Ġjuh":7507,"Ġjaanakii":7508,"ĠtariiNi":7509,"Ġapriyama":7510,"Ġmahaamunima":7511,"Ġlakshhyate":7512,"antar":7513,"Ġpannagaa":7514,"Ġatyartha":7515,"Ġmadhyama":7516,"uttara":7517,"Ġsugriiw":7518,"Ġsahadewasha":7519,"obhaada":7520,"Ġbharaatarama":7521,"yuuthapa":7522,"Ġjawalana":7523,"Ġhutaashanama":7524,"ĠwiraaTasya":7525,"Ġnaawabu":7526,"Ġrudatii":7527,"Ġdayuute":7528,"Ġshaantira":7529,"Ġparadiipta":7530,"Ġbaruwati":7531,"Ġparyaapta":7532,"Ġpetura":7533,"ĠshalakshhNa":7534,"Ġaakaashama":7535,"manushhyaa":7536,"Ġkalesha":7537,"Ġniweshane":7538,"ĠmanushhyaaNaa":7539,"jayeshhTha":7540,"paratyudya":7541,"Ġkaashyapa":7542,"Ġsaayakaira":7543,"nimitta":7544,"Ġlubdha":7545,"Ġhanyaata":7546,"Ġkhayaat":7547,"Ġdaraupadeyaa":7548,"Ġparyupaasate":7549,"paaNDu":7550,"ukasaama":7551,"Ġwaktawya":7552,"warteta":7553,"rhiNa":7554,"ĠwistareNa":7555,"kaNTa":7556,"ĠkiriiTinaa":7557,"Ġmahaanubhaawa":7558,"Ġniwaatakawachaa":7559,"saatyakisha":7560,"JNjiita":7561,"Ġnayawedayata":7562,"Ġaayasai":7563,"Ġkautuuhala":7564,"tpipaa":7565,"Nye":7566,"amaa":7567,"apara":7568,"anna":7569,"awaya":7570,"ashma":7571,"ashak":7572,"hna":7573,"hpura":7574,"idya":7575,"ihama":7576,"kti":7577,"kit":7578,"kitaana":7579,"mt":7580,"mdhaa":7581,"mwarta":7582,"msma":7583,"mkshhe":7584,"nyu":7585,"om":7586,"ojaa":7587,"oshhTha":7588,"ohama":7589,"okshhaa":7590,"ochita":7591,"oTi":7592,"psura":7593,"staana":7594,"streshhu":7595,"ts":7596,"aashii":7597,"aaditya":7598,"tapya":7599,"rapra":7600,"rakshhaa":7601,"raNyaa":7602,"yaja":7603,"yaiwa":7604,"yasyaa":7605,"yajJNaa":7606,"yasii":7607,"yantya":7608,"wahaa":7609,"wayu":7610,"sahitaa":7611,"naraa":7612,"nala":7613,"naita":7614,"nantarama":7615,"patyaa":7616,"paJNchaa":7617,"haarasa":7618,"Ġsakhii":7619,"Ġsawida":7620,"chatwaa":7621,"charaana":7622,"dalii":7623,"dakshhiNaa":7624,"shayaa":7625,"shataani":7626,"waachaa":7627,"waacheda":7628,"shhmaana":7629,"wicha":7630,"widhama":7631,"yaawana":7632,"Ġtar":7633,"Ġtaja":7634,"Ġtasmaana":7635,"Ġtasminna":7636,"Ġpatat":7637,"taaN":7638,"taar":7639,"Ġchala":7640,"Ġchandraa":7641,"Ġabh":7642,"Ġabhira":7643,"Ġagama":7644,"Ġanir":7645,"Ġapratima":7646,"ĠashhTau":7647,"maadrii":7648,"tebhya":7649,"tebhy":7650,"jahaara":7651,"Ġmame":7652,"Ġmadwi":7653,"Ġmaithu":7654,"gaura":7655,"shhaDa":7656,"Ġwik":7657,"Ġwita":7658,"Ġwisa":7659,"Ġwiita":7660,"Ġwiraaja":7661,"Ġwidhwa":7662,"Ġwiruupaa":7663,"Ġwihwa":7664,"Ġwiparii":7665,"Ġwikramya":7666,"kathaa":7667,"karuddha":7668,"Ġwaisha":7669,"Ġwayetu":7670,"lau":7671,"Ġparawra":7672,"Ġparadhaana":7673,"Ġparapadyate":7674,"Ġkawi":7675,"Ġkasmaada":7676,"Ġkashma":7677,"shhTitama":7678,"ritasa":7679,"rusa":7680,"ruNasya":7681,"Ġshatra":7682,"Ġshayaama":7683,"Ġshalaagha":7684,"Ġnal":7685,"Ġnarta":7686,"itayuge":7687,"yushha":7688,"yutama":7689,"ityaana":7690,"Ġaasu":7691,"Ġaaruu":7692,"Ġaapta":7693,"ĠaatishhTha":7694,"Ġaajau":7695,"Ġaayaanta":7696,"Ġyathaiwa":7697,"dhy":7698,"dhyana":7699,"Ġidaanii":7700,"daala":7701,"Ġmahaanti":7702,"Ġbhai":7703,"Ġbhau":7704,"Ġbhasma":7705,"Ġbharadwaa":7706,"Ġmii":7707,"kaabhira":7708,"kaareNa":7709,"kaariNa":7710,"bhakta":7711,"bhaktyaa":7712,"Ġnipaa":7713,"Ġniweda":7714,"Ġniyataa":7715,"Ġnidarshanama":7716,"Ġninada":7717,"Ġubhaawa":7718,"ĠushhNa":7719,"Ġpaana":7720,"Ġpaatra":7721,"Ġpaayasa":7722,"Ġwaay":7723,"Ġwaaru":7724,"Ġwaadina":7725,"saagara":7726,"Ġbahwa":7727,"Ġbaruwana":7728,"hetu":7729,"Ġtawatta":7730,"Ġtawadwi":7731,"Ġsugh":7732,"ĠsushheNa":7733,"Ġsuwrataa":7734,"Ġdhan":7735,"Ġdharaa":7736,"Ġdhayaana":7737,"ntawya":7738,"Ġjalama":7739,"Ġhawi":7740,"Ġrajasaa":7741,"dhaariNa":7742,"Ġchaarii":7743,"Ġchaanyaana":7744,"Ġmaali":7745,"kshhana":7746,"kshhasi":7747,"kshhaNama":7748,"Ġnaam":7749,"Ġnaala":7750,"Ġnaastya":7751,"warNama":7752,"baha":7753,"bandhu":7754,"Ġedhate":7755,"twaacha":7756,"Ġyuta":7757,"Ġyujyate":7758,"ĠparaamR":7759,"Ġparaakrama":7760,"ĠparaaJNjali":7761,"suraana":7762,"Ġsarwaraaja":7763,"Ġtaabhyaa":7764,"bhaaw":7765,"bhaara":7766,"Ġsamala":7767,"prawR":7768,"Ġsaashwa":7769,"ishhyata":7770,"ishadu":7771,"Ġduhi":7772,"tiirtha":7773,"niila":7774,"Ġbhaaswa":7775,"Ġparisa":7776,"ĠparigR":7777,"Ġlii":7778,"dushh":7779,"kura":7780,"kuntii":7781,"parashaa":7782,"parasaada":7783,"parawishya":7784,"Ġyathaashakti":7785,"chChanna":7786,"Ġmukhe":7787,"Ġmuditaa":7788,"sewi":7789,"sewii":7790,"shwasa":7791,"ghya":7792,"Ġdharmawid":7793,"Ġsamaahitaa":7794,"Ġsamaasthaaya":7795,"Ġsamaagataana":7796,"Ġyaatraa":7797,"Ġyaasyaami":7798,"Ġlamba":7799,"oraira":7800,"Ġdewai":7801,"ĠdewagaNaa":7802,"Ġjaati":7803,"Ġjaajale":7804,"Ġwayar":7805,"Ġwedi":7806,"shushruu":7807,"darshina":7808,"khyau":7809,"Ġdaara":7810,"kartana":7811,"karmaaNi":7812,"paraaNa":7813,"Ġtattwama":7814,"Ġshushubhe":7815,"Ġshushruushha":7816,"Ġaasasaada":7817,"Ġardha":7818,"Ġanura":7819,"Ġanuyaa":7820,"Ġkashhara":7821,"Ġsatriy":7822,"ktaasha":7823,"Ġtawaaha":7824,"Ġhayai":7825,"Ġputrapau":7826,"raudra":7827,"Ġnarashaarduula":7828,"Ġupata":7829,"Ġbhawatu":7830,"khaana":7831,"Ġiwaamba":7832,"iNwa":7833,"Ġparamasa":7834,"Ġparamayaa":7835,"Ġparamaka":7836,"Ġgaawa":7837,"ĠgaaDha":7838,"okaada":7839,"Ġsamudre":7840,"Ġshilii":7841,"ithiwyaama":7842,"graja":7843,"sthitau":7844,"ĠChara":7845,"Ġtaridhaa":7846,"Ġsarwaasa":7847,"ĠsarwaaNya":7848,"yiwaana":7849,"nasamaa":7850,"oNasa":7851,"Ġshuudraa":7852,"omama":7853,"omasha":7854,"omakaa":7855,"Ġwidyuta":7856,"Ġmahaatmane":7857,"Ġpurushhasya":7858,"abhiman":7859,"Ġphalaani":7860,"gnima":7861,"Ġsaini":7862,"Ġpaarthama":7863,"Ġsathira":7864,"Ġpashyantu":7865,"dheshhu":7866,"odishama":7867,"mpann":7868,"puujaa":7869,"Ġwayaas":7870,"Ġtenaiwa":7871,"Ġparjanya":7872,"Ġtamasaa":7873,"Ġsahasraakshha":7874,"wasata":7875,"idaN":7876,"ishhNad":7877,"sawasti":7878,"shhTaana":7879,"Ġawaplutya":7880,"Ġpaarthiwama":7881,"ishhTaani":7882,"Ġwishwe":7883,"ithiwiipati":7884,"Ġdewaasure":7885,"Ġsathaawa":7886,"Ġbhiishhmasa":7887,"Ġbhiishhmadr":7888,"Ġmaheshwara":7889,"oshhaira":7890,"Ġkaamaye":7891,"Ġshiita":7892,"Ġraaghawama":7893,"mbhasa":7894,"Ġnishitaana":7895,"ĠlakshhmaNama":7896,"mgawama":7897,"Ġwaanaraana":7898,"Ġpuurwaja":7899,"Ġkaalach":7900,"nandanama":7901,"Ġsiitaama":7902,"sattwaa":7903,"sathuu":7904,"Ġshatrutaapa":7905,"Ġputraasha":7906,"Ġparatyakshha":7907,"ĠparatyagR":7908,"Ġwartante":7909,"Ġwinipaati":7910,"sahasraa":7911,"ishura":7912,"mspR":7913,"oshana":7914,"Ġjayataa":7915,"shruta":7916,"Ġchaturbhira":7917,"Ġsuutaputr":7918,"msaani":7919,"Ġparasrawa":7920,"ĠmatkR":7921,"Ġmaarka":7922,"Ġkeshawaa":7923,"upawaasa":7924,"Ġshaine":7925,"Ġsarwabhuutaanaama":7926,"Ġkawachaa":7927,"mjay":7928,"Ġparaharataa":7929,"Ġsamiipe":7930,"Ġdiwase":7931,"ĠChinnaa":7932,"ĠdhaartaraashhTr":7933,"Ġantara":7934,"Ġkulapaa":7935,"sainya":7936,"Ġbhiimasenasha":7937,"Ġsaayakaa":7938,"Ġsaayakaana":7939,"dattwaa":7940,"kaaryama":7941,"mwidha":7942,"mbhrama":7943,"Ġparwataa":7944,"abhyadrawata":7945,"paratigR":7946,"Ġwadanti":7947,"yantau":7948,"Ġduushha":7949,"Ġaarja":7950,"mdamau":7951,"wartituma":7952,"Ġhiiyate":7953,"Ġcharana":7954,"Ġkuntiiputra":7955,"owida":7956,"owidaa":7957,"shramama":7958,"ohaana":7959,"ĠguNasa":7960,"naranaaraaya":7961,"Ġaachareta":7962,"chukrushu":7963,"psayaa":7964,"ĠbarahmaaNama":7965,"Ġwichitraa":7966,"chaarayana":7967,"ĠshikhaNDina":7968,"Ġshuchismi":7969,"Ġbhartura":7970,"Ġraakshhaseshwara":7971,"bhuushhitama":7972,"dawijaa":7973,"Ġkashhatradharma":7974,"aganira":7975,"Ġagre":7976,"yudhaani":7977,"dharmaartha":7978,"piiDya":7979,"Ġbherii":7980,"paaJNchaala":7981,"paaJNchaalaana":7982,"Ġkurwate":7983,"darauNi":7984,"chintayana":7985,"ĠnaaraayaN":7986,"Ġabhaya":7987,"Ġpurushharshhabhama":7988,"Ġparadadau":7989,"ĠkashhatriyaaNaa":7990,"raacharama":7991,"rdanama":7992,"Ġuddishya":7993,"Ġwasudhaadhipa":7994,"Ġashwatthaa":7995,"Ġdawau":7996,"Ġmaharshhibhi":7997,"skandha":7998,"Ġlaagha":7999,"Ġshawashura":8000,"Ġnagarii":8001,"Ġuktaasa":8002,"Ġshaashwatama":8003,"Ġkariyataama":8004,"Ġtadwada":8005,"Ġsherate":8006,"ashawa":8007,"ipatera":8008,"Ġchamuuma":8009,"Ġmarutta":8010,"Ġparyupasthite":8011,"ĠraNamuurdhani":8012,"ĠdaaruNama":8013,"mbaadha":8014,"Ġdaashaar":8015,"Ġanindite":8016,"Ġbaandhawaa":8017,"Ġabrawiicha":8018,"Ġawekshhya":8019,"ĠwibhiishhaNama":8020,"Chinna":8021,"mshhTraa":8022,"winaashaaya":8023,"gamishhyati":8024,"ĠparahaariNa":8025,"Ġjaaniihi":8026,"mwatsara":8027,"Ġshatakratu":8028,"Ġdhuuma":8029,"ĠamarshhaNama":8030,"Ġsaraswatyaa":8031,"daraupadyaa":8032,"Ġdawishhataa":8033,"opetaa":8034,"Ġnimittaani":8035,"purushh":8036,"Ġpariwaarita":8037,"ĠraNaajire":8038,"mbhiira":8039,"Ġagastya":8040,"kashhetra":8041,"Ġuchchaa":8042,"ĠkurwaaNa":8043,"Ġyaatayishhye":8044,"Ġpaurushhama":8045,"Ġyaadawa":8046,"Ġkiichaka":8047,"Ġsayanda":8048,"rundhatii":8049,"Ġwishrutama":8050,"Ġbhaginii":8051,"khaDga":8052,"ochaami":8053,"ĠsahalakshhmaNa":8054,"Ġpaarwatii":8055,"ĠsathaawarajaN":8056,"Ġripuuna":8057,"abarawiina":8058,"Ġsudushhkarama":8059,"osahasraphala":8060,"Chittwaa":8061,"INaama":8062,"Tisha":8063,"Tina":8064,"ab":8065,"ai":8066,"ap":8067,"aka":8068,"atii":8069,"achi":8070,"arathaa":8071,"amba":8072,"ashru":8073,"akashha":8074,"anwa":8075,"aishwar":8076,"gjy":8077,"hra":8078,"hsu":8079,"ikshhwaa":8080,"jwala":8081,"kmi":8082,"klama":8083,"kriiDa":8084,"mshhya":8085,"mbhR":8086,"mhaara":8087,"mgraha":8088,"nuuna":8089,"oshhT":8090,"oshe":8091,"oraana":8092,"ograa":8093,"oktwaa":8094,"obhau":8095,"preNa":8096,"psyate":8097,"rt":8098,"rjun":8099,"tte":8100,"trya":8101,"uttama":8102,"unma":8103,"aaja":8104,"aadi":8105,"aajJNaa":8106,"aashra":8107,"aasiida":8108,"hanya":8109,"hatasa":8110,"tare":8111,"shmii":8112,"wasya":8113,"warama":8114,"wawR":8115,"wastraa":8116,"sahaa":8117,"satu":8118,"nanu":8119,"nanaada":8120,"pak":8121,"parata":8122,"pakshhaa":8123,"hitwaa":8124,"Ġsaira":8125,"Ġsakh":8126,"Ġsajja":8127,"raaNa":8128,"raawata":8129,"raawya":8130,"raaDa":8131,"charma":8132,"chakaara":8133,"dasya":8134,"dadau":8135,"winaasha":8136,"wishhama":8137,"wisp":8138,"Ġtandrii":8139,"Ġpakshhaa":8140,"ĠpakshhiNa":8141,"taapi":8142,"taabhyaa":8143,"Ġchakaaraa":8144,"Ġad":8145,"Ġal":8146,"Ġau":8147,"ĠataaDayata":8148,"naasya":8149,"naasi":8150,"naahama":8151,"jane":8152,"jalaa":8153,"nila":8154,"niitaa":8155,"nibhaa":8156,"ĠpiN":8157,"gasya":8158,"gatira":8159,"Ġwichaa":8160,"Ġwidar":8161,"Ġwidhu":8162,"Ġwidhaana":8163,"Ġwighna":8164,"Ġwibhaawa":8165,"Ġwigraha":8166,"Ġwijaaniihi":8167,"Ġwindhya":8168,"kawacha":8169,"Ġwadhi":8170,"Ġwade":8171,"Ġwadhama":8172,"Ġwawau":8173,"labhaa":8174,"labhama":8175,"Ġparash":8176,"Ġparashwa":8177,"Ġparawada":8178,"Ġparawara":8179,"ĠparaNu":8180,"Ġparadisha":8181,"Ġparapashyaami":8182,"Ġkap":8183,"Ġkanya":8184,"Ġkasyaa":8185,"Ġsewate":8186,"rite":8187,"Ġshaw":8188,"Ġshaya":8189,"Ġshashwa":8190,"Ġshayana":8191,"thasya":8192,"thawata":8193,"Ġnadya":8194,"Ġnaina":8195,"Ġraamaa":8196,"ith":8197,"ittasya":8198,"itteshhu":8199,"Ġaadi":8200,"Ġaapada":8201,"Ġaahaara":8202,"Ġaahwa":8203,"Ġaagamana":8204,"Ġaarur":8205,"Ġyamu":8206,"Ġyantaa":8207,"Ġyayaati":8208,"trai":8209,"trastaa":8210,"bhire":8211,"dhyeta":8212,"reya":8213,"wed":8214,"weshaa":8215,"weshma":8216,"Ġdari":8217,"Ġdadarshaa":8218,"Ġih":8219,"Ġindriya":8220,"daataa":8221,"daanama":8222,"Ġmahaasura":8223,"Ġmahaadwi":8224,"Ġbhakshhya":8225,"Ġmi":8226,"Ġputre":8227,"kaalena":8228,"kaaJNchana":8229,"bhawaa":8230,"bhakshha":8231,"bhadra":8232,"Ġniwaasa":8233,"Ġniraama":8234,"Ġniwaara":8235,"Ġniswana":8236,"Ġugraa":8237,"ĠuddhR":8238,"Ġwaapii":8239,"saawa":8240,"saadaa":8241,"saantwa":8242,"Ġbandh":8243,"nuwa":8244,"mishhThaa":8245,"Ġtawad":8246,"dhiita":8247,"dhidaiwatama":8248,"Ġsutasa":8249,"Ġsurasa":8250,"Ġsuprii":8251,"Ġsutumu":8252,"Ġtulyaa":8253,"Ġgaha":8254,"Ġjawe":8255,"Ġjalaa":8256,"Ġjawana":8257,"Ġjagma":8258,"Ġhantuma":8259,"Ġrati":8260,"Ġrabhasa":8261,"dhaanii":8262,"Ġchaawya":8263,"Ġmaatra":8264,"Ġmaanya":8265,"Ġmaalyaa":8266,"Ġmaarutaa":8267,"kshharama":8268,"shhiJNcha":8269,"netraa":8270,"ntikama":8271,"husa":8272,"Ġnaamaa":8273,"Ġnaagaana":8274,"Ġnaany":8275,"wartaa":8276,"balaana":8277,"Ġetaira":8278,"Ġkub":8279,"Ġparaapa":8280,"ĠparaajJN":8281,"Ġsarwapaa":8282,"Ġsarwadhanu":8283,"Ġtaala":8284,"bhaag":8285,"bhaagi":8286,"Ġsamawa":8287,"ĠsamanujJNaa":8288,"gaawa":8289,"Ġsaagar":8290,"Ġchiraaya":8291,"Ġmenire":8292,"ishhNya":8293,"Ġraajarshhe":8294,"Neha":8295,"wiima":8296,"wiiryaa":8297,"traasa":8298,"traaNya":8299,"Ġtathaanye":8300,"Ġparish":8301,"msati":8302,"syaam":8303,"dusa":8304,"watara":8305,"parabhaa":8306,"parashwa":8307,"parayayau":8308,"Ġyathaashaastra":8309,"Ġyathaasukhama":8310,"Ġyathaatathama":8311,"Ġbhuushha":8312,"Ġbhuutama":8313,"chaaraa":8314,"dinaa":8315,"diwyaa":8316,"Ġdharmaputra":8317,"ketu":8318,"Ġkiraa":8319,"Ġnuu":8320,"Ġsamaara":8321,"Ġsamaadhaaya":8322,"Ġsamaashritya":8323,"Ġsamaachareta":8324,"Ġsawadharma":8325,"Ġlabdhaa":8326,"opamaana":8327,"opasthe":8328,"oragaa":8329,"Ġbaandhawa":8330,"okasamaa":8331,"Ġdewama":8332,"Ġdewarshhi":8333,"asakR":8334,"Ġjaahna":8335,"ĠwayadR":8336,"Ġwed":8337,"Ġwepa":8338,"shushubhe":8339,"darpa":8340,"darthe":8341,"Ġdaatu":8342,"Ġdaane":8343,"baandhawa":8344,"karNaa":8345,"paraapya":8346,"paraapnu":8347,"Ġshuna":8348,"Ġshubh":8349,"Ġshuddha":8350,"Ġshaakhaa":8351,"Ġshaantaa":8352,"Ġasthi":8353,"Ġastwa":8354,"dhyanti":8355,"Ġarjun":8356,"Ġguha":8357,"Ġgupta":8358,"Ġabhiitawata":8359,"jyataama":8360,"ipasya":8361,"Ġsatuu":8362,"Ġsattwaa":8363,"siiti":8364,"Ġdawije":8365,"Ġdawipama":8366,"Ġdawipadaa":8367,"nyaasa":8368,"Ġwachanaada":8369,"Ġbhiimasa":8370,"gurura":8371,"Ġdurjaya":8372,"shikh":8373,"Ġraamasha":8374,"smaabhira":8375,"Ġnararshhabhaa":8376,"Ġnaranaaraaya":8377,"Ġupawaasa":8378,"Ġwiikshhya":8379,"odate":8380,"ĠkarmakR":8381,"pedire":8382,"Ġsharut":8383,"kiNii":8384,"Ġdharmaana":8385,"Ġgaaw":8386,"Ġgaathaa":8387,"ĠgaaND":8388,"Ġgaalawa":8389,"sarge":8390,"Ġchedi":8391,"praapta":8392,"strama":8393,"Ġshini":8394,"Ġraakshhas":8395,"Ġbudha":8396,"liika":8397,"grahe":8398,"ĠChatra":8399,"Ġtaridasha":8400,"Ġsarwaatmanaa":8401,"sthaane":8402,"ĠnirwR":8403,"Ġnirdwa":8404,"Ġshuuraana":8405,"omara":8406,"abhigamya":8407,"abhidudraawa":8408,"Ġupaadaaya":8409,"Ġruchira":8410,"Ġsainyama":8411,"hatau":8412,"Ġbhujaa":8413,"Ġtila":8414,"barawii":8415,"yuura":8416,"Ġpareshhi":8417,"bherii":8418,"ishhyanta":8419,"ishhyanti":8420,"Ġwayaahara":8421,"Ġtamasi":8422,"ĠshariiraaNi":8423,"Ġutthaa":8424,"sthasya":8425,"Ġsuukshh":8426,"Ġtiire":8427,"sawadharma":8428,"ishhisa":8429,"Ġpashyaama":8430,"Ġpashyaamya":8431,"parishhkR":8432,"ishhTaanaa":8433,"Ġaatmawaana":8434,"Ġdarawi":8435,"Ġdarakshhyanti":8436,"Ġmanasi":8437,"dyuti":8438,"parNa":8439,"Ġkaurawanandana":8440,"mprati":8441,"itaraashhTraa":8442,"itaraashhTreNa":8443,"Ġawaakirata":8444,"turwar":8445,"tatraiwa":8446,"gachChanti":8447,"ottamau":8448,"ĠdarauNe":8449,"mbabhuu":8450,"Ġsiite":8451,"Ġshatrukarshana":8452,"Ġadyaiwa":8453,"igadwi":8454,"ĠichChanti":8455,"Ġtayaktaa":8456,"cheshhTa":8457,"obhata":8458,"Ġatiiwa":8459,"Ġnayawartata":8460,"Ġbaruuyaada":8461,"Ġaashcharya":8462,"Ġwidurasya":8463,"ojayitwaa":8464,"Ġmanujaa":8465,"Ġjayadra":8466,"Ġkashhattaa":8467,"Ġapatya":8468,"ĠtishhThana":8469,"ĠsuutaputreNa":8470,"bhawataa":8471,"Ġjiiwal":8472,"Ġparyawa":8473,"Ġsawaagata":8474,"Ġsawaadhyaa":8475,"rthena":8476,"Ġmaargaana":8477,"Ġmaanushhii":8478,"ghnana":8479,"ĠpuNyakR":8480,"ikshhama":8481,"ikshhayaa":8482,"athaabrawiida":8483,"tayakta":8484,"ĠyajJNaira":8485,"Ġantaraa":8486,"Ġantarikshhe":8487,"Ġnetraa":8488,"Ġdawaawa":8489,"yudhishhThirasya":8490,"dhawaja":8491,"Ġsiitaayaa":8492,"ekaika":8493,"mbhra":8494,"Ġsabhaarya":8495,"mbya":8496,"mtaptaa":8497,"Ġmanyante":8498,"ogaata":8499,"sahasaa":8500,"padyanta":8501,"Ġparashasha":8502,"drutaa":8503,"wartina":8504,"Ġduraatmanaa":8505,"Ġkiirtima":8506,"owidama":8507,"yiita":8508,"pareshhayaama":8509,"Ġdattaa":8510,"Ġparasanna":8511,"Ġparasamii":8512,"wardhata":8513,"opaaya":8514,"strii":8515,"sthura":8516,"ĠwichitraaNi":8517,"ĠraajJNasa":8518,"ĠraajJNasha":8519,"Ġihaagata":8520,"bhiishhmasya":8521,"Ġhuta":8522,"Ġaniika":8523,"bhuushhitaa":8524,"wusha":8525,"Ġwaayunaa":8526,"Ġasmaabhira":8527,"Ġniilaa":8528,"dewaanaa":8529,"pashchi":8530,"Ġnamasa":8531,"chintayaama":8532,"amarshha":8533,"ĠbhuuyishhTha":8534,"Ġbhaaryaama":8535,"Ġgaandhaaryaa":8536,"oshhNii":8537,"sarwaaN":8538,"arjunasya":8539,"nityama":8540,"Ġshawetaa":8541,"Ġkuryura":8542,"ĠdaweshhTi":8543,"Ġjitakaa":8544,"sawaadhyaa":8545,"Ġtapaswinii":8546,"alambu":8547,"Ġshawashu":8548,"Ġwettha":8549,"Ġjaananti":8550,"Ġdiwaakara":8551,"Ġsiddhaasha":8552,"idhraa":8553,"Ġtaraswi":8554,"Ġnagare":8555,"ĠtawaramaaNa":8556,"Ġdhaarayitu":8557,"Ġaapatantii":8558,"gautama":8559,"Ġsatyawaadina":8560,"Ġwilalaapa":8561,"ĠkuJNjara":8562,"Ġamitaujasama":8563,"Ġsumadhya":8564,"Ġsugriiwama":8565,"Ġdurmate":8566,"Ġwidhiiyataama":8567,"maanushhama":8568,"Ġanupraaptaa":8569,"bhiimasenasa":8570,"Ġkaikeyyaa":8571,"bhartR":8572,"Ġbhaaskarama":8573,"paratyakshha":8574,"ishusa":8575,"Ġchaturtha":8576,"Ġsaphi":8577,"karishhye":8578,"Ġyuddhadurmada":8579,"Ġmaadriiputrau":8580,"gamishhyaami":8581,"Ġkekayaa":8582,"Ġpurushhawyaaghrau":8583,"ochituma":8584,"ĠkaurawaaNaa":8585,"bhawishhyati":8586,"Ġjaghnura":8587,"Ġdurdharshh":8588,"wibhuushhitama":8589,"Ġparamuchyate":8590,"Ġsubhage":8591,"Ġghananti":8592,"kashhatradharma":8593,"bera":8594,"Ġwastrasa":8595,"ĠanujJNaapya":8596,"arjunasa":8597,"Ġwibudhaa":8598,"muhuurtama":8599,"Ġjaanaami":8600,"Ġjaamadagnya":8601,"Ġtiryagy":8602,"Ġsanigdha":8603,"chakre":8604,"ĠjaJNeya":8605,"Ġnaaraachaira":8606,"ihadashwa":8607,"Ġpishaachaa":8608,"Ġmaahaatmya":8609,"Ġjantura":8610,"Ġchikiirshhitama":8611,"Ġshilaashitai":8612,"phulla":8613,"sharuuyate":8614,"Ġsusamaahita":8615,"Ġwaiwaswata":8616,"Chaadayaama":8617,"Ġajihma":8618,"Ġsubahuuna":8619,"Ġutsahate":8620,"Ġojasaa":8621,"ĠyaajJNase":8622,"ĠmaarkaNDe":8623,"Ġjaahnawii":8624,"am":8625,"adh":8626,"ajJNaa":8627,"apraa":8628,"asti":8629,"ayudhya":8630,"abrawiida":8631,"gnau":8632,"gnaya":8633,"hraa":8634,"ije":8635,"ibhyaa":8636,"igii":8637,"ishaana":8638,"iDi":8639,"jira":8640,"jyata":8641,"md":8642,"mnya":8643,"mitama":8644,"mhas":8645,"oru":8646,"otraa":8647,"ochyate":8648,"pyate":8649,"psita":8650,"rsha":8651,"rtu":8652,"srawa":8653,"tsya":8654,"ttwaa":8655,"ttwa":8656,"upe":8657,"ubhe":8658,"ubhay":8659,"Ġreta":8660,"aapa":8661,"aaraa":8662,"aaryaa":8663,"aajaghaana":8664,"aachakshhwa":8665,"aashwaasa":8666,"maru":8667,"mahii":8668,"maNi":8669,"mardana":8670,"yam":8671,"yatu":8672,"yaura":8673,"yathe":8674,"yasmina":8675,"yajJN":8676,"yajJNe":8677,"yasmaata":8678,"yamaanasya":8679,"shye":8680,"wayama":8681,"wataama":8682,"wantya":8683,"wakshhyaami":8684,"nam":8685,"pathama":8686,"Ġsaraa":8687,"Ġsawaana":8688,"Ġsaputra":8689,"Ġsarita":8690,"Ġsanushhaa":8691,"raajJN":8692,"raatrama":8693,"chakshhura":8694,"day":8695,"data":8696,"shat":8697,"waaga":8698,"waarshhNe":8699,"shhyaana":8700,"wishwa":8701,"windaa":8702,"wichitra":8703,"Ġtatha":8704,"Ġtakshha":8705,"Ġtasy":8706,"Ġpapra":8707,"Ġpawana":8708,"Ġpatta":8709,"Ġpathya":8710,"tiira":8711,"tiiwa":8712,"Ġamu":8713,"Ġapara":8714,"Ġakampa":8715,"Ġakalpa":8716,"Ġakhi":8717,"Ġashubha":8718,"Ġapuujayana":8719,"maasha":8720,"maadana":8721,"naarha":8722,"janti":8723,"jayeta":8724,"ninaa":8725,"nirii":8726,"nishaa":8727,"nidarshanama":8728,"nistri":8729,"Ġmattama":8730,"uuta":8731,"galaa":8732,"Ġwiy":8733,"Ġwishh":8734,"Ġwibhaa":8735,"ĠwimR":8736,"Ġwije":8737,"Ġwihitaa":8738,"Ġwidhuu":8739,"Ġwikarshha":8740,"kala":8741,"kale":8742,"Ġware":8743,"Ġwaruu":8744,"Ġwashii":8745,"Ġparatha":8746,"ĠparamR":8747,"ĠparasR":8748,"Ġparabrawii":8749,"Ġkaita":8750,"Ġkarii":8751,"ĠkaliN":8752,"Ġkathyate":8753,"rishhyaami":8754,"rishhyasi":8755,"Ġshape":8756,"Ġnam":8757,"Ġnashya":8758,"Ġnanaada":8759,"yudhi":8760,"yujya":8761,"yuktama":8762,"yuyudhaa":8763,"ityama":8764,"itrasya":8765,"Ġaapannaa":8766,"Ġaasthitaa":8767,"Ġaadit":8768,"Ġaayaati":8769,"Ġaadade":8770,"bhijana":8771,"yecha":8772,"weya":8773,"Ġdadh":8774,"Ġdattama":8775,"Ġdaite":8776,"Ġdayaura":8777,"daara":8778,"daanena":8779,"Ġmahaakaa":8780,"Ġmahaarhaa":8781,"Ġbharadwaaja":8782,"kaari":8783,"kaaNaa":8784,"kaamaana":8785,"kaamb":8786,"ĠnishhTa":8787,"Ġnihita":8788,"Ġniwasa":8789,"Ġnimna":8790,"Ġniraya":8791,"Ġul":8792,"Ġutaa":8793,"jaataa":8794,"jaalaani":8795,"jaamadag":8796,"Ġpaasha":8797,"Ġpaatya":8798,"ĠpaaJNcha":8799,"Ġwaaya":8800,"Ġwaamya":8801,"Ġwaamana":8802,"Ġbaddh":8803,"paadau":8804,"paalaana":8805,"hiiti":8806,"nunaa":8807,"mire":8808,"minii":8809,"Ġtawaraa":8810,"Ġsuraana":8811,"Ġsuman":8812,"Ġsuraira":8813,"Ġdhane":8814,"Ġgaras":8815,"Ġgarha":8816,"ĠgachChaami":8817,"Ġjaraa":8818,"Ġjapya":8819,"Ġjagha":8820,"Ġhas":8821,"Ġhasanna":8822,"Ġhayaanaa":8823,"Ġramate":8824,"dhaawana":8825,"Ġchaawa":8826,"Ġchaanta":8827,"Ġchaabhawata":8828,"Ġchaany":8829,"Ġmaani":8830,"Ġmaasaana":8831,"Ġmaayayaa":8832,"kshhara":8833,"kshhaswa":8834,"piN":8835,"pite":8836,"neda":8837,"Ġnaadya":8838,"Ġnaagendra":8839,"wartya":8840,"itaartha":8841,"itaaJNja":8842,"Ġkaamb":8843,"balena":8844,"Ġeshhyati":8845,"Ġeweha":8846,"Ġkulama":8847,"shhusa":8848,"Ġparaar":8849,"Ġparaajitaa":8850,"Ġparaadrawana":8851,"ĠparaahiN":8852,"muchyate":8853,"mushhTi":8854,"Ġsarwapaarthi":8855,"shaali":8856,"punasha":8857,"ndii":8858,"ndraaya":8859,"ndraaNaa":8860,"Ġtaar":8861,"Ġtaasa":8862,"Ġtaawacha":8863,"ĠtaaDayaama":8864,"Ġsamati":8865,"prawiiraa":8866,"Ġhite":8867,"gaaN":8868,"ĠsaaN":8869,"Ġsaattwi":8870,"Ġchiira":8871,"nyata":8872,"ishhNama":8873,"ishhNaama":8874,"Ġraajarshhira":8875,"JNjaa":8876,"ratara":8877,"Ġbhaawaa":8878,"Ġbhaati":8879,"Ġbhaanti":8880,"wiiraaNaa":8881,"wiiry":8882,"tmaje":8883,"Ġparirakshha":8884,"Ġpariwaw":8885,"Ġparikle":8886,"Ġwaidar":8887,"Ġwaikartana":8888,"msata":8889,"msama":8890,"syaawa":8891,"syaana":8892,"syaatha":8893,"rshhabhe":8894,"chin":8895,"dusha":8896,"duraasa":8897,"dundubhi":8898,"kuli":8899,"bhuut":8900,"bhuutama":8901,"Ġyathaakramama":8902,"Ġsahaiwa":8903,"chChannaa":8904,"dinama":8905,"dinaama":8906,"Ġmuktwaa":8907,"Ġmunaya":8908,"yatasa":8909,"Ġtadaaniima":8910,"Ġkilbishha":8911,"jJNaasa":8912,"kshhit":8913,"kshhipata":8914,"kshhipana":8915,"Ġjitama":8916,"deya":8917,"Ġparatiy":8918,"Ġparatisa":8919,"Ġdehama":8920,"Ġdeshaana":8921,"Ġdeweshhu":8922,"otthi":8923,"Ġyaasyati":8924,"nteshhu":8925,"oramaa":8926,"oraruupaa":8927,"nty":8928,"asata":8929,"Ġbarah":8930,"Ġwayapaa":8931,"Ġsharawa":8932,"Ġsharaisha":8933,"shukla":8934,"Ġdaanena":8935,"krame":8936,"Ġmahacha":8937,"Ġmahati":8938,"jJNasha":8939,"jJNaira":8940,"liptaa":8941,"ishhTasha":8942,"ishhTaira":8943,"Ġshushh":8944,"Ġshaatra":8945,"ĠshaarN":8946,"Ġasmai":8947,"Ġanukr":8948,"Ġabhigamya":8949,"diina":8950,"diini":8951,"thyama":8952,"Ġwarcha":8953,"Ġwarti":8954,"Ġwarte":8955,"kshhyasi":8956,"Ġdawidhaa":8957,"Ġpaarthe":8958,"Ġkurubhi":8959,"Ġkurukul":8960,"ĠbarahmaN":8961,"Ġbarahmanna":8962,"Ġbarahmarshhi":8963,"sheya":8964,"Ġnaradewa":8965,"Ġupash":8966,"Ġwiikshha":8967,"ĠwiireNa":8968,"ĠwiiraaNaa":8969,"Ġbhawant":8970,"odayana":8971,"Ġkarmabhi":8972,"gatasa":8973,"patita":8974,"Ġwarajaa":8975,"Ġiwaaditya":8976,"Ġiwaakaashe":8977,"Ġdharmi":8978,"Ġgaama":8979,"Ġgaatraira":8980,"sarpati":8981,"ĠcheshhTa":8982,"ghaataa":8983,"okaartaa":8984,"Ġsamudaa":8985,"Ġsamudii":8986,"Ġsamudraa":8987,"buddhyaa":8988,"Ġsatyadharma":8989,"liiba":8990,"grah":8991,"ĠCharii":8992,"Ġtaribhisa":8993,"Ġtaridiwa":8994,"taray":8995,"tarail":8996,"balasa":8997,"ishhat":8998,"ishhaparwa":8999,"Ġbharaatu":9000,"Ġnirgh":9001,"Ġnirmitaa":9002,"Ġnirwedama":9003,"anagare":9004,"putrash":9005,"omarai":9006,"Ġwiditaa":9007,"abhii":9008,"abhisa":9009,"Ġupaashrita":9010,"Ġupaashnute":9011,"tawatprasaa":9012,"shiil":9013,"shiigh":9014,"Ġbhuktwaa":9015,"Ġsathitau":9016,"Ġshakraa":9017,"Ġshakyama":9018,"ĠpaJNchama":9019,"Ġsuut":9020,"sawap":9021,"sawayama":9022,"sawakarma":9023,"ishhiNaa":9024,"Ġchaiw":9025,"paritya":9026,"rasyewa":9027,"Ġdasharathaa":9028,"Ġdasharath":9029,"Ġparajaapate":9030,"nirda":9031,"Ġjanayaama":9032,"Ġpuujitaa":9033,"Ġewaaha":9034,"manye":9035,"Ġdewaasha":9036,"Ġdewaasura":9037,"hkhatara":9038,"Ġsathaapa":9039,"Ġsathaatu":9040,"Ġsathaatuma":9041,"Ġkaurawaana":9042,"Ġkaurawyaa":9043,"Ġkaurawai":9044,"Ġmaheshhu":9045,"ĠraawaNena":9046,"Ġkaamasa":9047,"Ġbuddhimataa":9048,"ogaira":9049,"kiirNama":9050,"Ġraaghawaa":9051,"Ġnishita":9052,"Ġnishchitaa":9053,"Ġsukhadu":9054,"mgataa":9055,"karmasu":9056,"Ġwaanare":9057,"Ġwiwishu":9058,"ĠgachChanta":9059,"arjun":9060,"Ġshatasha":9061,"mbandhi":9062,"Ġpariyawaa":9063,"satt":9064,"Ġiishaa":9065,"waarayaama":9066,"ĠparawishhTaa":9067,"ĠparatyadR":9068,"Ġdhiiraa":9069,"Ġwedapaara":9070,"obhanta":9071,"Ġnayawaarayata":9072,"muuDhaa":9073,"Ġdarshanaata":9074,"mspar":9075,"Ġkaarts":9076,"Ġruupasa":9077,"Ġgandhamaada":9078,"Ġdhiira":9079,"ĠdawijashreshhTha":9080,"Ġdaruta":9081,"mrabdh":9082,"rayanti":9083,"Ġmaarg":9084,"Ġkeshawama":9085,"Ġshail":9086,"Ġshaile":9087,"Ġchitray":9088,"Ġchitrama":9089,"ghnatu":9090,"Ġwaasudewena":9091,"Ġbhiita":9092,"Ġbhikshhaa":9093,"mjajJNe":9094,"Ġdhawaji":9095,"athaasya":9096,"Ġawyagra":9097,"Ġawyaktama":9098,"maaNaani":9099,"ihyataama":9100,"Ġneha":9101,"Ġsatriishhu":9102,"bhiimasen":9103,"Ġdawaabhyaa":9104,"Ġkulasya":9105,"onyasya":9106,"Ġmuurti":9107,"yudhishhThirasa":9108,"paaNDawaana":9109,"paaNDawaasa":9110,"Ġdiwyaira":9111,"Ġyatt":9112,"Ġyatnama":9113,"Ġshubhaama":9114,"puurwaja":9115,"Ġtaawaka":9116,"ĠanaawR":9117,"Ġanaathawata":9118,"otawya":9119,"abhyadrawanta":9120,"harana":9121,"gadayaa":9122,"Ġsaramaa":9123,"Ġnishaacha":9124,"raajaan":9125,"Ġbarawiimya":9126,"Ġduraatmaa":9127,"Ġudaaradhii":9128,"yatnena":9129,"shramapada":9130,"ohaata":9131,"rNawe":9132,"Ġsadashwa":9133,"Ġparasannaa":9134,"Ġpataye":9135,"Ġpatanti":9136,"Ġwinaashaaya":9137,"Ġihaarha":9138,"Ġawidhyata":9139,"Ġsawayambhu":9140,"warNaasa":9141,"Ġbhartu":9142,"Ġratnaani":9143,"Ġharay":9144,"shabdena":9145,"Ġbalaada":9146,"ĠkashhatradharmeNa":9147,"Ġdawijaataya":9148,"Ġagrya":9149,"Ġagrata":9150,"Ġbahuuni":9151,"dharmaatmaa":9152,"obhita":9153,"obhitama":9154,"waasinaama":9155,"Ġbalina":9156,"Ġmaatarama":9157,"Ġrudhir":9158,"ashwamedha":9159,"shuudra":9160,"Ġpuujayaama":9161,"rdayata":9162,"rakshhasaama":9163,"Ġwaidehiima":9164,"pitaamahama":9165,"Ġkuryaana":9166,"Ġtapaswina":9167,"Ġchakshhushhii":9168,"Ġrathenaa":9169,"igaala":9170,"ĠpaNDitaa":9171,"Ġaparaajitama":9172,"Ġkuryaata":9173,"Ġtaapasa":9174,"bharaataa":9175,"bharaatara":9176,"Ġchaabhibh":9177,"Ġtiirthasewii":9178,"ĠpuNyama":9179,"Ġnahushh":9180,"Ġwatsaa":9181,"shirasa":9182,"pushhpaa":9183,"Ġkaarmuka":9184,"odhina":9185,"ĠsudaaruNama":9186,"ordhwa":9187,"wedaaN":9188,"dhaawataama":9189,"Ġaninditaa":9190,"Ġsawyasaachina":9191,"Ġshalabhaa":9192,"Ġuwaachaa":9193,"Ġkausal":9194,"otsaahaa":9195,"Ġaalakshhya":9196,"Ġnakshhatra":9197,"Ġnipaatita":9198,"ihiitaa":9199,"Ġpaurawa":9200,"ĠramaNii":9201,"buddhaya":9202,"Ġpashchimaa":9203,"Ġparajwala":9204,"Ġnimitta":9205,"Ġbiibhats":9206,"sparsha":9207,"nishhewi":9208,"Ġsureshwara":9209,"Ġsachiwai":9210,"Ġdhanwina":9211,"tatheti":9212,"damayantya":9213,"Ġbhaashhase":9214,"opalabhyate":9215,"Ġbhagawanna":9216,"igapakshhiNa":9217,"Ġgagana":9218,"Ġanekasaahas":9219,"iNiishhwa":9220,"Ġpayaswi":9221,"Ġsaawitrii":9222,"awyakta":9223,"Diina":9224,"priye":9225,"Ġsarwasainyaanaa":9226,"otsahe":9227,"Ġparadyumna":9228,"Ġniryayau":9229,"wismaya":9230,"ĠmalechCha":9231,"Ġmahaabhaye":9232,"shushruma":9233,"ĠwarawarNini":9234,"raashanisama":9235,"Ġbabhaashhe":9236,"Ġduhitara":9237,"odhamuurChita":9238,"ijjana":9239,"paraspara":9240,"Ġmahaanadiima":9241,"Ġdagdh":9242,"chikiirshhayaa":9243,"kausalyaa":9244,"naranaaraayaNau":9245,"turwarNya":9246,"Ġkaartsnyena":9247,"Dhya":9248,"NTaa":9249,"Tya":9250,"aparaa":9251,"abhyaa":9252,"ashhTau":9253,"dga":9254,"gryaa":9255,"graana":9256,"hwaa":9257,"hNe":9258,"hyate":9259,"hraada":9260,"iw":9261,"ipe":9262,"ihata":9263,"igaana":9264,"imaama":9265,"iDhama":9266,"kita":9267,"kre":9268,"lma":9269,"lka":9270,"llaa":9271,"mmi":9272,"mtaana":9273,"mwada":9274,"mhitaa":9275,"mbhe":9276,"mdhyaa":9277,"mmataa":9278,"mmat":9279,"mhena":9280,"mbhuutaa":9281,"msthitama":9282,"ndhe":9283,"ndhaana":9284,"oshaa":9285,"oreNa":9286,"ohit":9287,"onaya":9288,"okshhita":9289,"okshhitaa":9290,"ormi":9291,"opradaa":9292,"psyase":9293,"rh":9294,"rjitaa":9295,"sr":9296,"tuur":9297,"ttena":9298,"tsena":9299,"udii":9300,"ugra":9301,"utsa":9302,"yit":9303,"aayu":9304,"aarta":9305,"aatmana":9306,"aajagaama":9307,"aaste":9308,"harii":9309,"hantaa":9310,"taka":9311,"taraasa":9312,"mara":9313,"madhu":9314,"raraaja":9315,"yantaa":9316,"yamaaNa":9317,"yasmaada":9318,"shishhT":9319,"shyama":9320,"shiir":9321,"watyaa":9322,"wastra":9323,"wadbhira":9324,"sanaa":9325,"sali":9326,"nayaa":9327,"nate":9328,"nahu":9329,"naishha":9330,"paNa":9331,"pareNa":9332,"pariyaa":9333,"padau":9334,"papaataa":9335,"haarama":9336,"haasi":9337,"hima":9338,"hira":9339,"hiNii":9340,"Ġsaw":9341,"Ġsaphala":9342,"ĠsasuhR":9343,"raamya":9344,"chanama":9345,"charita":9346,"chachaara":9347,"dadha":9348,"shal":9349,"shaya":9350,"shastraa":9351,"waala":9352,"waadaa":9353,"wim":9354,"wima":9355,"wijJNaa":9356,"wista":9357,"widura":9358,"wibhiishha":9359,"wishhTe":9360,"windhya":9361,"yaahne":9362,"Ġkhama":9363,"Ġtaisa":9364,"Ġtadwi":9365,"Ġpay":9366,"Ġpatiina":9367,"Ġchanda":9368,"Ġchaushha":9369,"tithya":9370,"Ġasaa":9371,"ĠashhTaa":9372,"Ġacheta":9373,"Ġayuta":9374,"Ġambu":9375,"Ġapriya":9376,"ĠadharmeNa":9377,"Ġawamanya":9378,"Ġadhyayana":9379,"maalaa":9380,"maaNaana":9381,"maatreNa":9382,"ten":9383,"tendriya":9384,"janta":9385,"jawala":9386,"niwaarya":9387,"Ġpit":9388,"Ġmand":9389,"Ġmajja":9390,"Ġmakaraa":9391,"Ġmaryaadaa":9392,"garta":9393,"iidR":9394,"Namya":9395,"Ġwipaa":9396,"Ġwiratha":9397,"Ġwidhe":9398,"Ġwipriya":9399,"Ġwikhyaata":9400,"Ġwichetasa":9401,"Ġwiparya":9402,"Ġwihaaya":9403,"Ġwigarha":9404,"Ġwijaanaati":9405,"Ġwishikhaa":9406,"Ġwishuddhaatmaa":9407,"kanda":9408,"kariya":9409,"Ġwawa":9410,"ĠwawR":9411,"ĠwaishhNa":9412,"Ġwawarshha":9413,"Ġwastraa":9414,"ĠwaruNaa":9415,"ĠwaruNasya":9416,"lakshhya":9417,"Ġparakaa":9418,"Ġparawya":9419,"Ġparawarta":9420,"Ġparabhuuta":9421,"Ġparadaaya":9422,"Ġparawarti":9423,"Ġparawartante":9424,"Ġkalu":9425,"Ġkattha":9426,"shhThii":9427,"syaiwa":9428,"riNii":9429,"rishhyati":9430,"dhanura":9431,"dhanwaana":9432,"ruwama":9433,"Ġsharata":9434,"Ġshashi":9435,"Ġshakshhyaami":9436,"Ġshaly":9437,"Ġshawasana":9438,"thate":9439,"Ġnarama":9440,"Ġnachi":9441,"Ġnaraana":9442,"Ġnakul":9443,"Ġnandi":9444,"Ġraahu":9445,"itawarma":9446,"yuddhaa":9447,"yudhyata":9448,"ittaana":9449,"ittyaa":9450,"ityeshhu":9451,"ĠaaN":9452,"Ġaasha":9453,"Ġaayaa":9454,"Ġyasmaata":9455,"bhinand":9456,"weshya":9457,"wede":9458,"wedaana":9459,"Ġdaraawa":9460,"Ġdashaana":9461,"ĠishhTwaa":9462,"daayaa":9463,"Ġmahaakapi":9464,"kaanta":9465,"kaaJNcha":9466,"bhawya":9467,"bhakshhya":9468,"bhartaa":9469,"Ġniyate":9470,"Ġniwaarya":9471,"Ġnipetura":9472,"jaambuuna":9473,"Ġpaapena":9474,"Ġwaala":9475,"saata":9476,"saanu":9477,"saant":9478,"Ġbata":9479,"Ġbada":9480,"Ġbaraah":9481,"Ġsarshhi":9482,"paaN":9483,"paanaa":9484,"nuga":9485,"nule":9486,"Ġtejaa":9487,"Ġtaway":9488,"Ġtawatt":9489,"Ġtawayaanagha":9490,"Ġsur":9491,"Ġsubahu":9492,"ĠsupuN":9493,"Ġtuly":9494,"Ġgamana":9495,"Ġgambhiira":9496,"Ġjant":9497,"Ġjayeta":9498,"Ġjawara":9499,"Ġjayaaya":9500,"Ġhariya":9501,"Ġhanyaa":9502,"Ġhatau":9503,"Ġhawira":9504,"Ġrajasa":9505,"Ġrahasya":9506,"ĠchaaN":9507,"Ġchaar":9508,"Ġchaani":9509,"Ġchaaparaa":9510,"ĠchaasakR":9511,"Ġmaatari":9512,"kshhaNe":9513,"pitaana":9514,"ishhThama":9515,"kshhyaamya":9516,"Ġnaash":9517,"Ġnaasya":9518,"wartii":9519,"itaawa":9520,"Ġkaashi":9521,"Ġkaarayaama":9522,"Ġetya":9523,"Ġetaawa":9524,"Ġkuntibh":9525,"Ġparaaga":9526,"Ġparaajaya":9527,"Ġparaasaada":9528,"ĠparaaNaira":9529,"surama":9530,"suraaNaa":9531,"mura":9532,"muni":9533,"mukhii":9534,"Ġsarwapaapa":9535,"shaasha":9536,"situma":9537,"sindhu":9538,"ndriyama":9539,"Ġtaasaa":9540,"bhaar":9541,"bhaasa":9542,"bhaawena":9543,"Ġsamay":9544,"ĠsamadR":9545,"Ġsamagraa":9546,"Ġsamarana":9547,"prawii":9548,"Ġsaaha":9549,"Ġsaahaa":9550,"Ġsaamaatya":9551,"Ġchitaa":9552,"Ġchija":9553,"Ġmegh":9554,"Nikaa":9555,"maanau":9556,"maanaira":9557,"Ġraajasu":9558,"Ġraajasi":9559,"ishana":9560,"huut":9561,"huuta":9562,"Ġdushcha":9563,"Ġdundu":9564,"Ġdundubhi":9565,"ratau":9566,"Ġbhaaw":9567,"wiiryeNa":9568,"Ġparira":9569,"Ġpariyaama":9570,"msar":9571,"syaabhi":9572,"syaamahe":9573,"chikiir":9574,"ktau":9575,"ktasa":9576,"kuta":9577,"parakR":9578,"paratii":9579,"paradaaya":9580,"bhuute":9581,"Ġyathaar":9582,"chChana":9583,"chaana":9584,"ĠkarNe":9585,"raajasa":9586,"Ġjetaa":9587,"ĠjishhN":9588,"ĠjishhNu":9589,"Ġsamaawishata":9590,"otsyate":9591,"ghasaa":9592,"shhyataa":9593,"ĠChe":9594,"ddhya":9595,"Ġsawai":9596,"Ġsawastha":9597,"Ġsawajana":9598,"opapadyate":9599,"ĠbaaNama":9600,"ĠbaaNena":9601,"okasaa":9602,"okapitaamaha":9603,"Ġdewawrata":9604,"asatya":9605,"Ġjaala":9606,"Ġjaatasa":9607,"Ġwayap":9608,"Ġwayaktama":9609,"Ġsharau":9610,"baashhpa":9611,"karda":9612,"paraapn":9613,"Ġtadanantarama":9614,"Ġshucha":9615,"Ġshaasana":9616,"ĠasR":9617,"Ġasta":9618,"dhyada":9619,"dhyante":9620,"Ġguptaa":9621,"Ġanusa":9622,"ĠanugachChati":9623,"Ġabhipre":9624,"Ġabhimanyu":9625,"diinaa":9626,"ktaani":9627,"Niiwa":9628,"Ġputrai":9629,"Ġputrasha":9630,"Ġkurusa":9631,"juni":9632,"Ġdiwyena":9633,"Ġdurbuddhe":9634,"samanwitama":9635,"rathaira":9636,"gamane":9637,"Ġupajii":9638,"Ġbhawat":9639,"Ġbhawantya":9640,"Ġbhawadbhira":9641,"odakama":9642,"Ġkarmabhira":9643,"dewasya":9644,"gatasha":9645,"miiha":9646,"tyaanaa":9647,"itimaana":9648,"Ġshishu":9649,"Ġshikshhaa":9650,"Ġshibi":9651,"ĠsatyadhR":9652,"Ġbudhaa":9653,"Ġbubhu":9654,"Ġbubhuushha":9655,"Ġrathagh":9656,"grai":9657,"grat":9658,"sthire":9659,"ĠCharai":9660,"ĠdhaaraNaa":9661,"ochanti":9662,"Ġtapaswii":9663,"Ġbhawituma":9664,"darshayana":9665,"darshanaata":9666,"anayaa":9667,"ananta":9668,"okeshhwa":9669,"rshhabhama":9670,"kshhaaNaa":9671,"oNaputrasya":9672,"ĠshuuraaNaa":9673,"Ġshuuraira":9674,"ĠpuraaNaa":9675,"omasya":9676,"Ġpurushhaira":9677,"ĠupaawR":9678,"Ġanweshha":9679,"tawayya":9680,"suuna":9681,"Ġbalawataa":9682,"Tama":9683,"Ġbhukta":9684,"Ġbhuwana":9685,"Ġtig":9686,"Ġnaamata":9687,"chChaada":9688,"Ġsathite":9689,"Ġsathitwaa":9690,"Ġsathitaana":9691,"Ġpashyana":9692,"Ġpashyataa":9693,"mjayasha":9694,"odhii":9695,"Ġwiirama":9696,"abhayu":9697,"ĠshakreNa":9698,"Ġshaktima":9699,"Ġdiiwyaa":9700,"Ġwayaakhyaa":9701,"stina":9702,"idasha":9703,"Ġpariipsa":9704,"Ġdhanushhaa":9705,"Ġdhanurdha":9706,"pashyasi":9707,"Ġawadhya":9708,"Ġpaarthiwaana":9709,"parishhwa":9710,"pariwaarya":9711,"kaashama":9712,"janana":9713,"Ġparajaanaama":9714,"ishhTaasa":9715,"naadayana":9716,"nirmukta":9717,"anumaanya":9718,"ithiwiipaala":9719,"ithiwiipaalaa":9720,"Ġmanas":9721,"rathaana":9722,"ĠnaraaNaa":9723,"wayati":9724,"mprawR":9725,"wrat":9726,"Ġsendraa":9727,"Ġkaamam":9728,"Ġkaamakr":9729,"Ġshiilaa":9730,"Ġawaarayata":9731,"mbhawe":9732,"Ġnishchi":9733,"gachChasi":9734,"Ġmaanas":9735,"ĠkarNasha":9736,"mgara":9737,"mgatama":9738,"jitai":9739,"ihaiwa":9740,"karmaNi":9741,"Ġwaanarai":9742,"ohana":9743,"ohati":9744,"Ġtanaya":9745,"Ġiishwarama":9746,"Ġabhyabhaashhata":9747,"taashana":9748,"Ġparawishyaa":9749,"Ġshatrura":9750,"Ġtejasha":9751,"jaananti":9752,"ĠjaJNaatuma":9753,"mitau":9754,"chetaa":9755,"obhanaa":9756,"obhate":9757,"Ġnayasta":9758,"Ġbaruuyaata":9759,"Ġharipu":9760,"msmR":9761,"okye":9762,"okyama":9763,"ĠwajreNa":9764,"shatakra":9765,"Ġwidushhaa":9766,"ojasha":9767,"Ġgandhamaadana":9768,"Ġnihatyaa":9769,"Ġmunisattama":9770,"Ġapare":9771,"Ġchaturda":9772,"Ġchaturbhi":9773,"tishhThanti":9774,"Ġdarupadaa":9775,"Ġdarupad":9776,"Ġanyaira":9777,"Ġsawaani":9778,"Ġsawaadu":9779,"oNitaa":9780,"Ġraajyasya":9781,"Ġmatt":9782,"Ġshailama":9783,"dhiida":9784,"iddhama":9785,"Ġbhikshhu":9786,"Ġgirii":9787,"kashhaNena":9788,"mukhai":9789,"Ġathaapi":9790,"Ġathaabruwana":9791,"maaNaasa":9792,"Ġparaharshha":9793,"Ġraakshhasaasa":9794,"ĠyajJNasya":9795,"Ġanisha":9796,"mpraapt":9797,"ottarama":9798,"ottame":9799,"Ġkushal":9800,"Ġkushalii":9801,"mgraameshhwa":9802,"Ġraajyaa":9803,"Ġraajyena":9804,"Ġdaiwatama":9805,"Ġdaiwatai":9806,"Ġasite":9807,"Ġsahaayaa":9808,"paaNDawa":9809,"ĠbaraahmaNai":9810,"wiiryasya":9811,"onishhu":9812,"Ġsabhaamadhye":9813,"Ġamarshhi":9814,"mtan":9815,"retarama":9816,"darawa":9817,"darashhTu":9818,"Ġgatisa":9819,"manas":9820,"Ġwadaswa":9821,"ĠshhaTa":9822,"ĠshhaDa":9823,"watiima":9824,"Ġpaurushha":9825,"ĠwaraaN":9826,"yantasha":9827,"naanaawidhaa":9828,"shwaasya":9829,"pariit":9830,"pariitaatmaa":9831,"Ġnishaamya":9832,"drupadau":9833,"Ġyashaswinama":9834,"Ġduraadhar":9835,"Ġkiirtaya":9836,"ĠnishhkR":9837,"Ġchintayana":9838,"Ġbisaa":9839,"Ġbibhe":9840,"watsaa":9841,"Ġtatraadhidaiwatama":9842,"Ġpurastaada":9843,"chusa":9844,"Ġgamishhyati":9845,"wardhate":9846,"opaana":9847,"striya":9848,"walga":9849,"ĠshikhaNDi":9850,"Ġpurushhaana":9851,"ndriyaaNi":9852,"kampayata":9853,"Ġwaasaw":9854,"bibheda":9855,"Ġbharatena":9856,"Ġdushhpra":9857,"plutama":9858,"Ġbheda":9859,"paaJNchaalaanaa":9860,"shariibhagawaana":9861,"Ġshastrama":9862,"chintayitwaa":9863,"mukhya":9864,"Ġchetasaa":9865,"Ġmaheshhwaasau":9866,"Ġadhika":9867,"shuura":9868,"Ġbaliiyasaa":9869,"Ġhitakaamyayaa":9870,"Ġapaaharata":9871,"kushal":9872,"Ġgaandhaare":9873,"Ġwiwidhai":9874,"adhibhuuta":9875,"bhagawa":9876,"Ġwijay":9877,"Ġdaway":9878,"mshumaana":9879,"ĠkashhiiNe":9880,"Ġmaharshhira":9881,"karmaaNama":9882,"Ġakshharama":9883,"ĠmahaapraajJN":9884,"Ġbhaaratii":9885,"suuryaa":9886,"wishanti":9887,"ĠkaaryaaNi":9888,"Ġshabdasa":9889,"ĠkiriiTina":9890,"ogya":9891,"chaariNii":9892,"Ġshaashwatii":9893,"Ġsiddhira":9894,"ĠhariiNaa":9895,"Ġsaagaraa":9896,"hshaasanasa":9897,"mkaashaa":9898,"Ġsheshhaa":9899,"Ġyuyutsa":9900,"Ġpannaga":9901,"Ġamitaujasa":9902,"iJNjayaana":9903,"Ġaapann":9904,"Ġsugriiwasa":9905,"Ġshaastrata":9906,"sharmaa":9907,"prasaadaada":9908,"Ġsaarathima":9909,"Ġparawekshhyaami":9910,"aatman":9911,"shirasaa":9912,"Ġhimawat":9913,"mghai":9914,"Ġaahusa":9915,"Ġsudaaru":9916,"ĠsudaaruNa":9917,"ĠsudaaruNaa":9918,"ĠkiidR":9919,"Ġbhakti":9920,"Ġpaapaani":9921,"ĠbaaNaaJNa":9922,"Ġaninditaama":9923,"Ġphalgunasya":9924,"Ġbaandhawai":9925,"hshwasya":9926,"kiirtitaa":9927,"Ġtaawakaanaa":9928,"ihaaNi":9929,"ĠyatheshhTa":9930,"Ġturagaana":9931,"ĠgachChaama":9932,"ĠgachChaawatara":9933,"Ġyuddhadurmadaa":9934,"Ġmahaawiiry":9935,"Ġbhajate":9936,"Ġmanushhyeshhu":9937,"Ġmanushhyendra":9938,"Ġmaheshhwaasaana":9939,"Ġparachakshhate":9940,"Ġbahuwidhaira":9941,"Ġgiita":9942,"Ġudiirayana":9943,"Ġwaagmii":9944,"Ġsaatyakira":9945,"Ġsaadhwii":9946,"tathetya":9947,"Ġdaraupadeyaasha":9948,"thaiw":9949,"Ġnipatite":9950,"Ġsharawarshhaira":9951,"Ġbarahmawaadina":9952,"kashhatriya":9953,"kashhatriyaa":9954,"Ġwishwaamitr":9955,"samyaga":9956,"niweshanama":9957,"ĠshhaDbhira":9958,"ĠshhashhTyaa":9959,"ĠwasishhTh":9960,"wishhNu":9961,"Ġbhaaradwaaj":9962,"imiy":9963,"Ġmaghawaana":9964,"Ġjihwaa":9965,"ĠtishhTheti":9966,"ĠkarawaaNi":9967,"kalmashha":9968,"Ġtasthu":9969,"ĠnataparwaNaama":9970,"Ġkashhatriyaana":9971,"Ġantikaata":9972,"Ġwidyayaa":9973,"Ġnimeshhaa":9974,"Ġhaardikya":9975,"adhyaatma":9976,"Ġshuchismite":9977,"Ġsairandh":9978,"Ġjawanaira":9979,"Ġmaarutaatmaja":9980,"Ġnuunama":9981,"Ġjayadrathama":9982,"Ġjitakaashina":9983,"Ġwaruuthi":9984,"ĠmahaarhaaNi":9985,"anii":9986,"ashhTaa":9987,"amita":9988,"atishhTha":9989,"akr":9990,"antara":9991,"asmaana":9992,"amaanu":9993,"arundhatii":9994,"dreNa":9995,"ghe":9996,"hy":9997,"hni":9998,"ijaa":9999,"ipya":10000,"iNaama":10001,"ikshhu":10002,"intata":10003,"jji":10004,"kri":10005,"kewa":10006,"mNaa":10007,"mwiita":10008,"msR":10009,"msena":10010,"mbhuuta":10011,"msura":10012,"mchara":10013,"mkarama":10014,"mkarshha":10015,"mshraya":10016,"ntha":10017,"ndhuunaa":10018,"osh":10019,"onii":10020,"onna":10021,"oghaa":10022,"oyada":10023,"okshhe":10024,"omni":10025,"obhisha":10026,"ptaama":10027,"pitai":10028,"priyama":10029,"psitama":10030,"ryaana":10031,"rtuma":10032,"rhas":10033,"sne":10034,"ttaana":10035,"tyuu":10036,"udya":10037,"wraata":10038,"Ġoshha":10039,"aagachCha":10040,"aakhyaa":10041,"aadit":10042,"hau":10043,"hante":10044,"hartaa":10045,"haraNaa":10046,"tawata":10047,"tawada":10048,"mad":10049,"madh":10050,"marii":10051,"matta":10052,"manasa":10053,"raNii":10054,"rathena":10055,"yambhu":10056,"shiwa":10057,"waja":10058,"waraana":10059,"wawarshha":10060,"washama":10061,"saN":10062,"sarasa":10063,"sapar":10064,"nayana":10065,"pai":10066,"pasha":10067,"pathaa":10068,"paira":10069,"pane":10070,"pahR":10071,"paraaja":10072,"pannama":10073,"haati":10074,"hitaana":10075,"Ġsas":10076,"Ġsanta":10077,"ĠsakR":10078,"Ġsamaana":10079,"Ġsataama":10080,"Ġsabala":10081,"Ġsantu":10082,"Ġsaputraa":10083,"Ġsayaacha":10084,"Ġsaweshhu":10085,"Ġsakhi":10086,"Ġsady":10087,"raam":10088,"raabhi":10089,"raatraa":10090,"raaNya":10091,"char":10092,"dad":10093,"dawe":10094,"dahya":10095,"shanaa":10096,"shasya":10097,"shatama":10098,"sharaana":10099,"sharaNa":10100,"sharaasa":10101,"waag":10102,"waataa":10103,"waasya":10104,"waayu":10105,"shhNaa":10106,"wik":10107,"wis":10108,"widhwa":10109,"wimukta":10110,"Ġkira":10111,"Ġtanuu":10112,"ĠpaNa":10113,"Ġpade":10114,"Ġpatana":10115,"Ġpawanaa":10116,"ĠpaJNche":10117,"taaraa":10118,"Ġchayuta":10119,"Ġchareda":10120,"Ġawar":10121,"ĠashhTa":10122,"Ġakaara":10123,"Ġabhawa":10124,"ĠadhishhThi":10125,"ĠachChi":10126,"Ġaduu":10127,"Ġachetasa":10128,"Ġachintya":10129,"Ġabhyetya":10130,"maatyaa":10131,"maalina":10132,"naad":10133,"naapa":10134,"naabhisa":10135,"naaraajake":10136,"jahi":10137,"jaraa":10138,"niru":10139,"nishhyaami":10140,"nigdha":10141,"niwaasina":10142,"Ġmamaana":10143,"ĠmamR":10144,"Ġmadhyaa":10145,"ĠmaraNaa":10146,"Ġmadhuu":10147,"Ġmameti":10148,"gasha":10149,"garii":10150,"gataasa":10151,"gachChaami":10152,"shhaD":10153,"shhasya":10154,"Ġwibhuu":10155,"Ġwiddha":10156,"Ġwijaanii":10157,"Ġwiwas":10158,"Ġwishuddha":10159,"Ġwikurwaa":10160,"kata":10161,"kawya":10162,"kariyaa":10163,"kashhura":10164,"Ġwaha":10165,"Ġwasaa":10166,"Ġwashaa":10167,"Ġwaktaa":10168,"Ġwadhyaa":10169,"Ġwadhaaya":10170,"Ġwakshhyati":10171,"ĠwariiD":10172,"lataa":10173,"lakshh":10174,"labdha":10175,"Ġparadha":10176,"Ġparabhaawa":10177,"Ġparathita":10178,"Ġparabhinna":10179,"Ġkapii":10180,"Ġkathya":10181,"shhTyaa":10182,"shhTita":10183,"ritaana":10184,"ruda":10185,"thaasha":10186,"Ġshanaira":10187,"Ġnamu":10188,"Ġnakta":10189,"Ġnaura":10190,"Ġnadana":10191,"Ġnaraasa":10192,"Ġraamaaya":10193,"itawaa":10194,"itr":10195,"ittau":10196,"ittaasha":10197,"Ġaasaa":10198,"ĠaahR":10199,"Ġaawasa":10200,"Ġaayura":10201,"Ġaartaa":10202,"Ġaachara":10203,"Ġaastaa":10204,"Ġaakramya":10205,"Ġaajagaama":10206,"Ġaajaghaana":10207,"Ġaagamata":10208,"Ġaaruhya":10209,"Ġyam":10210,"Ġyati":10211,"Ġyawak":10212,"yete":10213,"yeyama":10214,"weshhii":10215,"Ġdahati":10216,"Ġiwe":10217,"daane":10218,"daaruNama":10219,"ĠmahaastraaNi":10220,"Ġmahaawegaa":10221,"Ġmahaachamuu":10222,"Ġbhaimase":10223,"kaada":10224,"kaashya":10225,"kaanaama":10226,"bhaja":10227,"bhaktena":10228,"bharadwaaja":10229,"Ġniwaa":10230,"Ġnishhaa":10231,"Ġnipu":10232,"Ġnishhpa":10233,"Ġnindaa":10234,"Ġnikhi":10235,"Ġnity":10236,"Ġuluu":10237,"Ġurasi":10238,"Ġshiti":10239,"Ġpaad":10240,"Ġpaapaana":10241,"Ġwaarya":10242,"saashwa":10243,"saahwa":10244,"paarshha":10245,"hiiyate":10246,"tyaye":10247,"mikaa":10248,"Ġsudarshana":10249,"Ġgataama":10250,"Ġgandh":10251,"Ġjalpa":10252,"Ġhalaa":10253,"Ġhataana":10254,"Ġhaiha":10255,"Ġhastya":10256,"ĠhaiDi":10257,"Ġraraaja":10258,"ĠraNama":10259,"dhaanama":10260,"dhaarya":10261,"Ġchaatha":10262,"Ġchaashwa":10263,"Ġchaasau":10264,"Ġmaasi":10265,"Ġmaasama":10266,"kshhat":10267,"kshhataa":10268,"kshhati":10269,"rmadaa":10270,"kshhyaama":10271,"Ġnaad":10272,"Ġnaara":10273,"shhaasha":10274,"warya":10275,"wartu":10276,"warjita":10277,"itaakR":10278,"Ġkaasha":10279,"Ġkaalya":10280,"baruu":10281,"Ġeshh":10282,"Ġkumu":10283,"Ġkushi":10284,"Ġparaadrawanta":10285,"Ġparaadrawada":10286,"Ġparaaduraa":10287,"sukhe":10288,"musa":10289,"much":10290,"mukt":10291,"Ġsarwashaastra":10292,"Ġsarwadhanwi":10293,"shaalaa":10294,"shaastraa":10295,"Ġtaawana":10296,"bhaagii":10297,"Ġsamas":10298,"uurN":10299,"pramaa":10300,"pramukhaa":10301,"gaayaa":10302,"gaatra":10303,"Ġsaam":10304,"Ġsaartha":10305,"Ġsaarwa":10306,"Ġsaadhawa":10307,"Ġsaarathe":10308,"Ġsaahasa":10309,"Ġsaampratama":10310,"nyanta":10311,"medhi":10312,"Ġraajasa":10313,"Ġraajasuu":10314,"Ġraajawasati":10315,"mshata":10316,"mshaka":10317,"mshasya":10318,"niiti":10319,"niiyaana":10320,"ratasa":10321,"Ġbhaawi":10322,"Ġbhaagii":10323,"Ġbhaashhita":10324,"msanta":10325,"syaada":10326,"syaadya":10327,"syaatma":10328,"khama":10329,"khaira":10330,"chikshhepa":10331,"ktasha":10332,"kuTii":10333,"parawa":10334,"parana":10335,"Ġbhiime":10336,"Ġbhuut":10337,"Ġbhuuda":10338,"Ġbhuuti":10339,"Ġbhuute":10340,"chaaru":10341,"chaaraNa":10342,"dinii":10343,"dibhira":10344,"sewitama":10345,"ddhayaa":10346,"yatasha":10347,"shware":10348,"raajata":10349,"keshaa":10350,"kshhiN":10351,"Ġjha":10352,"odhayaama":10353,"dewaana":10354,"Ġparatipadya":10355,"Ġparatipuujya":10356,"Ġparatishrutya":10357,"Ġsamaaruhya":10358,"otre":10359,"otpaa":10360,"Ġsawaka":10361,"Ġsawakama":10362,"Ġyaasha":10363,"Ġyaanii":10364,"Ġlakshhya":10365,"Ġlabhe":10366,"opari":10367,"opabhu":10368,"opastha":10369,"ntena":10370,"okatra":10371,"okakR":10372,"drawanti":10373,"Ġdewarshhe":10374,"Ġdewaruupi":10375,"Ġjaayante":10376,"Ġjaambuuna":10377,"Ġwayathi":10378,"Ġwayathit":10379,"Ġwelaa":10380,"Ġdaayaa":10381,"ĠdaakshhiNaa":10382,"baal":10383,"kartu":10384,"yaanasya":10385,"Ġtatr":10386,"Ġtatparaa":10387,"shhThitama":10388,"lipta":10389,"ishhTawata":10390,"Ġshaastraa":10391,"Ġasma":10392,"Ġastiiti":10393,"dhyamaana":10394,"Ġarthaana":10395,"Ġguruuna":10396,"swat":10397,"Ġanuttama":10398,"Ġanushushruma":10399,"Ġabhit":10400,"Ġabhiwaa":10401,"Ġabhini":10402,"Ġabhidudraawa":10403,"ipaitaama":10404,"Ġkashhamama":10405,"Ġsattwama":10406,"Ġsatriyama":10407,"geyasya":10408,"hasraaNi":10409,"nyaani":10410,"Ġpaarshwata":10411,"Ġkururaaj":10412,"Ġkuruprawiira":10413,"guNama":10414,"guNaira":10415,"Ġbarahmacharya":10416,"Ġdiga":10417,"Ġdikshhu":10418,"Ġdurbala":10419,"Ġdurbuddhira":10420,"shikshhaa":10421,"Ġnarai":10422,"Ġnarasi":10423,"waika":10424,"Ġupari":10425,"Ġwiiraawa":10426,"bhukta":10427,"Ġbhawanta":10428,"peya":10429,"gatasya":10430,"miiDha":10431,"wadana":10432,"patisa":10433,"Ġwarajeta":10434,"Ġiwaasha":10435,"Ġiwaantaka":10436,"shhiida":10437,"Ġgaasha":10438,"Ġcheme":10439,"Ġchekitaana":10440,"Ġmantraa":10441,"okaaya":10442,"okaabhi":10443,"okaanaama":10444,"Ġsamuddha":10445,"Ġsamupe":10446,"Ġjiiw":10447,"graama":10448,"Ġbuddha":10449,"Ġbuddhwaa":10450,"ntaasha":10451,"Ġrathastha":10452,"Ġrathasattama":10453,"grahaa":10454,"ĠChar":10455,"ĠChanda":10456,"twaiwa":10457,"ĠtariwishhTa":10458,"Ġtarigartaa":10459,"balaira":10460,"ishhadwa":10461,"Ġsarwaasha":10462,"sthaasha":10463,"Ġnirwi":10464,"oNasha":10465,"oNaputr":10466,"oNaputreNa":10467,"isam":10468,"abhishhe":10469,"Ġupaawishata":10470,"Ġrur":10471,"Ġruru":10472,"suukshh":10473,"shiima":10474,"shiiti":10475,"Ġbhuj":10476,"Ġtiirama":10477,"chChaadya":10478,"puurNe":10479,"yuuna":10480,"odbhawa":10481,"Ġparepsura":10482,"Ġwiirasha":10483,"Ġwiiraira":10484,"bhedibhi":10485,"tapaswi":10486,"mpadaa":10487,"ishhyashR":10488,"puujaya":10489,"ĠwayaahR":10490,"ĠsauwarNa":10491,"Ġtamasa":10492,"ĠpaJNchasu":10493,"Ġbhawecha":10494,"shrayaa":10495,"shrame":10496,"shhTaani":10497,"ishhibhisha":10498,"dhipate":10499,"raswata":10500,"Ġdashagrii":10501,"odhanakR":10502,"Ġjanaka":10503,"Ġpuurushha":10504,"samaawR":10505,"rshhibhi":10506,"rshhiira":10507,"Ġwishrutaa":10508,"Ġdarakshhyaami":10509,"hkhasa":10510,"wayawa":10511,"wayakta":10512,"wayadhama":10513,"Ġsathaane":10514,"Ġsathaanaani":10515,"ĠsathaaNu":10516,"Ġkauraw":10517,"Ġkaurawy":10518,"oshhasya":10519,"oshhayaama":10520,"ĠraawaNama":10521,"Ġsendra":10522,"mhawyaaghra":10523,"sarwakaama":10524,"itaraashhTrama":10525,"itaraashhTrasha":10526,"Ġbuddhisa":10527,"ogakshhe":10528,"mahada":10529,"Ġawaapta":10530,"Ġraaghawe":10531,"ĠlakshhmaNaa":10532,"Ġpishitaa":10533,"patanti":10534,"Ġmaanawaana":10535,"Ġdharmaada":10536,"Ġdharmaatmaana":10537,"Ġwiwishura":10538,"Ġshatagh":10539,"Ġashwaa":10540,"Ġabhyar":10541,"Ġwaakyaani":10542,"Ġshatrusa":10543,"kaamasya":10544,"jaanapadaa":10545,"tasyaasa":10546,"Ġwartamaanaa":10547,"Ġwinihate":10548,"Ġwedanaa":10549,"ĠjaJNaatu":10550,"ĠjaJNaane":10551,"Ġwanas":10552,"Ġwanawaasa":10553,"ĠpaaJNchaaly":10554,"Ġtayajeta":10555,"Ġtayaktuma":10556,"hanada":10557,"obhay":10558,"Ġnayapaatayata":10559,"Ġnayapatada":10560,"mstu":10561,"Ġpatite":10562,"Ġaashwaasa":10563,"Ġwishhayaana":10564,"ĠwishhaNNa":10565,"ĠwidureNa":10566,"Ġekaika":10567,"Ġekabhaktena":10568,"ĠguruNaa":10569,"Ġgurushushruushha":10570,"Ġmanura":10571,"Ġmanuja":10572,"Ġaasiinama":10573,"dwignaa":10574,"Ġdhika":10575,"Ġdawijai":10576,"giraa":10577,"kraant":10578,"Ġrathaanaa":10579,"shrutaa":10580,"Ġwidhima":10581,"ĠwidhidR":10582,"Ġkariyate":10583,"kiidR":10584,"odhaasa":10585,"Ġanyana":10586,"ĠkarameNa":10587,"mrambhaa":10588,"Ġparyadewa":10589,"Ġarimardana":10590,"Ġsuuryaa":10591,"Ġpiitaa":10592,"ĠmaargeNa":10593,"ichChada":10594,"maarju":10595,"Ġmaanushh":10596,"ĠpuNyashl":10597,"ruupaaNi":10598,"mjayaa":10599,"rthaanaa":10600,"atiwiddh":10601,"mukhasya":10602,"Ġathaayaanta":10603,"ijanta":10604,"Ġdiwasa":10605,"Ġdiwaukasaama":10606,"ĠChira":10607,"ĠdhaartaraashhTraaNaa":10608,"mshena":10609,"Ġnetre":10610,"ityaanaa":10611,"ottare":10612,"bhiimasa":10613,"Ġdawaari":10614,"baraahmaN":10615,"baraahmaNasya":10616,"saindhawa":10617,"saumadat":10618,"ihiit":10619,"Ġsumahaabala":10620,"Ġsumahaanaada":10621,"Ġkashhutpipaa":10622,"shaasanama":10623,"muurti":10624,"Ġsaayak":10625,"ĠbaraahmaNaanaama":10626,"Ġyattaa":10627,"ĠyatkR":10628,"Ġyatnena":10629,"ihastha":10630,"Ġshubhaashubhama":10631,"bhiishhm":10632,"Ġparaaptawaana":10633,"Ġparaaptakaala":10634,"Ġwayawasaa":10635,"Ġwayawasit":10636,"mbhraanta":10637,"onira":10638,"Ġsabhaama":10639,"shcharya":10640,"Ġanaaga":10641,"abhyadhaawata":10642,"ĠshhaT":10643,"ĠshhashhTi":10644,"Ġsharaanta":10645,"Ġmahaabhaag":10646,"hkhaada":10647,"yantasa":10648,"Ġnishaama":10649,"sarweshhaama":10650,"raajaaya":10651,"Ġbarawiishhi":10652,"Ġyashaswini":10653,"Ġduraadharshha":10654,"yiima":10655,"Ġbibhar":10656,"Ġdatt":10657,"ipaana":10658,"nwanaa":10659,"rNamaa":10660,"wikramama":10661,"Ġwarshhama":10662,"ĠjayeshhThaa":10663,"Ġpurastaata":10664,"oshhit":10665,"Ġhaatuma":10666,"garbh":10667,"garbha":10668,"Ġsamutpannaa":10669,"harshhayana":10670,"Ġpurushhaada":10671,"ĠbharashhTa":10672,"Ġdushhkarama":10673,"Ġwaayuwega":10674,"Ġasmaasu":10675,"nirataa":10676,"agastya":10677,"Ġagnau":10678,"Ġrathin":10679,"Ġphalgun":10680,"ĠnamaskR":10681,"senaapati":10682,"puujayaama":10683,"dinasha":10684,"waasaaya":10685,"Ġwadhyamaan":10686,"ĠwastraaNi":10687,"Ġbiija":10688,"Ġwimalaa":10689,"Ġtumule":10690,"ĠgachChena":10691,"Ġrudhiraa":10692,"Ġchakrusa":10693,"Ġgarahii":10694,"Ġpariitisa":10695,"Ġpariitimaana":10696,"Ġwaachama":10697,"ihaspatima":10698,"mghaata":10699,"mghaasha":10700,"Ġsudurma":10701,"Ġtaraataa":10702,"Ġshubhai":10703,"wishhaya":10704,"Ġsaatyakima":10705,"sarwaaNya":10706,"Ġparabhadra":10707,"Ġdawand":10708,"Ġsamupaashrita":10709,"ichChrama":10710,"paaNDawaasha":10711,"Ġsanaatanaa":10712,"Ġdharmeshhu":10713,"Ġapashyana":10714,"ĠraashhTre":10715,"Ġdeshakaala":10716,"Ġaparaana":10717,"ĠmarmaaNi":10718,"Ġapsar":10719,"Ġhanuumanta":10720,"Ġhanuumantama":10721,"ĠshatruuNaa":10722,"agnira":10723,"agnishhT":10724,"Ġwaajina":10725,"Ġwaajinaa":10726,"Ġsatyawaaga":10727,"Ġsatyawaadii":10728,"hshaasanama":10729,"aarja":10730,"ĠparatishhThitaa":10731,"Ġparashaadhi":10732,"yudhyaswa":10733,"Ġharshhama":10734,"kumaara":10735,"ipatisa":10736,"ĠkuuTa":10737,"ĠwaarshhNey":10738,"Ġbharaatar":10739,"Ġgauta":10740,"waruupa":10741,"Ġjanaadhipama":10742,"igunandana":10743,"chaturdasha":10744,"Ġsharuuyante":10745,"ishhTadyumnasa":10746,"olkaa":10747,"olba":10748,"waajinaama":10749,"Ġbhaaskar":10750,"kiirtita":10751,"Ġbhaagasha":10752,"otkaTaa":10753,"Ġparaapnuhi":10754,"Ġparaapnuwanti":10755,"Ġsaptatyaa":10756,"dawaawa":10757,"Ġwishanti":10758,"Ġwindate":10759,"odyata":10760,"odhyaayaa":10761,"Ġchaanyaani":10762,"Ġaayamya":10763,"Ġaalambya":10764,"Ġgaraame":10765,"ihNiishhwa":10766,"Ġmuurdhnaa":10767,"jaJNaatwaa":10768,"Ġwidhaataa":10769,"apashyada":10770,"paratyuwaacha":10771,"ihNata":10772,"mwatsarama":10773,"Ġshatakrat":10774,"Ġshishhy":10775,"ĠamarshhaNa":10776,"Ġsaraswatii":10777,"pataakaa":10778,"dadaaha":10779,"kashhipra":10780,"kashhiprama":10781,"Ġaapnuyaata":10782,"mtyajya":10783,"shataanya":10784,"Ġsubhadraa":10785,"ĠparaaNinaa":10786,"Ġawaapsyasi":10787,"Ġkamala":10788,"purushhaa":10789,"Ġwadhaartha":10790,"Ġabruwa":10791,"ĠrukmapuN":10792,"ĠwikrameNa":10793,"Ġwibudha":10794,"ĠkaaraNaada":10795,"kuJNjaraa":10796,"Ġmukhyaani":10797,"Ġdiipyamaana":10798,"shchitya":10799,"ĠdakshhiNe":10800,"Ġjaanaasi":10801,"Ġupalabhya":10802,"Ġdasharathasya":10803,"Ġshauchama":10804,"Ġghaatinama":10805,"Ġwishikhaisa":10806,"Ġkalishya":10807,"Ġnaishhadha":10808,"Ġmaagadha":10809,"igapakshhi":10810,"Ġwisphaarya":10811,"Ġgagane":10812,"ĠtaaDit":10813,"kaarmuka":10814,"mmatama":10815,"Ġgirau":10816,"mshaptaka":10817,"Ġdaasharathi":10818,"Ġshushruma":10819,"okshhyate":10820,"shhmataama":10821,"bhishheka":10822,"Ġmaarut":10823,"Ġkartawyama":10824,"dwiipa":10825,"wyuuha":10826,"ĠparaajJNaayata":10827,"Ġmuniinaa":10828,"Ġshaaradwat":10829,"Ġwishaalaakshhi":10830,"aasasaada":10831,"tariiNi":10832,"Ġnaaraachena":10833,"Ġshilpi":10834,"odwigna":10835,"Ġwishwaruupa":10836,"arajunama":10837,"mtushhTa":10838,"mdigdha":10839,"kurwata":10840,"opajiiwina":10841,"Ġsaumadatti":10842,"iJNjayai":10843,"ĠdaNDena":10844,"paapmaa":10845,"Ġabhiipsa":10846,"Ġmuurdhani":10847,"Ġadiinasa":10848,"Ġakurwanta":10849,"kalyaaNa":10850,"Ġdasyu":10851,"ghaanaashu":10852,"mChannaa":10853,"Ġatula":10854,"ĠihechChasi":10855,"ĠbarahmacharyeNa":10856,"mprayachChati":10857,"Ġaniikiniima":10858,"otkaTau":10859,"ishhNadwaipaayana":10860,"Ġkeshawaarjunau":10861,"Ġuchchaawacha":10862,"Ġmaalyaani":10863,"Ġkubjaa":10864,"ishhNyandhaka":10865,"ĠgaaNDiwa":10866,"Ġshinipu":10867,"Ġtaraswinaama":10868,"abhiikshhNa":10869,"Ġniyatendriya":10870,"Duur":10871,"NNaa":10872,"asya":10873,"akR":10874,"ashhTa":10875,"asR":10876,"apR":10877,"asma":10878,"akshhau":10879,"dishhT":10880,"ddhii":10881,"etena":10882,"gura":10883,"greNa":10884,"greshhu":10885,"hshreshhTha":10886,"hrura":10887,"ind":10888,"iwya":10889,"ike":10890,"igama":10891,"imbha":10892,"indriya":10893,"idura":10894,"jyama":10895,"kku":10896,"kli":10897,"lewa":10898,"lpe":10899,"mn":10900,"mdhama":10901,"mraakshha":10902,"mkal":10903,"mwaarya":10904,"msthaana":10905,"mpuurNa":10906,"nthi":10907,"nnena":10908,"otha":10909,"och":10910,"okshhi":10911,"odar":10912,"odii":10913,"oNii":10914,"oki":10915,"oraaNi":10916,"oraaNaa":10917,"otrama":10918,"owaaha":10919,"ochitaa":10920,"rtasya":10921,"smR":10922,"stwa":10923,"sweti":10924,"sTha":10925,"tna":10926,"tsura":10927,"up":10928,"uch":10929,"Ġyaama":10930,"aawR":10931,"aachaa":10932,"aamantrya":10933,"hanna":10934,"tawyama":10935,"tasmaacha":10936,"maN":10937,"mati":10938,"matii":10939,"male":10940,"mayi":10941,"raj":10942,"ray":10943,"rash":10944,"raka":10945,"yash":10946,"yasmi":10947,"yamaanaa":10948,"yasmaana":10949,"shrii":10950,"shlaa":10951,"wadh":10952,"ware":10953,"washaa":10954,"wayasa":10955,"waraNa":10956,"warasa":10957,"sachi":10958,"satyaa":10959,"sahit":10960,"sahaaya":10961,"sawarga":10962,"naina":10963,"pawi":10964,"payata":10965,"patta":10966,"patau":10967,"pakshhe":10968,"panthaa":10969,"patiina":10970,"Ġsayaa":10971,"Ġsaru":10972,"Ġsakaa":10973,"Ġsaktaa":10974,"Ġsaritaa":10975,"Ġsawitaa":10976,"Ġsasarja":10977,"Ġsagandharwaa":10978,"raatr":10979,"chare":10980,"chatura":10981,"chakraa":10982,"dawa":10983,"dadhaanaa":10984,"shawaa":10985,"shakt":10986,"waaNa":10987,"waabhyaa":10988,"waasena":10989,"shhwaasa":10990,"shhNiima":10991,"wipaa":10992,"widya":10993,"winda":10994,"wisar":10995,"winiita":10996,"wiparya":10997,"yaat":10998,"yaate":10999,"yaashwaana":11000,"ĠtaN":11001,"Ġtaw":11002,"Ġtasye":11003,"Ġpak":11004,"Ġpacha":11005,"Ġpaishu":11006,"Ġpashaw":11007,"taabhi":11008,"taasaa":11009,"Ġchaitata":11010,"Ġcharaacharama":11011,"timi":11012,"tirya":11013,"Ġacha":11014,"Ġada":11015,"Ġapari":11016,"Ġasura":11017,"Ġakr":11018,"Ġashak":11019,"Ġapeta":11020,"Ġawartanta":11021,"maaru":11022,"maaty":11023,"naash":11024,"naaraacha":11025,"jasya":11026,"jawal":11027,"jajwaala":11028,"niwaana":11029,"niwaasa":11030,"nihata":11031,"nidraa":11032,"nihataa":11033,"niswana":11034,"ĠdishhTa":11035,"Ġdhura":11036,"Ġphu":11037,"Ġmadii":11038,"Ġmaitra":11039,"gam":11040,"gaNasa":11041,"shhaT":11042,"shhaTa":11043,"Ġwimi":11044,"Ġwide":11045,"ĠwishhTa":11046,"Ġwismi":11047,"Ġwimanaa":11048,"Ġwimaanena":11049,"Ġwihiina":11050,"Ġwiraadha":11051,"Ġwijigiishha":11052,"Ġwighasaa":11053,"karii":11054,"kashhaa":11055,"kaba":11056,"karasa":11057,"ĠwaN":11058,"Ġwad":11059,"Ġwan":11060,"Ġwarii":11061,"Ġwakra":11062,"Ġwasta":11063,"ĠwaruN":11064,"Ġparaira":11065,"Ġparabaa":11066,"Ġparatapa":11067,"ĠparashhTu":11068,"Ġparamukha":11069,"Ġparapadya":11070,"Ġparalaya":11071,"Ġparadhaanaa":11072,"ĠparajJNayaa":11073,"Ġkaisha":11074,"Ġkasmi":11075,"Ġkathitaa":11076,"Ġkadalii":11077,"Ġkaliiba":11078,"shhTira":11079,"syata":11080,"syama":11081,"ritaasa":11082,"dhanaa":11083,"rud":11084,"rukma":11085,"Ġshaka":11086,"Ġshashii":11087,"Ġshalyama":11088,"Ġshayane":11089,"ĠnaishhT":11090,"Ġnagaa":11091,"Ġnataparwabhi":11092,"Ġnashyati":11093,"Ġnarmadaa":11094,"itaghna":11095,"itawarmaaNa":11096,"yudhaana":11097,"ithuu":11098,"itreNa":11099,"Ġaaga":11100,"Ġaayaata":11101,"Ġaachaara":11102,"Ġaaniiya":11103,"Ġaaste":11104,"Ġaakaashe":11105,"ĠaabharaNa":11106,"ĠaabharaNaa":11107,"Ġaadatte":11108,"Ġaakhyaana":11109,"Ġyan":11110,"Ġyamaa":11111,"Ġyasmaada":11112,"ĠyajJNi":11113,"ĠyajJNama":11114,"yeshha":11115,"yeyura":11116,"dhura":11117,"rey":11118,"weg":11119,"wenaa":11120,"weshhaa":11121,"weNu":11122,"Ġdanta":11123,"Ġdamena":11124,"ĠdaNDaa":11125,"Ġdagdhaa":11126,"ĠiN":11127,"Ġindraa":11128,"daani":11129,"daasii":11130,"Ġmahaay":11131,"Ġmahaaja":11132,"Ġmahaatapa":11133,"Ġmahaawrata":11134,"ĠmahaashaN":11135,"Ġmahaadew":11136,"Ġmahaamegha":11137,"Ġmahaagiri":11138,"Ġmahaaphalama":11139,"Ġbhaikshha":11140,"Ġmitha":11141,"Ġpuli":11142,"Ġpulastya":11143,"kaaJNa":11144,"kaaraana":11145,"bhara":11146,"bhaktaa":11147,"bhasti":11148,"Ġnija":11149,"Ġninda":11150,"Ġninye":11151,"Ġniwat":11152,"Ġnidhima":11153,"Ġnistri":11154,"Ġushhi":11155,"Ġudaanasya":11156,"Ġpaawana":11157,"Ġpaashu":11158,"Ġpaalaya":11159,"Ġpaaniiya":11160,"Ġwaada":11161,"ĠwaaruNa":11162,"Ġwaashitaa":11163,"saadhwa":11164,"Ġbaddhaa":11165,"Ġbaddhwaa":11166,"Ġsarga":11167,"tamasaa":11168,"paatena":11169,"paaNaya":11170,"hiirshha":11171,"nuyaa":11172,"nugaana":11173,"Ġtawata":11174,"Ġtawaiwa":11175,"Ġtawayya":11176,"dhik":11177,"dhitaa":11178,"dhipatira":11179,"ĠsuwR":11180,"Ġsutau":11181,"Ġsukhi":11182,"Ġsupushh":11183,"Ġsugandhi":11184,"Ġdhanaani":11185,"iwacha":11186,"ĠtushhTa":11187,"ĠtushhTaa":11188,"ntarikshhe":11189,"Ġgataana":11190,"ĠjaN":11191,"Ġjanama":11192,"Ġjalaasha":11193,"Ġjahaati":11194,"Ġhaima":11195,"Ġraha":11196,"ĠraNaata":11197,"dhaatu":11198,"Ġchaari":11199,"Ġchaartha":11200,"Ġchaagni":11201,"Ġchaapama":11202,"Ġmaalaa":11203,"Ġmaatura":11204,"Ġmaandhaa":11205,"kshhanna":11206,"kshhante":11207,"kshhy":11208,"kshhyate":11209,"nen":11210,"neti":11211,"netra":11212,"yamau":11213,"huliN":11214,"Ġnaas":11215,"Ġnaapa":11216,"Ġnaahu":11217,"Ġnaasi":11218,"warjitaa":11219,"itaanaa":11220,"itaastraa":11221,"NDi":11222,"Ġkaaye":11223,"Ġkaamaata":11224,"laabhi":11225,"laabhaa":11226,"Ġebhira":11227,"Ġetaama":11228,"Ġekara":11229,"Ġeweti":11230,"Ġkul":11231,"Ġkulaa":11232,"Ġyuktena":11233,"Ġyuddhena":11234,"Ġparaasa":11235,"Ġparaati":11236,"Ġparaajaa":11237,"Ġparaayaada":11238,"Ġparaatara":11239,"Ġparaadaada":11240,"Ġparaabhawama":11241,"sur":11242,"surai":11243,"suwrataa":11244,"muchu":11245,"waanara":11246,"purama":11247,"Ġtaasu":11248,"Ġtaamra":11249,"Ġtaamraa":11250,"bhaawaa":11251,"bhaashhya":11252,"bhaashhitaa":11253,"uurNa":11254,"prada":11255,"prajJNa":11256,"prawara":11257,"prabhaawa":11258,"prakhya":11259,"praharaNa":11260,"praharaNaa":11261,"gaabhi":11262,"maanasaa":11263,"ishhNii":11264,"meha":11265,"meya":11266,"medhe":11267,"medhena":11268,"ryasha":11269,"ryashwa":11270,"Ġraajaputr":11271,"ruuNa":11272,"mshama":11273,"mshataa":11274,"JNjaanaa":11275,"JNchita":11276,"tiinaama":11277,"tiirNa":11278,"niike":11279,"Ġbhaasa":11280,"Ġbhaanu":11281,"Ġbhaagi":11282,"ĠparichCha":11283,"Ġpariyata":11284,"Ġpariwartate":11285,"Ġwair":11286,"Ġwairaa":11287,"Ġwaiduur":11288,"msawa":11289,"khar":11290,"rshhaNa":11291,"dushhTaa":11292,"dushcha":11293,"kuT":11294,"kuNT":11295,"param":11296,"parasya":11297,"parahR":11298,"parawiwesha":11299,"bhuuri":11300,"bhuumau":11301,"Ġyathaasmaaka":11302,"Ġbhuutima":11303,"Ġbhuumaawa":11304,"yaamasa":11305,"Ġmudama":11306,"Ġmuchya":11307,"Ġmumuur":11308,"ĠkarNaa":11309,"ityawe":11310,"keka":11311,"jJNaataa":11312,"odhau":11313,"odhara":11314,"odhanena":11315,"deshama":11316,"Ġparatibu":11317,"Ġparatiwindhya":11318,"Ġsamaahwa":11319,"otpaada":11320,"otsyanti":11321,"otphulla":11322,"shhyatya":11323,"ĠChet":11324,"ĠpaaNDaweshhu":11325,"Ġsawara":11326,"Ġsawapa":11327,"Ġsawabaahu":11328,"Ġlakshhaye":11329,"opash":11330,"opamau":11331,"opawishhTa":11332,"opajiiwa":11333,"opayeme":11334,"orasa":11335,"Ġbaadhate":11336,"okapra":11337,"okayaatraa":11338,"wyaakula":11339,"Ġdewataanaa":11340,"asamaana":11341,"Ġjaate":11342,"ĠwayasR":11343,"Ġwayathita":11344,"Ġsharaugha":11345,"Ġsharawraata":11346,"Ġweshha":11347,"Ġwelaama":11348,"Ġwedeshhu":11349,"darsh":11350,"Ġdaant":11351,"Ġdaasyaami":11352,"baala":11353,"ndhana":11354,"etau":11355,"etasmaata":11356,"likaa":11357,"linii":11358,"ishhTapuurwa":11359,"Ġshaal":11360,"Ġshaala":11361,"Ġshaastaa":11362,"reNaiwa":11363,"Ġaasatura":11364,"ryaasha":11365,"Ġarbu":11366,"Ġanushaa":11367,"Ġanuttamaa":11368,"ĠanushhThitaa":11369,"diipya":11370,"diipta":11371,"diiryate":11372,"Ġkashhay":11373,"Ġkashhayama":11374,"ĠkashhaNena":11375,"Ġsatriyaa":11376,"siitaa":11377,"yaatala":11378,"gupta":11379,"guli":11380,"guptaa":11381,"Ġdurlabha":11382,"raushha":11383,"samaye":11384,"samare":11385,"samabhya":11386,"Nyasha":11387,"rathau":11388,"rathasa":11389,"waishya":11390,"waiduur":11391,"Ġupaja":11392,"Ġupasthite":11393,"itera":11394,"bhuka":11395,"Ġbhawane":11396,"Ġbhawatii":11397,"Ġbhawantama":11398,"odaraa":11399,"ĠkarmaN":11400,"kinii":11401,"tyaasha":11402,"Ġbahush":11403,"Ġbahulaa":11404,"Ġiwaahawe":11405,"itisha":11406,"Ġparamaprii":11407,"sarw":11408,"ĠcheshhTaa":11409,"Ġmanyeta":11410,"Ġmanyura":11411,"okaasa":11412,"Ġkesa":11413,"budhyata":11414,"jeya":11415,"ĠpuurNe":11416,"Ġsatyabhaa":11417,"graahaa":11418,"graahya":11419,"Ġbudhyate":11420,"Ġbudhyase":11421,"Ġahara":11422,"liiyate":11423,"Ġrathai":11424,"ĠChaN":11425,"ĠChanna":11426,"ĠChakra":11427,"Ġdhaatraa":11428,"ochayata":11429,"Ġtariwidha":11430,"Ġtariwarga":11431,"ishhabhaa":11432,"ishhasena":11433,"ĠsarwaaJNa":11434,"Ġbhawishhyata":11435,"yinii":11436,"nasasa":11437,"Ġnirmita":11438,"Ġnirjitya":11439,"anayada":11440,"putrama":11441,"Ġshuunya":11442,"Ġshuurasha":11443,"omakaana":11444,"Ġwidwana":11445,"abhidrawata":11446,"Ġupaaya":11447,"Ġupaadrawana":11448,"Ġrudraa":11449,"Ġannama":11450,"tawatta":11451,"suudanama":11452,"Ġbalawata":11453,"Ġbaladar":11454,"Ġbalawada":11455,"Ġyatawrataa":11456,"Ġyatawratama":11457,"shiighra":11458,"dharmasya":11459,"Ġpaarthasa":11460,"dhwani":11461,"ody":11462,"Ġpareshhitaa":11463,"ĠparekshhamaaNaa":11464,"Ġbhagawanta":11465,"ĠbhagawaaJNa":11466,"dharmaana":11467,"Ġshaktira":11468,"Ġparaapsyanti":11469,"Ġparaapsyasi":11470,"Ġdiikshhaa":11471,"Ġdiikshhita":11472,"ishhyamaaNa":11473,"puurayana":11474,"Ġwayaadha":11475,"Ġwayaapya":11476,"Ġparja":11477,"Ġmahiipaal":11478,"Ġmahiikshhitaama":11479,"Ġshariimaa":11480,"Ġshariirii":11481,"ĠsahasreNa":11482,"Ġpariitama":11483,"ĠpaJNchadhaa":11484,"Ġsuutama":11485,"Ġtiirthaani":11486,"Ġdhanushhi":11487,"Ġawahana":11488,"bhiim":11489,"ishhiNau":11490,"dhipama":11491,"dhipatera":11492,"Ġpashyaa":11493,"Ġchaika":11494,"Ġpaarthiw":11495,"parichCha":11496,"janayata":11497,"janamejaya":11498,"ishhTaasha":11499,"Ġjanakasya":11500,"Ġewaatha":11501,"samaakulama":11502,"anusa":11503,"Ġyuddhashau":11504,"many":11505,"Ġdarawa":11506,"Ġdarawya":11507,"ĠdarashhTa":11508,"otishhaa":11509,"Ġnaraadhama":11510,"raamasya":11511,"myukt":11512,"kshheNa":11513,"Ġsenaama":11514,"mhana":11515,"ogasya":11516,"daanawaa":11517,"daanawaana":11518,"ptaasa":11519,"Ġshiit":11520,"Ġawaapa":11521,"ĠlakshhmaNe":11522,"Ġkashhiira":11523,"patantya":11524,"Ġmaanasaa":11525,"ĠkarNasa":11526,"kaaraNama":11527,"ihamedhi":11528,"lukaa":11529,"Ġwaanar":11530,"khyaataa":11531,"Ġtanayaa":11532,"Ġanartha":11533,"Ġashma":11534,"Ġpushhpaa":11535,"Ġpushhpitaa":11536,"ĠpushhpaaNi":11537,"Ġiishaana":11538,"ĠabhyanujJNaa":11539,"bhauma":11540,"dyaaN":11541,"Ġshatruhana":11542,"Ġtapyate":11543,"mniwR":11544,"Ġwinishh":11545,"Ġwinighna":11546,"ĠwedawedaaN":11547,"Ġwanag":11548,"ishyaa":11549,"hanata":11550,"jJNeya":11551,"Ġatithi":11552,"Ġatiitya":11553,"Ġatithii":11554,"muulaa":11555,"ittasha":11556,"Ġdarshane":11557,"Ġdarshanii":11558,"Ġdarshayana":11559,"Ġpatit":11560,"Ġwishhayaa":11561,"ĠkaarshhNi":11562,"ĠpaaNDusu":11563,"ĠpaaNDuputrasya":11564,"arajun":11565,"Ġmanuje":11566,"dwishha":11567,"dwipaa":11568,"kraante":11569,"Ġshareyasa":11570,"Ġtuurya":11571,"Ġapalaa":11572,"dayanta":11573,"dayanti":11574,"Ġmahaabalai":11575,"Ġchaturwidhama":11576,"Ġsuutaja":11577,"yishhyaamya":11578,"odhaasha":11579,"Ġanyacha":11580,"Ġjiiwasi":11581,"mrambha":11582,"ĠsharmishhThaa":11583,"nayawaara":11584,"Ġsawaahaa":11585,"Ġparaska":11586,"ĠpiiDa":11587,"Ġmaarge":11588,"ichChati":11589,"Ġmaanushhaana":11590,"Ġshakrasa":11591,"Ġshaib":11592,"ĠchitrakuuTa":11593,"warshhabha":11594,"dhiiyate":11595,"iddhau":11596,"Ġbhinnaa":11597,"mjaye":11598,"kashhamaa":11599,"kashhatriy":11600,"atithi":11601,"gamyataa":11602,"naashana":11603,"ijate":11604,"gandhar":11605,"Ġraakshhasasha":11606,"garaha":11607,"ĠdhaartaraashhTraana":11608,"Ġantarama":11609,"Ġantarikshha":11610,"Ġbhuumipaa":11611,"Ġaniisha":11612,"Ġkaruddhau":11613,"Ġkaruddhasa":11614,"Ġnetra":11615,"baraahmaNaana":11616,"saindha":11617,"Ġkushalina":11618,"abhayawartata":11619,"Ġkashhura":11620,"muurtira":11621,"Ġpitarama":11622,"Ġdaiwama":11623,"dattaa":11624,"datswa":11625,"Ġpaawak":11626,"Ġmuutra":11627,"ĠmuuDh":11628,"Ġshubhaani":11629,"yuktasya":11630,"puurwakama":11631,"pramatt":11632,"Ġpadbhyaa":11633,"Ġwayawahaa":11634,"Ġwayawasaaya":11635,"mbhraantaa":11636,"buddhinaa":11637,"barahmahatyaa":11638,"ĠanaadR":11639,"ĠanaadhR":11640,"Ġparwate":11641,"Ġwadasi":11642,"mbuda":11643,"Ġaardayata":11644,"pariitaaN":11645,"wartishhye":11646,"Ġnishhuu":11647,"Ġbaahubhyaa":11648,"owind":11649,"Ġbibhi":11650,"ĠwajrabhR":11651,"Ġsadane":11652,"Ġparatyuwaacheda":11653,"Ġparasawaa":11654,"Ġaachachakshhe":11655,"Ġgamishhyaam":11656,"Ġgamishhyatha":11657,"psaras":11658,"Ġhaastina":11659,"Ġastraira":11660,"garja":11661,"ĠshikhaNDinaa":11662,"Ġwaktra":11663,"Ġwaktraa":11664,"siidati":11665,"Ġwimuchya":11666,"karshhati":11667,"Ġjihma":11668,"Ġpurushhaadhama":11669,"kaushi":11670,"kausheya":11671,"Ġrathii":11672,"Ġraakshhasendr":11673,"Ġaniikeshhu":11674,"bhuushhitaana":11675,"Ġpaarthaanaa":11676,"Ġbharataa":11677,"kirana":11678,"kiraJNa":11679,"Ġuuru":11680,"dawitiiya":11681,"Ġparabhaashha":11682,"Ġagne":11683,"dharmaada":11684,"Ġparayaanta":11685,"ĠshuuraaNaama":11686,"Ġmuhuurtena":11687,"Ġbalima":11688,"Ġpurushharshhabhau":11689,"gnay":11690,"Ġrip":11691,"Ġwimale":11692,"Ġtumul":11693,"Ġnirataa":11694,"ĠkaaJNchanama":11695,"Ġyuktaasa":11696,"raNyama":11697,"bahudhaa":11698,"etaanya":11699,"mbhaashha":11700,"ĠdarauNima":11701,"Ġapaasya":11702,"yuktaani":11703,"Ġbhaarye":11704,"Ġdiirghabaahu":11705,"satyama":11706,"Ġdadaami":11707,"watsala":11708,"Ġtaraatuma":11709,"chChishhTa":11710,"chitrasena":11711,"adhika":11712,"oshhNa":11713,"Ġashwaira":11714,"ĠwipraaNaa":11715,"tatraadbhutama":11716,"Ġwijaye":11717,"Ġparabhayaa":11718,"Ġdawaita":11719,"Ġsamupaadrawata":11720,"Ġindrasya":11721,"ĠmaharshhiNaa":11722,"Ġkathaama":11723,"mchaya":11724,"Ġkailaasa":11725,"Ġmukhai":11726,"Ġawaapnuhi":11727,"Ġlaabhaa":11728,"Ġrajanyaa":11729,"shaineya":11730,"Ġdharmaraajasha":11731,"Ġjugu":11732,"Ġjaanana":11733,"wishaaradaa":11734,"Ġtaraswii":11735,"Ġtaraswina":11736,"Ġapsu":11737,"ĠtawaramaaN":11738,"Ġdhaarayana":11739,"prabhaana":11740,"girasaa":11741,"ĠlakshhaNa":11742,"Ġshaashwataana":11743,"Ġaashramapada":11744,"oNaaniika":11745,"Ġpuriima":11746,"Ġsaagare":11747,"Ġtadwachana":11748,"ĠdaNDakaara":11749,"Ġmahaadyutima":11750,"Ġsheku":11751,"Ġyuyutsu":11752,"nishchayaa":11753,"Ġparashaanta":11754,"ishhera":11755,"Ġwishwaamitra":11756,"obhaana":11757,"sharmaaNa":11758,"Ġudaka":11759,"Ġsukhaani":11760,"Ġbaahlii":11761,"Ġyajante":11762,"Ġwayuuhasya":11763,"Ġetaawada":11764,"Ġhimawaana":11765,"Ġanupraapya":11766,"Ġanupraapt":11767,"omaharshhaNe":11768,"Ġmahiipatima":11769,"ĠmattawaaraNa":11770,"brawiina":11771,"ĠwishhNunaa":11772,"mdadhe":11773,"ĠdaaruNe":11774,"Ġtattwawita":11775,"Ġshaantima":11776,"hartuma":11777,"dhaawati":11778,"ishhTadyumnama":11779,"hshaasanasya":11780,"Ġjagmusa":11781,"Ġsaanukr":11782,"nandya":11783,"Ġyugaantaa":11784,"anyathaa":11785,"anyatra":11786,"Ġturagaa":11787,"Ġdawaarakaa":11788,"Ġmahaawiiryau":11789,"warchasaa":11790,"asamaabhira":11791,"Ġshataanii":11792,"Ġbhajaswa":11793,"Ġdarakshhyase":11794,"baandhawaana":11795,"ihNiita":11796,"ihNiiyaada":11797,"ochitama":11798,"uddaala":11799,"ushhadhi":11800,"Ġtatheti":11801,"mrabdhau":11802,"klishhTaa":11803,"oddhata":11804,"Ġparasaadena":11805,"Ġdhayaatwaa":11806,"Ġdhayaanama":11807,"bhaashhase":11808,"chyutaa":11809,"chyutai":11810,"laaghawama":11811,"dakshhiNai":11812,"kampe":11813,"Ġwahnira":11814,"Ġshayaamaa":11815,"Ġaakhyaahi":11816,"Ġgariiwaa":11817,"Ġsarwabhuutahite":11818,"ishhTaketusha":11819,"Ġdurdharshhaa":11820,"waipaayan":11821,"manyate":11822,"saraswa":11823,"Ġsakanda":11824,"Ġwashagaa":11825,"ĠparaaNin":11826,"Ġbhawishhyatya":11827,"Ġdarupadasya":11828,"bhraatR":11829,"Ġsurendra":11830,"jJNire":11831,"sph":11832,"Ġremire":11833,"Ġamitrahaa":11834,"Ġwaraanane":11835,"Ġwaachy":11836,"paaraga":11837,"Ġjagatii":11838,"Ġchaanagha":11839,"Ġdesheshhu":11840,"mshitawrata":11841,"Ġagrat":11842,"Ġwiwakshhitama":11843,"Ġshachiipate":11844,"Ġniriikshhya":11845,"rthinaa":11846,"Ġanaamaya":11847,"Ġjagatpate":11848,"Ġhawyawaaha":11849,"baahlii":11850,"Ġarjunama":11851,"Ġsatyawikramama":11852,"indriyaaNi":11853,"Ġchatwaar":11854,"ĠdakshhiNaama":11855,"muhuurta":11856,"ĠwaishrawaN":11857,"kuliina":11858,"kuliinaa":11859,"Ġtiryaga":11860,"Ġpaatita":11861,"bhyanujJNaat":11862,"Ġtiiwraa":11863,"Ġtiiwrama":11864,"mhanaadaa":11865,"Ġsapatna":11866,"gaamina":11867,"Ġsuukshhmama":11868,"sahadewasa":11869,"oDasha":11870,"wiwarjitaa":11871,"Ġsharwarii":11872,"chitraaN":11873,"ĠpatriNaa":11874,"Ġpatribhi":11875,"Ġmaur":11876,"Ġramye":11877,"atayartha":11878,"Ġwapushhaa":11879,"Ġdamayantii":11880,"Ġdamayantyaa":11881,"ĠanwichChana":11882,"raajJNasa":11883,"ĠwijJNeya":11884,"Ġmahaawegaira":11885,"jaaniishhe":11886,"ĠlawaNa":11887,"ĠsawarNapuN":11888,"Ġgarasate":11889,"oginaa":11890,"ĠruupeNaa":11891,"shhuupa":11892,"Ġparabruuhi":11893,"Ġuchchaira":11894,"gaaNDiiwa":11895,"Ġbhaawitaatmanaama":11896,"ĠChiighra":11897,"Ġkaurawendra":11898,"Ġatandrita":11899,"Ġmariyate":11900,"yugaante":11901,"Ġsaantwaya":11902,"bhuuyishhTha":11903,"ĠlalaaTe":11904,"Ġbhiimaparaakramama":11905,"Ġkaushika":11906,"Ġaniwartinaama":11907,"Ġwigatajwara":11908,"Ġwigatajwaraa":11909,"Ġtaretaa":11910,"Ġrakshhitu":11911,"Ġsarwasainyasya":11912,"bhiimasenama":11913,"Ġshawetawaahana":11914,"ĠsutiikshhNena":11915,"ĠpuNDariikaakshha":11916,"wasisTha":11917,"Ġmatimataa":11918,"Ġwikattha":11919,"sukumaarii":11920,"Ġweshmaani":11921,"Ġiwaamaraa":11922,"puurwyeNa":11923,"kaNTakama":11924,"maadriiputrau":11925,"Ġwihwala":11926,"Ġshatrawa":11927,"Ġnartanaagaa":11928,"Ġbhaimii":11929,"Ġdhanwii":11930,"Ġsarwaraajasu":11931,"Ġwedituma":11932,"Ġshiliimukhai":11933,"Ġshatrutaapana":11934,"Ġwidarbhaa":11935,"Ġyamunaa":11936,"Ġmishra":11937,"Ġsarwadhanushhmataama":11938,"Ġwedmi":11939,"ĠnaranaaraayaNaawa":11940,"Ġajihmagai":11941,"jiratha":11942,"Ġakalpayata":11943,"Ġutaah":11944,"itaaJNjalira":11945,"Ġtaarkshhya":11946,"Ġpariklesha":11947,"ishhaparwaNa":11948,"Ġdasharathaatmaja":11949,"Ġgandhamaadanama":11950,"Ġpayaswiniima":11951,"Ġachetanama":11952,"Ġwawande":11953,"Ġsaahaayya":11954,"Ġupajiiwanti":11955,"Ġdiiwyaamya":11956,"Ġnishchitya":11957,"Ġanaagasama":11958,"Ġbibharti":11959,"Ġparabhadrakaa":11960,"shlaag":11961,"ĠnaishhThi":11962,"ĠaabharaNaani":11963,"Dhyaa":11964,"atama":11965,"athe":11966,"asmi":11967,"anir":11968,"awishha":11969,"adharmeNa":11970,"aindra":11971,"ashhTaawa":11972,"bda":11973,"bdhu":11974,"bdhama":11975,"dwaara":11976,"dishhTama":11977,"gn":11978,"gmi":11979,"gnii":11980,"hstha":11981,"iD":11982,"imau":11983,"idbhira":11984,"idewaa":11985,"indaa":11986,"ijeta":11987,"jjaa":11988,"jura":11989,"ktu":11990,"lmii":11991,"lbi":11992,"mr":11993,"mwaa":11994,"mjaa":11995,"mkshha":11996,"mtraa":11997,"myena":11998,"mbala":11999,"mkaar":12000,"mghaana":12001,"mghu":12002,"mkule":12003,"mnyasya":12004,"mjiiwa":12005,"mkulama":12006,"mkiirNaa":12007,"mChaa":12008,"mjwa":12009,"oy":12010,"oshhTa":12011,"obala":12012,"oshhThaa":12013,"okshhyaami":12014,"ojaanaa":12015,"oshaada":12016,"rdra":12017,"rddhi":12018,"sk":12019,"sru":12020,"swar":12021,"stau":12022,"sewate":12023,"tsawa":12024,"ul":12025,"upata":12026,"uchcha":12027,"aasana":12028,"aashrama":12029,"aadityaa":12030,"haya":12031,"hada":12032,"tarya":12033,"taisa":12034,"taruNaa":12035,"masa":12036,"mataama":12037,"manda":12038,"rabha":12039,"rakshhi":12040,"radau":12041,"rajasa":12042,"yasi":12043,"yatre":12044,"shy":12045,"shwinau":12046,"wash":12047,"walaa":12048,"warata":12049,"wadhe":12050,"wastha":12051,"sad":12052,"sacha":12053,"saka":12054,"sasya":12055,"sanaata":12056,"sadaiwa":12057,"nay":12058,"nanta":12059,"nakshha":12060,"narda":12061,"patii":12062,"pathe":12063,"padasha":12064,"panne":12065,"haaraira":12066,"hiNe":12067,"hitaama":12068,"hitaani":12069,"Ġsahe":12070,"Ġsapra":12071,"Ġsanna":12072,"Ġsapha":12073,"Ġsamuu":12074,"Ġsashara":12075,"Ġsalakshhma":12076,"Ġsadbhi":12077,"Ġsakhya":12078,"Ġsasuuta":12079,"raat":12080,"raabhyaa":12081,"dayu":12082,"dadarshaa":12083,"shaku":12084,"shayaana":12085,"sharad":12086,"shakuni":12087,"waapa":12088,"waani":12089,"waagni":12090,"waaditra":12091,"shhuuna":12092,"win":12093,"wiwR":12094,"wipu":12095,"wiwya":12096,"widyu":12097,"widdhwaa":12098,"winaawa":12099,"wikraanta":12100,"wiraaT":12101,"wishuddhaatmaa":12102,"Ġkhaada":12103,"Ġtaisha":12104,"Ġtaweda":12105,"Ġtarka":12106,"ĠpareNa":12107,"Ġpachya":12108,"taaD":12109,"taaJNa":12110,"Ġchau":12111,"Ġchaitya":12112,"Ġchaite":12113,"Ġchakrama":12114,"ĠcharaNaa":12115,"Ġchandana":12116,"tikrama":12117,"Ġante":12118,"Ġarthama":12119,"Ġasukha":12120,"Ġasuraa":12121,"Ġambaa":12122,"Ġabhuuda":12123,"Ġachala":12124,"Ġasaadhu":12125,"maacha":12126,"maala":12127,"naara":12128,"naamaa":12129,"naaka":12130,"naarad":12131,"naadena":12132,"tetya":12133,"jai":12134,"niiwa":12135,"nigR":12136,"nibhe":12137,"nishamya":12138,"nibhaana":12139,"Ġmam":12140,"Ġmasha":12141,"Ġmala":12142,"Ġmali":12143,"Ġmadre":12144,"gal":12145,"gawa":12146,"galama":12147,"galya":12148,"garaama":12149,"gateshhu":12150,"gandhii":12151,"iishha":12152,"shhaN":12153,"shhaka":12154,"Ġwij":12155,"Ġwitra":12156,"ĠwihR":12157,"Ġwittama":12158,"Ġwimaanaa":12159,"Ġwishhwa":12160,"Ġwishra":12161,"Ġwipari":12162,"Ġwijitaa":12163,"Ġwimukha":12164,"Ġwimaanama":12165,"Ġwijitya":12166,"karuu":12167,"kaisha":12168,"kali":12169,"kashi":12170,"karaNa":12171,"kakshhyaa":12172,"Ġwaita":12173,"Ġwase":12174,"Ġwanda":12175,"Ġwarau":12176,"Ġwasawa":12177,"Ġwakshhasi":12178,"Ġparad":12179,"Ġparaw":12180,"Ġparala":12181,"Ġparashu":12182,"Ġparahas":12183,"Ġparasawa":12184,"Ġparashama":12185,"Ġparapannaa":12186,"Ġparashrita":12187,"Ġparashna":12188,"Ġparasthit":12189,"Ġkana":12190,"Ġkakshha":12191,"Ġkasmaata":12192,"Ġkanyaama":12193,"Ġsewa":12194,"shhTra":12195,"riN":12196,"riyate":12197,"dhasha":12198,"ruddh":12199,"Ġshamii":12200,"ĠsharaaNaa":12201,"Ġsharitaa":12202,"ĠshastreNa":12203,"Ġshayyaa":12204,"Naanya":12205,"ĠnashhTaa":12206,"Ġnady":12207,"Ġraajii":12208,"ĠraajJNi":12209,"Ġraatryaa":12210,"itasyaa":12211,"itaswa":12212,"itaprati":12213,"yushh":12214,"yutaa":12215,"itrama":12216,"Ġaaru":12217,"Ġaayata":12218,"Ġaasthi":12219,"Ġaawra":12220,"Ġaananda":12221,"Ġaadita":12222,"Ġaadhaaya":12223,"Ġaagate":12224,"Ġaanar":12225,"Ġaahuuya":12226,"Ġaacharana":12227,"Ġaaraadha":12228,"Ġyatha":12229,"Ġyakshh":12230,"Ġyawii":12231,"Ġyasmi":12232,"Ġyatre":12233,"Ġyayura":12234,"trasya":12235,"yeyu":12236,"yeshhaama":12237,"dhyaana":12238,"wedii":12239,"Ġdanda":12240,"Ġdadhii":12241,"ĠichCheda":12242,"daaraa":12243,"daacha":12244,"daanta":12245,"Ġmahaanta":12246,"Ġmahaayasha":12247,"Ġmahaaraaj":12248,"Ġmahaabuddhi":12249,"Ġmahaarathe":12250,"Ġmahaaswanama":12251,"Ġmahaayuddhe":12252,"Ġmahaaraudra":12253,"Ġbhay":12254,"Ġbhawama":12255,"Ġbhakshhitaa":12256,"Ġbhagnaa":12257,"Ġmish":12258,"kaare":12259,"kaarii":12260,"kaamama":12261,"kaariNama":12262,"bhaN":12263,"bhaw":12264,"bharama":12265,"bhawanta":12266,"bhagada":12267,"bhaweta":12268,"Ġniyukta":12269,"Ġnigada":12270,"Ġnijaghaana":12271,"ewamaa":12272,"Ġun":12273,"Ġuddh":12274,"Ġuwaasa":12275,"jaasa":12276,"jaalaira":12277,"Ġshita":12278,"Ġshitaa":12279,"Ġshiwama":12280,"Ġpaapii":12281,"Ġpaataala":12282,"Ġwaaritaa":12283,"ĠwaaruNaa":12284,"Ġwaaraaha":12285,"saar":12286,"saartha":12287,"saadi":12288,"Ġbahi":12289,"ĠbarhiNa":12290,"Ġsarpaa":12291,"paaye":12292,"paadaa":12293,"paatrii":12294,"paaniiya":12295,"hiin":12296,"nuda":12297,"nugama":12298,"nugata":12299,"nunnaa":12300,"nushishhT":12301,"nupuurwyeNa":12302,"heti":12303,"Ġtawatsa":12304,"dhit":12305,"dhikaa":12306,"dhigachChati":12307,"Ġsuk":12308,"Ġsushhu":12309,"ĠsudR":12310,"Ġsuptaa":12311,"Ġsuchira":12312,"ĠsusatkR":12313,"Ġsumitraa":12314,"Ġsupuujitaa":12315,"Ġdhama":12316,"ntawyama":12317,"Ġgala":12318,"Ġgajaana":12319,"Ġgamyataa":12320,"Ġjawaa":12321,"ĠjahR":12322,"Ġjambu":12323,"Ġhatasa":12324,"Ġharada":12325,"Ġhalaha":12326,"Ġrakshhita":12327,"dhaada":12328,"dhaati":12329,"dhaawada":12330,"Ġchaadya":12331,"Ġchaasti":12332,"ĠchaanR":12333,"Ġchaatmana":12334,"Ġchaabruwana":12335,"Ġchaasiita":12336,"Ġchaastu":12337,"Ġchaapaani":12338,"ĠchaaturwarNya":12339,"Ġmaahi":12340,"Ġmaanama":12341,"Ġmaayaama":12342,"Ġmaase":12343,"ĠmaadR":12344,"Ġmaadra":12345,"Ġmaatre":12346,"ĠmaatreNa":12347,"kshhasya":12348,"riikaa":12349,"ishhTw":12350,"ishhThaa":12351,"kshhuu":12352,"kshhNama":12353,"ney":12354,"neyama":12355,"Ġnaaya":12356,"Ġnaana":12357,"Ġnaartha":12358,"Ġnaapya":12359,"Ġnaawama":12360,"ĠnaamR":12361,"Ġnaagama":12362,"wardhi":12363,"warshhata":12364,"warNaira":12365,"itaayaa":12366,"itaanta":12367,"itaatmabhi":12368,"Ġkaantaa":12369,"Ġkaamaada":12370,"laada":12371,"laala":12372,"laabhe":12373,"baddhaa":12374,"bandhaa":12375,"Ġeteshhu":12376,"Ġkunti":12377,"namasa":12378,"shhukra":12379,"Ġyugama":12380,"Ġparaabhawa":12381,"Ġparaakr":12382,"Ġparaadura":12383,"Ġparaadaata":12384,"Ġparaagjy":12385,"suma":12386,"supta":12387,"sugrii":12388,"suraasha":12389,"Ġsarway":12390,"Ġsarwaisha":12391,"ĠsarwawarNaanaa":12392,"shaanaa":12393,"pure":12394,"pushhTa":12395,"siddhi":12396,"ndraana":12397,"Ġtaasha":12398,"bhaawe":12399,"bhaaradwaa":12400,"bhaawaaya":12401,"Ġsamash":12402,"Ġsamakshha":12403,"Ġsamanwita":12404,"Ġsamanwitaa":12405,"Ġsamanwitama":12406,"Ġsamarpayata":12407,"prach":12408,"pradakshhiNama":12409,"Ġhimaa":12410,"gaaw":12411,"gaacha":12412,"gaarama":12413,"Ġsaahya":12414,"Ġsaakshhii":12415,"nyasha":12416,"ishhye":12417,"ishhyaami":12418,"mene":12419,"meyama":12420,"Ġraajadhaanii":12421,"ruuNi":12422,"mshada":12423,"tiirthe":12424,"niiyaa":12425,"niiyama":12426,"Ġewaika":12427,"Ġbhaawe":12428,"Ġbhaagama":12429,"Ġbhaawaya":12430,"shyanti":12431,"rthasa":12432,"Ġparim":12433,"Ġparit":12434,"Ġpariye":12435,"Ġparikshhi":12436,"ĠparipaprachCha":12437,"Ġparimuchyate":12438,"NDawe":12439,"Ġwaidya":12440,"Ġwaishwa":12441,"msasa":12442,"msant":12443,"syaaha":12444,"syaati":12445,"syaanta":12446,"khadundubhi":12447,"chittaa":12448,"myachCha":12449,"myataama":12450,"myattaa":12451,"kuNDalama":12452,"kuntibh":12453,"parai":12454,"paradyu":12455,"parasiida":12456,"parasanna":12457,"bhuumira":12458,"Ġbhuuyasha":12459,"ĠbhuushhaNa":12460,"chChata":12461,"chaareNa":12462,"dig":12463,"diwaa":12464,"dishhu":12465,"didR":12466,"Ġmudit":12467,"ghn":12468,"ghnama":12469,"wyakta":12470,"Ġdharmani":12471,"Ġdharmase":12472,"keta":12473,"kenaa":12474,"kekayaa":12475,"Ġkilaa":12476,"Ġjiir":12477,"odhata":12478,"odhayana":12479,"dehi":12480,"denaa":12481,"deshaa":12482,"dewii":12483,"Ġparatibhaa":12484,"Ġparatikuu":12485,"Ġparatipaada":12486,"ĠparatijJNaata":12487,"Ġdesh":12488,"Ġdehe":12489,"Ġsamaal":12490,"Ġsamaasa":12491,"Ġsamaadaaya":12492,"Ġsamaajagmu":12493,"Ġsamaagame":12494,"Ġsamaashwaasya":12495,"otsyati":12496,"ghane":12497,"Ġsawadhaa":12498,"Ġsawashi":12499,"ĠsawagR":12500,"Ġyaawa":12501,"Ġyaami":12502,"Ġyaachya":12503,"Ġyaasyanti":12504,"opata":12505,"oraNa":12506,"orayitwaa":12507,"ĠbaaDhama":12508,"okasha":12509,"okapari":12510,"okapuujita":12511,"Ġdewau":12512,"Ġdewakii":12513,"Ġdewaraajasya":12514,"Ġdewarshhayasha":12515,"asayaa":12516,"Ġjaataya":12517,"Ġwayasaa":12518,"Ġwayatii":12519,"Ġwayathitaa":12520,"ĠwayatishhThanta":12521,"Ġwayawardhata":12522,"Ġwayathate":12523,"Ġsharasa":12524,"ĠsharaNaa":12525,"ĠsharaNama":12526,"Ġsharajaalena":12527,"shuk":12528,"shushraawa":12529,"Ġdaatuma":12530,"Ġdaayaada":12531,"Ġdaataara":12532,"baahuu":12533,"ndata":12534,"karNena":12535,"kartaara":12536,"shhecha":12537,"Ġmahatta":12538,"Ġtatpara":12539,"etaira":12540,"lihana":12541,"ishhTai":12542,"ishhTar":12543,"ishhTau":12544,"ishhTaruupa":12545,"Ġshaata":12546,"Ġasuu":12547,"ĠaspR":12548,"dhyanta":12549,"dhyakshhaa":12550,"Ġarchi":12551,"Ġarthena":12552,"Ġarthaaya":12553,"Ġarghya":12554,"Ġguh":12555,"Ġanupa":12556,"ĠanupR":12557,"Ġanuwrataa":12558,"Ġabhishhi":12559,"Ġabhimukhaa":12560,"Ġabhikruddha":12561,"diipa":12562,"Ġkashhapaa":12563,"Ġkashharama":12564,"ĠkashhaNama":12565,"Ġkashhatta":12566,"Ġkashhatrama":12567,"Ġkashhamayaa":12568,"Ġkashhapeta":12569,"Ġkashhantuma":12570,"Ġsatkaara":12571,"siima":12572,"Ġtawaanu":12573,"Ġhayaira":12574,"hastama":12575,"Ġdawipaa":12576,"Ġdawirada":12577,"Ġmamaiwa":12578,"Niiha":12579,"riyante":12580,"Ġputrawata":12581,"ĠputragR":12582,"Ġputrashata":12583,"ĠpaarshhNi":12584,"Ġkurupitaamaha":12585,"Ġwachane":12586,"Ġbhiimawikrama":12587,"guNaana":12588,"Ġbarahmay":12589,"Ġbarahmachaarii":12590,"Ġdiw":12591,"Ġdilii":12592,"Ġdurbalaa":12593,"shiwaa":12594,"shishha":12595,"shire":12596,"samartha":12597,"smaara":12598,"Ġwiiraasa":12599,"bhuga":12600,"Ġbhawatyaa":12601,"Ġbhawatwa":12602,"odaye":12603,"odarya":12604,"odarau":12605,"odadhima":12606,"ĠkarmaNaama":12607,"dewarshhi":12608,"dewataanaa":12609,"kirii":12610,"wadanaa":12611,"hitasa":12612,"Ġbahusha":12613,"Ġbahubhisa":12614,"Ġiwaar":12615,"Ġiwaakshh":12616,"iNwata":12617,"iNwana":12618,"tenaiwa":12619,"Ġparamama":12620,"Ġparamakru":12621,"sarga":12622,"Ġchemaa":12623,"Ġchetasa":12624,"Ġbharatarshhabhaa":12625,"Ġkathayaama":12626,"Ġkathayishhyaami":12627,"praaNa":12628,"praaNaa":12629,"okaata":12630,"okaabhisa":12631,"straira":12632,"strawita":12633,"Ġsamuda":12634,"buddhii":12635,"Ġjiimuu":12636,"Ġjiiweta":12637,"Ġahani":12638,"liima":12639,"Ġrathanii":12640,"Ġrathanirgh":12641,"graira":12642,"ĠCharaa":12643,"ĠChariira":12644,"ĠCharey":12645,"Ġdhaama":12646,"Ġdhaawa":12647,"ochaye":12648,"ochane":12649,"Ġtapantama":12650,"Ġyenaa":12651,"Ġtaridashe":12652,"tarasa":12653,"yinama":12654,"Ġbaraahmama":12655,"sthaani":12656,"nasak":12657,"darshanai":12658,"Ġnirjagaama":12659,"Ġnirmuktaa":12660,"ĠnirguN":12661,"putrasha":12662,"Ġshuure":12663,"Ġshuunyaa":12664,"Ġshuurau":12665,"Ġshuurai":12666,"Ġshuunye":12667,"Ġshuunyama":12668,"ĠpuraaNama":12669,"wartamaane":12670,"isahasraaNi":12671,"omasa":12672,"omashha":12673,"omawaahi":12674,"yathaarha":12675,"Ġwidyaata":12676,"Ġmahaatmani":12677,"abhipraa":12678,"Ġruchi":12679,"suuda":12680,"suukshhma":12681,"Ġbalasya":12682,"Ġbalawattarama":12683,"shiirshha":12684,"dharmaraaja":12685,"chChaasha":12686,"barah":12687,"jida":12688,"puurwyaa":12689,"Ġsathir":12690,"Ġkhar":12691,"Ġpashyat":12692,"yuuya":12693,"oditama":12694,"oddesha":12695,"Ġpareshhu":12696,"ĠparemNaa":12697,"abhayaa":12698,"bhedya":12699,"tapasa":12700,"Ġdiin":12701,"Ġdiiyataama":12702,"ishhyasi":12703,"Ġwayaala":12704,"ĠwayaayachCha":12705,"Ġwayaajahaara":12706,"Ġmahiipaalaa":12707,"Ġtamasha":12708,"Ġshariireshhu":12709,"Ġsahasre":12710,"Ġutpanna":12711,"Ġpariitasa":12712,"shrayama":12713,"shraddhaa":12714,"pashyanti":12715,"yadartha":12716,"Ġpitaamahaa":12717,"ishhibhira":12718,"ishhiNaama":12719,"Ġpashyeya":12720,"Ġchainaa":12721,"rasta":12722,"ĠdashawarshhaaNi":12723,"Ġparajaasa":12724,"nirwR":12725,"Ġjanasya":12726,"Ġpuurayaama":12727,"ĠpaaNDawaasha":12728,"samaapta":12729,"samaakulaa":12730,"anujaaniihi":12731,"ĠwishishhTaa":12732,"Ġsadaara":12733,"otisha":12734,"otishha":12735,"rathaashwa":12736,"stambha":12737,"maaNau":12738,"yauwana":12739,"Ġmaheshwarama":12740,"Ġwaakyaira":12741,"mprawakshhyaami":12742,"ĠraawaNi":12743,"ĠraawaNe":12744,"Ġsetu":12745,"Ġkaamasha":12746,"ĠkaamawR":12747,"sarwal":12748,"sarwatra":12749,"sarwapaapa":12750,"itaraashhTraaya":12751,"kiirN":12752,"Ġawaapya":12753,"Ġraaghawasa":12754,"mbhasaa":12755,"Ġjanaardanama":12756,"Ġpib":12757,"Ġsukhasya":12758,"syeshhu":12759,"ihanna":12760,"piiha":12761,"ĠwaanaraaNaa":12762,"Ġwaanaraira":12763,"Ġdharmaatmana":12764,"jiiwitaa":12765,"jiiwina":12766,"Ġyashasha":12767,"ĠgachChata":12768,"ĠgachChatya":12769,"archi":12770,"Ġshatay":12771,"Ġshatadhaa":12772,"Ġshatashasa":12773,"apatya":12774,"dhaanasya":12775,"Ġiisha":12776,"Ġiishwar":12777,"Ġabhyagaata":12778,"Ġabhyadhaawata":12779,"Ġshatrusuudana":12780,"Ġshatrunibarha":12781,"Ġtaptwaa":12782,"mnibhaa":12783,"mniwaarya":12784,"Ġdhiimate":12785,"Ġwartase":12786,"Ġwartamaanasya":12787,"awaplutya":12788,"Ġwiniwarta":12789,"ĠichChataama":12790,"ĠjaJNaanena":12791,"ishy":12792,"chera":12793,"chedi":12794,"obham":12795,"muulama":12796,"Ġbaruuyaasa":12797,"Ġharima":12798,"Ġhariyuuthapaa":12799,"iNushhwa":12800,"Ġwipraira":12801,"Ġgatacheta":12802,"nwitaana":12803,"oktama":12804,"oktuma":12805,"Ġwishhameshhu":12806,"Ġekata":12807,"Ġekasa":12808,"ojane":12809,"ojayata":12810,"Ġkaunteyaa":12811,"araNya":12812,"araNye":12813,"Ġwiiryasa":12814,"kshhubhe":12815,"oshasa":12816,"Ġparamaadaata":12817,"Ġjayatsena":12818,"shruti":12819,"Ġtasyaasa":12820,"ĠtishhThasi":12821,"jamada":12822,"bhawatya":12823,"msaara":12824,"msaana":12825,"odhaanaama":12826,"paty":12827,"Ġsharwar":12828,"Ġbhuutabhawya":12829,"tyugra":12830,"nayaweda":12831,"Ġsawaami":12832,"Ġsawaadhyaaya":12833,"Ġsawaayambhu":12834,"raajyama":12835,"Ġmatprasaa":12836,"Ġraaghawau":12837,"uparya":12838,"upagamya":12839,"putraaya":12840,"putraana":12841,"putraaNaa":12842,"Ġshailaana":12843,"dhiiyataama":12844,"Ġsenaayaa":12845,"iddhasha":12846,"Ġshabdaa":12847,"ijati":12848,"Ġraakshhasai":12849,"Ġraakshhasapu":12850,"Ġsamiipama":12851,"ĠChidra":12852,"ĠdhaartaraashhTreNa":12853,"Ġbhuumidama":12854,"pnuyaata":12855,"Ġanil":12856,"Ġkaruddhama":12857,"balaaha":12858,"taawakaanaa":12859,"baraahmaNe":12860,"sainyama":12861,"Ġmuurkha":12862,"ĠmuurChita":12863,"muurdh":12864,"Ġpitari":12865,"Ġdaiwataani":12866,"kaaryeshhu":12867,"mwignaa":12868,"tarishhu":12869,"Ġpaawakaa":12870,"Ġmuulama":12871,"bhiishhmeNa":12872,"Ġpadmanaa":12873,"ĠshareshhThau":12874,"jaanaasi":12875,"Ġparaaptakaalama":12876,"wiiryasa":12877,"Ġwayawasthitaa":12878,"Ġwayawasita":12879,"mbhena":12880,"onijaa":12881,"Ġsaptabhira":12882,"mbe":12883,"Ġamanyanta":12884,"Ġagnih":12885,"Ġyuktasa":12886,"mtapt":12887,"barahmal":12888,"barahmaNaa":12889,"ĠparwaNi":12890,"Ġparwataana":12891,"ogaanaa":12892,"ĠtarayaaNaa":12893,"kaalat":12894,"paratilabhya":12895,"raakshhasau":12896,"Ġmahaabhaage":12897,"Ġwaidehi":12898,"Ġpaulastya":12899,"hkhaana":12900,"Ġduutaa":12901,"Ġparashasyate":12902,"Ġnishaacharaa":12903,"Ġsametaa":12904,"Ġyashaswinaa":12905,"Ġcharasi":12906,"Ġnaanaawidha":12907,"Ġmamaadya":12908,"Ġnishhka":12909,"Ġudaara":12910,"Ġchintaya":12911,"Ġwaasudewadhana":12912,"ndhra":12913,"padaati":12914,"Ġbibh":12915,"Ġbibhra":12916,"Ġbibheda":12917,"ĠwarshhasahasraaNi":12918,"lakshhaye":12919,"Ġshirasa":12920,"Ġshirasha":12921,"Ġshirasi":12922,"Ġsaadhushhu":12923,"Ġpatayasa":12924,"Ġwinaashaa":12925,"ĠwinaakR":12926,"ĠaachashhTa":12927,"Ġaacharita":12928,"psara":12929,"Ġuttarama":12930,"ĠuttamaaN":12931,"Ġwichinta":12932,"Ġwichinwa":12933,"Ġaatmanasha":12934,"Ġmahaabaahuma":12935,"Ġmahaabaahusa":12936,"Ġkeshawasya":12937,"Ġwisheshh":12938,"ĠkalyaaNama":12939,"Ġbhartraa":12940,"Ġwaasasa":12941,"Ġwaasawaa":12942,"Ġnareshwara":12943,"bind":12944,"dawidhaa":12945,"maanitaa":12946,"Ġmitraa":12947,"Ġwaanarapu":12948,"Ġwaanararshhabhaa":12949,"osalaa":12950,"oshhaata":12951,"oshhaada":12952,"shabd":12953,"shabdama":12954,"Ġparabhaama":12955,"Ġparabhaate":12956,"Ġparabhaawena":12957,"Ġniicha":12958,"Ġsahitasa":12959,"Ġdiirghaa":12960,"piiDitama":12961,"dityasa":12962,"paaJNchaalya":12963,"pitara":12964,"pashchaa":12965,"kalpai":12966,"chintayata":12967,"obhitaa":12968,"obhitaama":12969,"matsyaa":12970,"matsena":12971,"Ġkashhatriyarshhabha":12972,"chakramu":12973,"waasinama":12974,"Ġsuraasura":12975,"mukhyaana":12976,"Ġjaataweda":12977,"Ġwadhyamaana":12978,"okyawi":12979,"Ġnirartha":12980,"Ġgarahaa":12981,"Ġpuujayaa":12982,"Ġkaakutsth":12983,"kushalaa":12984,"Ġdiirghadarshii":12985,"mahendra":12986,"kaamaartha":12987,"Ġjalad":12988,"sukhadu":12989,"Ġgaandhaara":12990,"Ġbhujag":12991,"ĠguNaasa":12992,"ĠchaarusarwaaN":12993,"Ġbhuutaatmaa":12994,"iddhina":12995,"Ġwijah":12996,"Ġmaniishhii":12997,"Ġkashhiir":12998,"ĠkashhiiNaa":12999,"Ġindrajita":13000,"Ġjitakr":13001,"dhanushh":13002,"bhyupa":13003,"Ġsattwasa":13004,"Ġawaapnute":13005,"ishaate":13006,"ĠlaaN":13007,"sawaadhyaaya":13008,"Ġbhalla":13009,"Ġbhallai":13010,"Ġtapaswiniima":13011,"suuryau":13012,"Ġchakshhur":13013,"Ġshawashruu":13014,"Ġsugriiwasya":13015,"paurushha":13016,"Ġdharmaraajama":13017,"Ġdiwaakarama":13018,"Ġdiwaakare":13019,"maataN":13020,"bharaatura":13021,"Ġtawarayaa":13022,"arajunasha":13023,"Ġachyutama":13024,"Ġwaajin":13025,"suraasura":13026,"muktaira":13027,"kraamana":13028,"kraamati":13029,"Ġnaaradasya":13030,"Ġshaashwat":13031,"ĠkhaDgaa":13032,"Ġnishchayaa":13033,"Ġhariina":13034,"Ġparaayashchi":13035,"Ġjetuma":13036,"Ġshiighraa":13037,"mkaash":13038,"aarjuni":13039,"Ġtayaagii":13040,"ĠkaaraNaira":13041,"ĠkuJNjarama":13042,"ĠgaaNDiiwama":13043,"Ġanwayu":13044,"ĠChinnadhanwaana":13045,"Ġkiirtita":13046,"yudhyanta":13047,"ĠpuNye":13048,"iJNjayaasha":13049,"iJNjayaanaa":13050,"Ġmadwacha":13051,"tmajaama":13052,"atraiwa":13053,"Ġnaagaanaa":13054,"Ġyajaswa":13055,"Ġjawalanta":13056,"Ġjitendriyaa":13057,"ĠwiraaTasha":13058,"Ġraadhey":13059,"Ġnaanyada":13060,"Ġanupraapta":13061,"Ġwarajanti":13062,"mghasha":13063,"Dhy":13064,"dishata":13065,"itawarmaaNama":13066,"Ġyauwa":13067,"ĠyaudhishhThi":13068,"Ġsumahacha":13069,"Ġkumbhay":13070,"ĠkumbhakarNa":13071,"ĠkumbhakarNasya":13072,"okshhyati":13073,"hartu":13074,"Ġsharuuyataa":13075,"Ġraatrira":13076,"kurwanti":13077,"Ġsathawir":13078,"Ġbaandhawama":13079,"Ġshaasanama":13080,"nandi":13081,"Ġdharmaraajena":13082,"Ġpetu":13083,"Ġniweshya":13084,"Ġmahiitalama":13085,"omaayu":13086,"warchasama":13087,"Ġyudhaaman":13088,"Chinnaa":13089,"Ġshataanya":13090,"Ġshataaniika":13091,"Ġdarakshhyatha":13092,"itsnasya":13093,"Ġpurushhawyaaghr":13094,"Ġpurushhawyaaghraa":13095,"Ġparajaapatima":13096,"Ġdadyaata":13097,"ĠparaaJNjalaya":13098,"ĠmanushhyeNa":13099,"Ġshakunisha":13100,"oddhawya":13101,"Ġwismay":13102,"Ġchaanyata":13103,"Ġchaanyada":13104,"Ġkaalaantaka":13105,"babhuuwura":13106,"bhaashhanta":13107,"Ġjaaniite":13108,"ĠbaruwaaNaa":13109,"Ġadhwaana":13110,"gajawaaji":13111,"Ġniyamaa":13112,"Ġkurawasa":13113,"ruupiNa":13114,"jitendriya":13115,"Ġshayaam":13116,"tattwajJNa":13117,"tattwawita":13118,"ishhTaketu":13119,"Ġsaraswatiima":13120,"dadaati":13121,"wibhuushhitaa":13122,"Ġaapnuhi":13123,"Ġaapnuwanti":13124,"Ġsaakshhaata":13125,"Ġlebhire":13126,"Ġdiiptima":13127,"ajayata":13128,"Ġpushhkare":13129,"Ġcharishhyaami":13130,"kaNThaa":13131,"ĠyajJNeshhu":13132,"Ġtawadanya":13133,"bahuuni":13134,"hastawata":13135,"Ġmanaswinii":13136,"ĠpaTTisha":13137,"Ġparameshwara":13138,"Ġhanmi":13139,"Ġbaalye":13140,"Ġbaalyaata":13141,"Ġsaindhawasya":13142,"ĠwicheshhTitama":13143,"Ġkurukshhetre":13144,"Ġsaubalasya":13145,"ohiNii":13146,"wishwaamitra":13147,"naaradasya":13148,"ĠharshheNa":13149,"ĠkaaraNaata":13150,"damayantii":13151,"Ġdurgatima":13152,"Ġnarawyaaghr":13153,"indriyaaNaa":13154,"Ġchatwaara":13155,"dhaartaraashhTrasya":13156,"kshhamaaNasa":13157,"Ġsamanupraa":13158,"Ġupalabhyate":13159,"anyeshhaa":13160,"wajra":13161,"Ġpataakaabhira":13162,"Ġparabhawati":13163,"Ġnabhasta":13164,"Ġmaagadhaa":13165,"bhyanujJNaata":13166,"Ġsawapne":13167,"Ġsamuddishya":13168,"Ġparasparawadha":13169,"Ġruup":13170,"wiraaTadrupadau":13171,"Ġaachaary":13172,"Ġbhayaarditaa":13173,"Ġdhaumya":13174,"Ġyushhmaaka":13175,"ĠbaraahmaNebhya":13176,"ĠraawaNaanta":13177,"ihNaati":13178,"ihNaatu":13179,"atyanta":13180,"paurajaanapadaa":13181,"Ġsayandana":13182,"Ġchayawate":13183,"ĠkareN":13184,"ĠaajJNaapaya":13185,"Ġdayutimaana":13186,"Ġbhairawaana":13187,"Ġnishhadhaa":13188,"mukhyaanaa":13189,"Ġsaawitryaa":13190,"mshaptakaana":13191,"Ġparipaalaya":13192,"Ġdehina":13193,"ĠChuula":13194,"Ġsawakarmabhi":13195,"Ġshushruwe":13196,"guuDha":13197,"Ġadyaapi":13198,"ĠichCheta":13199,"Ġjagaamaashu":13200,"Ġrasaatalama":13201,"Ġmaahaatmyama":13202,"kshhatrasya":13203,"Ġkartawyaa":13204,"Ġwayasanama":13205,"Ġiipsita":13206,"Ġparawishanti":13207,"Ġgirera":13208,"ĠmaNDala":13209,"Ġwidhawaa":13210,"Ġiwaanala":13211,"Ġiwaanalama":13212,"saadhanama":13213,"Ġsathuula":13214,"piiDayata":13215,"ithagwidhaa":13216,"Ġadhyaatmama":13217,"ashwaanaa":13218,"Ġwasuunaa":13219,"Ġdaityaanaa":13220,"odwignaa":13221,"Ġjanakaatmajaama":13222,"Ġshilaashitaana":13223,"mtushhTaa":13224,"mwart":13225,"sametya":13226,"hiraNyagarbh":13227,"Ġaishwarya":13228,"Ġaishwaryama":13229,"ĠyadwR":13230,"Ġmahaamati":13231,"Ġhetunaa":13232,"Ġuuchusha":13233,"ajaatashatru":13234,"maNDala":13235,"Ġaashiiwishh":13236,"Ġunmatta":13237,"Ġmuditau":13238,"kiirtayeta":13239,"mpreshhayaama":13240,"Ġwiwyathe":13241,"Ġwikhyaataa":13242,"ĠwiraaTanagare":13243,"ĠparaNetaa":13244,"Ġmumuchura":13245,"abhiwaadyaa":13246,"daraupadeyaa":13247,
[...]
